#version: 0.2
1 0
1 2
1 4
1 1
2 0
1 3
2 3
1 5
1 6
i n
1 7
1 8
1 9
t h
e r
2 4
a n
2 5
2 6
2 7
2 8
2 9
o n
r e
3 0
3 5
3 6
3 4
3 7
3 8
3 9
e n
Ġ th
s t
o r
a t
5 7
a l
c o
4 0
4 6
2 2
a r
4 9
4 8
4 7
5 8
5 9
5 0
5 6
20 23
e s
in g
h t
2 1
e d
10 1
6 6
Ġth e
7 8
7 9
7 0
w w
6 9
Ġ a
6 0
6 8
3 3
i t
p s
9 0
8 8
o u
i c
Ġ w
4 5
ht t
/ /
: //
Ġ t
htt ps
i s
Ġ s
co m
7 7
l e
4 4
9 8
5 5
an d
6 7
8 0
9 9
i l
3 2
o f
a s
n e
Ġ f
Ġ h
3 1
10 2
Ġ b
i on
10 4
5 4
8 9
7 6
10 3
Ġ p
c h
â Ģ
10 5
r o
Ġt o
en t
10 6
Ġ in
8 6
8 7
9 6
ww w
a m
9 7
Ġ of
e l
4 3
Ġ m
4 2
i d
Ġ and
7 5
Ġ d
6 5
8 5
Ġ c
ne w
0 0
e t
9 5
a y
a d
i g
o l
v e
0 8
0 5
0 6
7 4
u n
0 9
6 4
0 4
a c
8 4
0 3
o w
0 1
u r
0 7
9 4
0 2
i m
new s
er s
u t
1 10
5 3
s s
1 12
al l
8 3
10 7
o t
5 2
h e
7 3
6 3
10 8
10 9
i r
c e
1 14
ar t
Ġ re
6 2
9 3
s e
Ġ l
7 2
4 1
v er
9 2
8 2
âĢ Ļ
t o
at ion
a g
Ġ g
o m
c t
u s
Ġ e
5 1
r i
u l
Ġ on
il l
Ġb e
ou r
6 1
7 1
8 1
or t
r a
9 1
Ġ S
11 1
i th
o p
Ġ C
e m
Ġf or
11 3
u m
th e
a k
t er
e st
l y
11 9
11 5
Ġ is
Ġ st
12 0
11 6
11 7
11 8
u k
a b
Ġth at
Ġw h
f or
s p
a il
Ġ n
T he
12 4
o c
12 9
u p
at e
Ġ M
i f
an t
13 0
12 8
12 6
Ġ A
o o
12 5
es s
12 3
12 7
it y
a p
m ent
s h
a re
d e
Ġ y
i st
Ġ it
12 2
a in
e ar
ou t
Ġw ith
i es
i e
r ss
q u
âĢ Ŀ
i v
a st
i ve
12 1
er e
14 0
o re
13 9
en d
13 8
13 6
Ġ B
ar d
15 0
art ic
ou n
13 7
ro m
Ġ an
Ġ at
l d
Ġ I
14 9
14 7
13 5
Ġ P
13 4
14 8
13 3
Ġw as
âĢ ľ
13 2
14 6
14 5
ac k
ig ht
p l
u st
i a
14 3
14 4
e e
16 0
u re
15 7
ig n
e c
m l
15 9
th er
Ġ co
Ġ com
15 4
15 8
o s
Ġa s
a ve
i an
13 1
ht ml
i re
2 20
o st
in e
ic e
15 5
15 6
Ġc on
g e
2 17
e x
18 0
p re
Ġs h
am p
2 16
15 3
10 0
2 29
Ġ T
2 28
el l
p ort
2 19
2 27
2 24
n s
Ġh e
2 18
u d
Ġ D
ut m
2 23
Ġ R
14 1
Ġs a
in d
2 26
k ing
2 25
o ver
t r
16 8
d ay
20 0
17 9
al s
Ġa re
t e
an s
17 8
14 2
16 9
artic le
16 7
18 8
k e
u b
Ġ r
p h
16 5
ail y
15 1
17 0
19 0
17 7
16 4
f e
c l
Ġ F
c on
Ġ v
m an
18 5
18 6
15 2
Ġ H
Ġp ro
' s
Ġ L
16 6
18 9
Ġ G
18 7
17 6
d er
d aily
3 36
17 3
a u
Ġ N
p e
19 9
ar k
on e
19 8
Ġf rom
18 4
Ġsa id
Ġe x
17 5
Ġh ave
16 3
Ġ ch
17 4
2 14
3 30
24 0
i al
b er
Ġh as
i p
w or
20 8
19 7
Ġ W
ac t
a v
id e
19 5
3 28
20 9
19 6
3 34
20 6
26 0
3 25
2 13
ow n
3 35
i z
om e
2 15
r y
19 4
ol d
u e
ag e
23 8
/ ?
23 0
Ġb y
b e
18 3
k s
o v
16 1
24 7
3 29
3 27
on g
16 2
20 5
sp ort
2 12
b r
3 26
m ed
20 4
23 9
p ro
3 37
3 38
20 7
23 7
24 9
oo d
or y
o b
is h
25 0
ing s
26 8
2 10
18 1
t s
25 8
24 8
ar y
3 39
25 9
27 0
ak e
f f
24 5
25 7
g h
im e
27 9
23 6
Ġ J
30 0
19 3
all y
23 5
24 6
28 6
Ġ le
38 0
28 7
amp a
17 1
27 8
Ġ E
en s
Ġw ill
Ġp l
ampa ign
o d
17 2
as s
f ter
36 0
oun d
29 8
26 6
18 2
14 90
23 4
35 8
30 8
19 1
24 4
a w
29 7
ion s
p er
28 0
w h
25 5
Ġd e
25 6
Ġw e
29 0
26 9
27 7
19 2
a ch
4 56
29 9
Ġth is
o g
2 11
l es
Ġn ot
4 48
r ic
ou s
4 59
37 0
c ampaign
4 46
20 2
26 7
27 5
4 50
l l
4 47
4 57
35 9
4 58
4 36
s our
u c
4 40
4 34
4 49
3 24
3 18
Ġh is
28 9
30 6
T h
4 38
3 23
4 37
26 5
30 9
re e
28 8
ac e
4 39
Ġ ne
am e
re f
36 8
27 6
34 0
3 20
5 49
3 17
Ġ or
29 6
36 9
30 7
3 16
3 15
28 5
50 0
Ġy ou
37 8
3 12
4 35
29 5
40 0
3 19
r ou
36 6
sour ce
5 57
ic h
ay s
36 7
5 46
5 40
34 9
35 7
38 6
im es
35 0
Ġthe ir
Ġa b
4 20
Ġ j
p r
37 9
re n
37 7
3 13
38 8
39 0
at ed
Ġ un
5 50
35 6
46 0
c re
3 14
Ġw or
l and
20 1
34 7
en ce
58 0
4 26
5 59
46 7
or s
m er
47 0
27 4
39 9
25 4
6 59
as h
an g
39 8
5 38
34 8
3 10
, âĢĿ
5 48
oc k
5 36
Ġs e
56 0
4 24
5 37
ou ld
5 47
4 28
49 0
6 38
t y
20 3
39 7
e w
Ġ âĢľ
4 30
Ġ k
5 35
o ot
23 3
an c
5 30
34 6
4 27
4 25
5 58
57 0
40 9
39 6
23 1
r u
pre ss
49 9
4 29
46 9
i um
37 6
4 12
57 8
48 7
ig h
4 18
5 56
b l
48 0
26 2
40 6
Ġa d
38 7
9 70
Ġthe y
50 8
5 34
p t
59 0
ab le
27 1
4 17
22 2
4 19
ation al
4 23
79 0
5 29
50 7
6 58
4 15
i b
40 8
48 8
38 9
26 3
c or
it ion
4 13
5 20
22 1
47 8
60 0
59 8
5 16
9 66
an y
Ġ out
p ol
6 70
4 14
o ther
56 9
5 28
w e
49 7
re s
40 7
Ġwh o
46 8
an ce
48 9
3 11
n y
4 16
49 8
23 2
46 6
5 39
Ġ up
24 1
50 9
Ġb ut
b all
v en
56 8
f l
5 25
i le
7 47
il d
4 11
ul t
7 59
58 8
24 3
Ġ U
57 9
5 18
ro w
Ġy ear
Ġc an
57 6
7 69
6 39
t on
5 23
as e
9 68
it e
56 6
25 2
26 4
ent s
7 70
ie w
5 12
9 69
6 29
6 47
78 0
Ġcom p
5 17
4 10
a z
Ġ 20
ct ion
ic k
7 68
7 30
70 0
ver y
5 14
25 3
59 9
Ġ O
is s
66 0
7 78
58 9
7 34
79 8
7 35
7 60
00 0
er al
47 9
b y
Ġ $
Ġof f
ir st
5 27
28 2
Ġ K
7 49
6 40
Ġ (
6 30
Ġ all
38 5
on d
7 79
7 50
6 34
p o
25 1
5 26
69 0
6 37
24 2
are s
5 19
at es
7 66
7 46
78 8
a th
7 28
27 2
6 20
29 1
6 79
5 10
er v
68 9
7 57
7 39
6 28
Ġh er
ic al
27 3
in ess
n d
98 0
7 48
op le
9 60
o y
5 13
Ġ âĢ
29 3
6 49
Ġa c
90 0
6 16
6 56
7 36
7 58
g r
6 15
26 1
6 13
am er
Ġbe en
ch an
8 60
8 39
9 78
5 15
28 4
6 48
6 50
6 19
29 2
9 56
Ġ qu
ne t
6 35
30 3
28 3
ation s
4 45
6 57
28 1
6 36
68 0
med ium
5 24
7 29
w ith
Ġd o
8 40
a ir
80 0
Ġ al
i ke
7 56
us iness
ar g
9 79
in c
30 5
7 16
8 68
7 18
Ġw ere
7 37
29 4
88 0
7 23
7 40
Ġh ad
6 24
8 35
el y
78 9
v iew
if e
6 17
ch o
Ġc l
7 25
in s
8 70
7 15
as on
n ing
Ġm e
5 11
v el
8 66
6 12
als o
Ġit s
33 2
33 3
79 9
8 38
30 1
I t
8 36
30 4
9 57
t ain
ve st
6 25
35 5
Ġ also
Ġm ore
8 34
9 37
c ent
7 38
6 78
8 12
7 13
6 14
I n
n ow
6 26
9 58
ĠC h
al th
8 26
7 14
et s
7 27
7 26
m ail
36 5
ic t
8 98
9 59
30 2
6 46
8 29
33 1
Ġa g
b u
34 2
9 47
6 23
ad e
7 20
8 90
8 13
9 12
w o
a h
34 5
7 17
36 3
. âĢĿ
7 12
fe ed
7 19
Ġa fter
ic s
7 24
9 46
8 78
ne l
6 27
34 3
Ġon e
8 69
8 24
id ent
9 35
co un
6 18
re at
8 56
9 90
8 59
8 37
8 46
9 13
in t
Ġ im
34 1
8 49
34 4
9 39
Ġab out
Ġt r
35 4
36 4
ee k
oo k
an k
5 45
8 23
8 57
c r
7 10
d s
9 23
38 3
6 10
5 44
8 15
Ġs p
9 40
Ġp er
it s
9 50
ĠS t
8 27
8 16
38 4
o ve
8 30
of f
is e
Ġ en
8 58
it ies
wor ld
c a
e ct
38 1
Ġwh ich
8 79
Ġg o
36 1
8 25
40 4
48 6
le g
8 50
9 29
at ing
9 88
8 28
47 6
Ġ op
48 2
45 5
45 3
44 4
at ch
47 5
Ġ over
Ġs ome
37 1
8 17
Ġp e
9 24
8 14
l ine
35 2
37 4
t ing
38 2
47 2
36 2
8 20
37 3
y ear
49 6
39 5
39 4
9 16
en c
8 99
ur ing
8 19
37 5
a f
Ġa p
9 14
i o
45 2
8 18
46 5
it al
8 48
35 1
39 1
47 7
69 9
59 7
60 9
39 2
Ġs he
re ss
o se
6 77
at t
or g
45 4
50 3
n ational
se e
70 9
at er
40 5
i er
47 1
l ow
sport s
45 1
39 3
58 6
oot ball
44 1
o k
9 28
g u
59 6
50 1
56 7
47 3
58 5
c ess
le y
i x
9 17
37 2
40 3
9 34
67 6
57 7
es e
46 1
46 3
chan nel
9 25
50 6
9 48
44 3
t ri
co l
f er
47 4
g l
50 2
44 2
9 49
46 2
m on
9 15
9 26
58 7
c an
f ore
9 27
40 2
9 18
i k
35 3
9 19
e p
t imes
ub l
m un
r on
57 1
49 5
p ost
50 5
m e
59 4
Ġs o
9 67
Ġt e
49 4
48 5
48 1
56 1
9 30
9 20
8 10
9 98
7 67
7 11
55 3
o th
55 4
Ġ us
40 1
58 4
55 5
ar ch
48 4
54 3
46 4
H e
ur n
Ġw ould
Ġp r
49 1
ou th
57 4
8 77
Ġt ime
m s
59 3
re d
9 10
56 3
56 5
Ġpe ople
66 7
st ory
57 3
48 3
9 38
artic les
57 5
59 5
6 11
58 3
60 8
70 7
am il
70 8
Ġ our
59 1
54 1
in k
56 2
Ġwh en
ap p
59 2
it o
58 1
57 2
56 4
em ent
i el
9 36
W e
ic an
54 2
ent er
50 4
8 47
58 2
49 3
70 6
ill ion
cho ol
60 5
8 11
Ġcon t
f ul
68 5
st ar
Ġth ere
Ġ V
68 6
an n
r al
m in
u ch
y s
70 4
over n
ment s
9 77
Ġ new
it t
55 2
i ous
n g
55 1
60 7
69 7
60 6
u g
a i
o h
f in
79 7
daily mail
Ġ ro
m channel
69 6
49 2
Ġ ar
8 67
66 9
Ġf irst
77 6
it ed
un d
c ar
Ġpl ay
88 8
66 4
cor d
Ġj ust
3 22
p os
78 4
70 5
le ct
on s
69 8
Ġin to
79 5
79 6
68 7
W h
re t
g ht
ul d
f t
77 7
90 8
b usiness
60 4
66 6
w ard
o ss
66 8
78 7
78 5
pol it
Ġad d
c all
w ay
78 6
h am
Ġd is
80 9
78 2
69 4
l ive
as ed
Ġy our
ak ing
ow er
al ph
68 2
f ootball
v is
in ter
66 5
67 1
78 1
u es
68 8
76 5
al e
78 3
n ot
77 4
68 4
for m
en g
ou gh
ĠI n
le t
Ġth an
67 4
h ow
69 5
Ġp art
77 5
80 8
co t
70 1
69 3
76 1
v ent
90 7
see king
98 9
88 7
70 2
art er
d u
Ġl ike
76 4
70 3
d o
79 1
60 3
re st
66 2
b c
rou gh
98 7
90 9
alph a
60 2
65 2
88 9
77 2
76 3
79 4
n er
79 3
69 1
Ġwh at
am es
88 6
69 2
67 3
68 1
seeking alpha
Ġn ow
Ġt wo
68 3
87 4
66 1
Ġg et
b an
y st
77 1
67 2
89 7
Ġ other
our n
ex press
ri v
id er
90 5
60 1
87 5
o x
ou se
9 11
at s
88 4
67 5
Ġre s
ar m
ubl ic
Ġthe m
89 4
99 9
90 6
ra in
ur y
Ġs up
79 2
75 1
90 1
64 1
co ur
r it
el p
oc al
Ġl ast
66 3
h er
b ut
99 6
75 2
98 6
Ġp ol
i ed
75 3
80 6
99 5
iv ers
m ark
Ġan y
pe ct
Th is
a fter
80 7
Ġb ack
Ġh im
89 3
ain st
88 5
Ġsh ares
Ġd uring
76 2
t v
Ġco un
65 1
80 3
80 5
96 4
ure s
77 3
90 4
98 5
b est
65 3
de p
97 1
ers on
or th
74 1
Ġwor k
89 6
80 4
un ch
d is
rou p
g o
s on
s c
99 7
89 1
96 5
a x
tr ans
m iss
w ar
j ect
au se
wor k
89 2
al k
daily news
f rom
88 2
ro ss
86 4
99 4
90 2
98 4
85 2
ant s
6 55
95 2
e v
ri st
98 3
Ġs ec
Ġin ter
99 1
b ack
87 3
l i
iv es
87 2
b le
Ġyear s
80 2
u se
Ġm y
84 1
97 4
en er
Ġp re
et f
Ġa m
99 3
88 3
Ġ "
98 1
r is
s l
80 1
ic es
h eral
98 2
86 5
u al
n ess
96 1
r id
8 76
87 1
ul l
Ġco uld
Ġd ec
m y
97 5
Ġ if
ol og
96 2
C h
6 45
l ife
96 3
95 3
Ġre port
88 1
86 2
c er
in ce
94 1
89 5
85 3
overn ment
95 1
7 55
90 3
97 3
86 3
mun ity
Ġh ow
Ġb et
d a
85 1
99 2
7 45
il ity
e f
in a
Ġin cl
ib le
Ġne ed
Ġf e
ourn al
amil y
at ive
iel d
est er
th ing
com p
t ra
g y
8 45
Ġcomp any
in vest
97 2
Ġsh ow
86 1
w in
8 44
am s
m ain
ak es
Ġa ct
Ġn o
c ast
for d
g et
c ap
6 44
com e
Ġm an
9 45
Ġqu arter
9 44
m ar
p art
Ġth rough
he alth
l a
e ver
c k
st e
B ut
n ings
if ic
Ġf in
c ri
h old
el f
y le
a j
etf dailynews
u ss
7 44
ist er
sh ow
9 55
w eek
Ġ Y
b re
Ġat t
m ov
pl ay
8 55
6 54
Ġb u
oun c
m et
Ġm ost
s up
le ad
8 54
he ad
Ġbe c
Ġp o
Ġun der
Ġbe ing
pre s
fe ct
Ġe very
um p
Ġs ee
Ġh igh
n es
us h
con t
Ġon ly
are d
j ournal
n o
ne y
w ill
Ġd id
l at
r an
Ġ 1
a ther
g er
A nd
Ġbe fore
ol low
l ing
l in
Ġd own
sh ip
b o
ist s
h igh
re ad
ur s
e y
4 33
as k
Ġwh ere
x t
s m
tr y
Ġm on
9 76
re g
' t
Ġe ar
m ore
ight s
sh ares
5 33
S t
ee p
n t
7 54
Ġa ss
ire ct
u ed
ru g
et er
d en
Ġb l
06 2
ch n
Ġ ra
m p
et y
b or
r ant
Ġre g
ke y
Ġcon s
c ity
ĠâĢ Ķ
v id
re port
amer ican
el s
Ġst art
Ġm ake
c ur
t ime
ag ement
w om
re view
ar s
Ġh elp
Ġd es
or k
Ġle ad
06 4
enter tain
d es
ad a
Ġe ven
ur ch
Ġw ant
le br
ĠT h
vel op
Ġwh ile
uc k
n as
r ing
00 2
heral d
09 4
6 33
05 2
Ġ end
Ġk now
04 1
ĠU n
00 4
5 22
Ġw ell
Ġs erv
dep end
ul ar
is m
one y
i ence
ren t
S S
or ies
4 21
9 54
09 1
se ason
05 1
and s
00 7
h ar
Ġincl ud
00 6
l o
ny se
ĠC om
b ers
09 3
00 8
p ar
08 1
n a
t en
4 32
p le
st ock
ig er
gu ard
ri end
b ro
09 2
06 1
u ary
it ch
ind ian
as es
ra el
08 2
ag es
on line
7 33
Ġth ree
ion al
00 9
em ber
4 22
08 4
u ne
Ġm ade
o sp
05 3
s w
er ies
c al
b iz
Ġd ay
cre en
t ed
06 3
entertain ment
u ff
08 3
Ġbec ause
6 43
00 1
ire d
v es
Ġst ock
00 5
g an
Ġg ame
Ġgo ing
l ed
a im
or d
in ion
Ġsup port
Ġ 19
ĠâĢ ĵ
to p
Ġc all
. "
Ġs et
yst em
Ġth en
Ġth ese
s ur
d own
Ġd on
st ate
00 3
v ol
Ġw eek
Ġm ark
s un
Ġag ainst
v al
is ed
ra ph
Ġcont in
da q
Ġw ay
Ġm in
il m
Ġm any
v ed
k ill
Ġt ake
07 2
07 3
ie f
anc ial
at ur
nas daq
r ong
07 1
Ġse ason
h ome
Ġl ong
Ġp res
Ġin vest
d r
S he
Ġm ay
le ar
al es
ear nings
depend ent
Ġ own
Ġd if
g az
Ġte am
cri pt
6 32
v ers
Ġ 2023
enc y
r ad
f irst
A s
p ed
iv ing
c y
w ood
b ur
7 43
b ar
ic ag
ou ght
polit ics
ag ue
on t
Ġth ose
Ġsh ould
l ocal
an e
8 43
is ion
ir m
Ġmon th
od y
le ction
ob al
Ġ '
Ġin d
c es
s ays
Ġre t
The y
6 22
s chool
s ide
Ġar ound
f ree
Ġin cre
r or
ĠN ew
Ġ 2
it es
re en
7 22
we en
us ic
Ġst ud
h ol
Ġ -
7 42
R SS
âĢ ĺ
Ġg ood
re al
t al
f ire
Ġ The
th is
Ġh ome
op inion
ast er
du ct
se arch
v ir
y ou
Ġs ay
ian s
s erv
an a
ir d
av ing
u ro
i ps
us ed
wh at
a ut
v s
Ġg u
Ġre sp
h as
Ġm ov
Ġ very
Ġoff ic
ard s
un der
et te
ild ren
Ġs ur
Ġs ign
oc i
Ġm uch
Ġre l
e g
cord ing
chn olog
s et
l s
pl ain
3 21
8 33
Ġth ink
miss ion
r ound
l aw
w ays
h ind
en se
ban king
indian express
A N
n orth
s creen
to day
Ġc ur
5 32
guard ian
co ll
Ġr un
9 33
st and
Ġst ill
Ġb el
Ġp h
b ig
b ook
b s
qu e
ĠâĢ ĺ
Ġv al
l ess
ver age
Ġsec ond
Ġex per
Th ere
ure d
Ġb usiness
ers h
pol ice
j o
re w
A R
j ust
l if
a ff
k y
in dependent
ic le
s outh
m a
at or
ivers ity
Ġan n
trans cript
Ġm ed
Ġf our
art s
ut ion
6 42
c il
ic a
ot e
v ide
r un
Ġ 3
Ġc ar
re m
8 22
iz ed
i ent
n ed
ra w
d uc
Ġst ate
g amer
ell s
ch icag
oc ial
american banking
gamer ant
americanbanking news
Ġg overnment
b es
i or
m ber
at a
Ġ 10
an ge
ot s
re am
ol l
t a
ro ad
Ġpr ice
oh n
9 43
w est
i ver
cot t
m ost
Ġc ap
op e
8 42
Ġre cent
Ġco ur
H ow
, "
Ġe m
z e
gr am
en ing
st ud
Ġs c
re et
ac es
oun g
end ing
Ġt ra
h ouse
ac y
m ay
ric t
r c
Ġs m
um ber
d em
g en
al f
Ġw in
Ġf ollow
sh ire
Â £
9 22
u ally
ust ral
Ġwor ld
ver t
l ight
I f
de ad
c are
Ġl ife
z a
ch ar
ut ure
Ġbet ween
Ġdo es
et ing
Ġis s
t est
Ġs ince
po int
10 15
ab out
Ġp os
tr act
m itt
rid ay
7 32
Ġre ally
S h
or m
f ield
pe ople
r am
st it
Ġs uch
Ġr ight
at ely
Ġc ent
Ġf amily
ist ory
Ġm illion
um b
wh o
A l
er y
al ity
row n
Ġinclud ing
8 32
Ġc are
id en
A n
ul ts
d el
re l
Ġtr ans
p ing
r and
Ġco l
screen rant
z z
Ġc r
p or
de v
ar i
o on
osp ital
Ġs ays
i ally
Ġh app
en ed
ing ton
ult ure
Ġto ld
Ġm em
Ġex pect
in es
Ġb ig
ther n
20 22
on es
th or
p ut
Ġpl ace
pos ition
ric k
m as
ce lebr
form ation
st er
is on
Ġs ame
Ġb oth
Ġs chool
Ġg ot
Ġbe st
um an
ĠD e
Ġsp ec
af ric
on y
ition al
12 35
Ġl ook
4 31
th at
p m
ce pt
ll c
Ġne xt
is ing
bl ack
cent ral
y ing
iz e
Ġs ub
im ate
our s
ĠA r
pl oy
ĠL e
Ġap p
Ġp erson
ro p
Th at
9 32
Ġg reat
ĠS h
uc cess
s ol
pr of
Ġcom e
cot land
a id
Ġp ut
Ġhe ad
ond on
w atch
e ast
es p
ow ns
Ġdif fer
oo king
ron t
v ict
act ion
are n
i ol
at ure
b ank
w ell
ff ic
Ġap pro
c ut
in al
Ġw om
Ġp ublic
ĠI s
in ts
itt le
oo ks
m id
Ġf ound
bu ne
it or
ear s
ed eral
ĠA l
b el
g n
O n
st ru
Ġl aw
au ght
ĠS e
year s
Ġt ri
v o
b ed
Ġpol ice
at ter
Ġd el
Ġg row
Ġt er
ra ine
r ate
il le
Ġp ass
ob s
110 0
F or
Ġle g
Ġde f
l er
aj or
id s
h a
is er
le ase
coun ty
Ġhe alth
f ood
le ge
Ġch ar
b a
r at
d i
g est
g ame
ĠM an
ic ally
ost on
m it
o il
Ġ use
chnolog y
S o
t wo
Ġcoun try
g in
Ġ 4
10 00
Ġf l
5 21
i als
pl ace
port s
y our
Ġcom munity
met ro
read y
wh y
ĠA mer
gaz ette
iv id
d ig
m illion
com munity
ew s
uro pe
g ress
arg et
am a
Ġan other
can ada
f r
it ing
ed s
y n
Ġf ind
Ġd irect
iv al
Ġcur rent
G A
Ġin t
b et
b bc
for bes
Ġde velop
Ġh old
r ation
qu ir
Ġto p
de ath
ul y
h is
l im
ĠM on
p act
20 24
ny times
m ir
Ġbu ild
c br
is es
id ents
n ers
Ġmark et
Ġl ot
i co
s rc
9 42
w a
enc es
il it
Y ou
ent ial
polit ical
atur day
con s
r ight
ag ed
gl obal
d ate
ersh ip
p ower
c le
f ort
ab c
Ġne ar
am ent
of t
Ġp ost
Ġadd ed
s co
com ing
the guardian
ĠB l
Ġ20 22
7 31
po ol
Ġp ay
ad d
ro ll
m c
ĠC oun
amp ion
a ur
w as
vir on
ut e
ed uc
al t
Ġv is
Ġb re
l or
th en
Ġre ce
ish ed
h ave
ab ility
11 13
ex t
hold ings
Ġw on
112 0
rist mas
s en
Ġ ob
c up
o de
10 17
Ġh ere
ell ing
7 21
el d
i for
m ag
ak er
chan ge
ro l
n or
ĠT r
f all
s k
Ġle ft
5 31
en e
b t
Ġ 5
105 3
b i
f fect
Ġd em
te ch
ward s
er ing
it iz
p ublic
is rael
as ing
il y
ind ia
107 1
s ign
Ġs im
ad es
Ġcon f
Ġw ar
man agement
ac c
Ġre st
Ġre main
if ied
g ed
p at
el t
res ident
viron ment
l ong
ri ver
n ia
t own
est yle
Ġst at
ap an
Ġim port
de f
ĠM in
p en
w ater
om in
end s
U n
s u
106 4
c i
106 3
ill s
um mer
iv en
s elf
Ġa way
ra ft
Ġac ross
ro y
i od
m ur
10 55
Ġn umber
urs day
g roup
ist rict
ĠF riday
n ight
12 19
ĠI nd
st ories
ag ainst
ust om
ed nes
ic y
Ġto o
g le
10 38
st yle
iv ed
Ġ Q
ĠH e
h ot
Ġco st
end ed
b oston
Ġe vent
oth ers
coll ider
ednes day
u de
10 85
iger ia
com ments
ge ther
114 0
p ay
105 1
f amily
h or
ad o
ens ive
f ight
g row
Ġp ower
i am
Ġf ive
Ġp oss
th an
ct or
ĠS un
6 31
h om
mov ies
at ures
Ġe ach
d on
g ood
mark et
s ites
10 10
v ious
Ġth ings
Ġf un
qu est
le x
se x
109 3
c ed
ĠR e
w are
Ġdiffer ent
y ork
104 3
6 21
Ġ Z
Ġfe el
8 21
14 40
on om
sp ect
Ġa verage
107 3
m al
t ake
a ul
10 19
14 23
Ġt ry
ie ve
anc es
ch ron
Ġre ad
cour ier
b ab
t or
12 48
âĢ Ķ
ĠA d
br id
Ġfor mer
ĠSt ate
chicag o
e lect
leg raph
) .
t il
ifor nia
Ġp ast
Ġre al
fer ence
st on
ad vert
Ġs ystem
Ġal ways
b and
b ury
10 33
Ġn ight
att le
10 29
11 68
er ed
lif estyle
st art
if t
port un
con om
Ġop er
ad v
Ġf ew
f riend
cour t
com m
Ġc or
ust ry
ĠC ol
Ġare a
A t
104 2
Ġall ow
g reen
Ġpo int
sup er
g ets
11 15
al d
ues day
h y
12 79
am in
pl an
ĠCoun ty
r ay
ak ers
) ,
or ld
Ġl ocal
ĠC o
10 47
att ack
Wh en
m en
Ġc ity
un ited
ak en
Ġch ildren
m oney
Ġp rom
end er
How ever
it ions
Ġre search
ĠC l
ec k
av id
de c
ra p
ail s
ĠP ro
coun t
Ġus ed
m or
s ub
et t
ri ve
ol ice
K AR
ru ss
11 60
ch ester
coun cil
ĠC ity
AN GA
13 23
an uary
Ġh and
Ġd ays
KAR ANGA
h elp
10 27
108 1
Ġk eep
12 00
ur ity
ĠR o
Ġne ver
Ġmem bers
m usic
med ia
Ġsome thing
wom an
re cord
n own
112 5
Ġdid n
k now
n ov
11 19
Ġm ight
th es
104 1
art ment
Ġpro ject
f ilm
k en
105 2
Ġto ok
f em
s a
10 14
11 88
Ġg roup
ĠM c
109 2
oc ks
Ġbet ter
u el
10 23
10 80
15 34
iv ely
Ġle vel
11 70
co ver
g es
Ġc re
114 8
b en
b oy
id es
Ġab le
R e
Ġf act
114 1
Ġqu est
11 80
ro om
ve h
v ille
in to
Ġf riend
im s
ec onom
land s
m em
11 98
Ġex p
Ġpl an
Ġadd itional
f und
Ġc ame
Ġwor th
Ġinter est
12 36
op er
Ġp artic
âĢ ¦
10 70
11 59
Ġf ar
106 5
112 8
Ġf ac
ro ck
ent ion
10 25
ab or
ester n
t ren
10 60
112 3
12 80
qu ire
iz ation
l ook
Ġ 6
ch e
p ly
12 70
un g
ag er
op en
te legraph
Ġ ent
10 56
11 69
Ġm ove
bu ild
Ġs pe
ĠP r
for man
cl os
Ġex t
Ġplay ers
10 30
13 48
Ġe lect
con d
be at
li ver
oo st
ik ely
10 78
s y
Ġs ix
b b
Ġ 12
10 37
10 66
Ġf ire
te am
Ġse ver
Ġl ater
o e
re ve
st ri
Ġcon cer
ĠTh ursday
i as
10 16
10 48
10 58
10 98
cott ish
c uss
10 35
10 40
Ġst and
ĠP ark
ustral ia
d le
it ive
il es
am ed
ail ed
oc us
10 46
Ġp op
ĠS p
ĠM ar
pl ic
wh ere
f ark
m ake
12 15
12 58
106 1
em ic
r up
11 36
114 4
to c
sp e
Ġwith out
Ġse en
Ġmonth s
c bc
12 28
12 46
p ass
Ġm ain
Ġc er
ur ther
12 16
13 35
Ġor gan
ven ue
Ġpr of
10 39
12 34
11 86
ĠU S
Ġag ain
A r
ĠS aturday
Ġper iod
11 34
Ġpos ition
g ames
p ark
Ġ news
10 18
W ith
10 06
ch ed
a el
11 14
ĠW ednesday
wh ats
j oy
it ical
Ġg l
Ġac cording
fin ancial
Ġ 7
c mp
10 79
Ġh ard
106 2
educ ation
Ġm aking
em s
ĠM ay
ff ort
oot ing
Ġad v
pres ent
Ġimport ant
u ation
v ail
13 15
Ġas k
tri but
L C
14 50
18 50
9 21
107 2
ly wood
chron icle
11 57
11 90
l ike
s he
Ġs ide
Ġh aving
109 1
Ġr ating
biz toc
g reat
11 18
114 5
ounc ed
g ir
in o
Ġ el
10 20
en n
Ġh ear
sp ec
Wh ile
Ġret urn
n ation
ĠA n
Ġsh ort
Ġwor king
' re
10 59
12 24
12 29
14 49
Ġc ase
ur al
13 27
p al
Ġsh are
ous ing
Ġal ong
advert iser
10 34
15 14
Ġth ird
Ġf ore
Ġp ot
Ġl ove
Ġcall ed
w s
13 59
Ġw ater
Ġd et
13 36
ad vis
h it
13 43
16 00
bu zz
c ulture
Ġ Â£
14 80
Ġa ir
108 2
ĠC an
pro ve
U S
10 57
le ague
Ġc e
pres ident
O ne
b ay
o ard
10 09
11 30
if f
s ent
Ġ &
12 26
11 39
13 90
Ġs ol
Ġl ine
Ġcl os
A c
10 26
10 49
12 23
Ġb illion
Ġm iss
110 9
Ġop en
ask et
a ult
Ġw ent
Ġal ready
Ġm oney
112 7
ant i
A fter
10 76
11 12
110 8
ny post
h i
p unch
v ing
11 37
11 56
in f
it le
Ġt urn
Ġcl aim
off ic
mon th
ĠMon day
ilit ary
o le
12 66
12 60
13 34
112 6
om ent
u ge
13 66
in j
en eral
Ġpro cess
Ġtr ad
ex per
at ors
Ġs co
Ġh it
Ġre f
Ġe conom
h an
12 38
12 47
114 3
Ġv ict
fin al
Ġpo ints
dig ital
12 25
15 80
Ġl ittle
Ġg ames
Ġpro vid
per ty
r ang
10 69
12 56
Ġs po
Ġd ue
ri ed
ĠM r
14 39
10 90
12 27
al yst
u ps
10 88
12 68
Ġcontin ue
am b
Ġst ory
12 40
re y
ic ks
10 68
ne ed
Ġf und
T o
ar l
Ġs it
bre ak
10 28
10 77
13 70
as y
112 1
12 90
11 58
ur ns
bu y
Wh at
14 29
13 46
pos ed
p et
er ve
an ies
to m
ĠT uesday
12 37
12 50
11 77
16 13
ar ge
Ġh alf
ro s
ĠS outh
ĠA ss
l ist
u thor
10 04
re ed
Ġj o
iv il
irm ing
un t
ber t
aren ts
13 28
ar n
all eng
min ist
Ġreport ed
11 38
for ce
ĠG roup
Ġde al
cr ime
Ġatt ack
g ing
Ġ 11
ar rest
to ber
g ency
Ġde ath
ener gy
10 97
13 96
Ġf uture
Ġl and
pr il
org an
plain ed
f un
l ondon
11 79
the ir
d og
f ace
12 86
11 66
sh op
Ġle t
s al
10 36
Ġto gether
114 9
br uary
g ra
Ġmed ia
f our
l ast
t ion
b ud
10 50
12 67
14 79
14 06
ĠIn c
b our
12 17
114 7
ind s
s ing
15 66
ri bune
ĠR uss
w all
Ġ 8
14 00
Ġf ilm
ch arg
112 2
Ġre m
Ġ owns
10 24
10 84
12 18
and id
cl ass
ew ish
10 13
14 25
co st
cl aim
ĠN ational
inter view
Ġe qu
Ġac cess
Ġop portun
Ġstud ents
d ing
in ed
Ġs eries
ĠUn ited
mir ror
11 35
13 30
Ġl ist
tr ump
forman ce
asket ball
b ased
14 47
13 26
all en
ill ed
Ġserv ices
Ġcour t
14 70
13 37
or ado
al ed
Ġd ata
for mer
13 18
13 39
Ġa vail
ri es
ap e
ĠSun day
13 60
co uld
Ġt imes
Ġf ull
afric a
14 15
oh ns
v an
14 26
id ed
Ġch ange
ang es
Ġ art
10 54
11 65
Ġt rain
ne ct
oun t
Ġear ly
8 31
11 50
11 97
15 20
it ter
Ġst rong
ounc il
cont ent
b ox
e lection
10 12
ot t
Ġp urch
Ġc lear
ific ant
s us
10 07
13 58
13 54
ig ation
114 6
Ġl ooking
Ġwh y
Ġpro duct
ĠW est
ove mber
cap ital
e very
l ove
ar a
Ġt arget
de al
ĠT e
L e
b ill
Ġ 30
13 25
Ġs old
anc er
h and
13 40
Ġin formation
112 9
Ġe st
sh ould
Ġh ouse
sup port
A d
12 78
Ġs uccess
Ġf ree
Ġp ress
us es
k a
n fl
10 11
th ree
ut es
Ġre cord
Ġl ive
Ġserv ice
k i
13 88
15 36
in el
Ġun til
11 99
er ver
Ġf ood
la unch
s ystem
y an
Ġto day
12 77
13 78
114 2
Ġfor ward
Ġro ad
lead er
a ud
10 99
12 20
12 04
ĠS ec
Ġor der
cast le
D e
h il
10 32
12 59
14 24
Ġy oung
heral ds
f c
11 94
or der
daily political
A ll
am ing
ĠC on
Ġcom es
Ġim pact
du ction
Ġwom en
r um
t alk
10 45
Ġs ing
s o
10 87
13 69
15 79
ĠUn iversity
vide o
12 57
13 29
13 50
ar ry
est ival
m od
15 49
15 86
Ġg ive
t w
12 98
ce mber
Ġe v
10 05
12 88
13 47
an i
2023 0
le ased
110 7
Ġcons ider
b ody
f ox
g a
h ost
n i
Ġs ent
Ġb en
Ġval ued
r ank
12 39
14 19
13 38
13 89
Ġm et
he ther
Ġfollow ing
Ġsever al
9 31
Ġ 15
14 28
11 16
11 72
ĠB e
ĠF e
ĠH igh
Ġpro gram
mon t
ag ing
ex as
bo ard
f act
11 17
13 57
13 67
il ities
as ia
Ġl ess
itiz en
ĠE x
Ġfin al
B C
11 84
13 00
htt p
Ġd ist
ac ter
Ġpres ident
C om
12 69
14 36
co gn
stru ct
l an
13 20
Ġs ocial
Ġm ust
Ġm ajor
ow s
Ġl oc
ri or
te ct
mark ets
12 49
14 38
Ġin j
ĠP resident
10 67
15 24
ee ks
14 18
11 74
13 16
uk raine
ich ael
12 30
11 78
15 98
leg ed
riv ing
irming ham
B e
re me
ate g
g un
m o
w rest
14 57
13 17
mitt ed
b iden
14 58
16 17
Ġf il
Ġh ost
Ġbe come
wor th
pt ember
o ps
10 94
14 04
13 08
15 26
in quir
em pt
ĠIs rael
f ound
14 56
ec ut
k er
12 09
14 27
ne xt
Ġac c
vis ion
Ġexper ience
11 87
Ġb ring
Ġin vol
et e
Ġre ason
heralds cotland
l ay
14 37
Ġm atch
ir th
est in
ĠM arch
fem ail
g overnment
Ġ oc
Ġp ar
h istory
i ents
t im
15 39
in cre
com es
Ġst op
oth ing
13 09
15 08
re sh
ub s
d ates
v ill
10 96
12 93
15 00
ĠS chool
ĠC ouncil
Ġv iew
Ġavail able
p erson
10 08
14 20
14 60
14 99
Ġf urther
ch ild
Ġr is
ens ion
og raph
mitt ee
Ġgrow th
k es
12 89
Ġf ans
ĠL LC
Ġdes ign
13 56
13 79
ot a
qu ired
Ġv ide
v i
10 89
14 09
13 80
iv ity
Ġex c
n on
10 95
14 46
13 24
13 84
gh an
ful ly
B l
10 22
10 44
10 86
12 99
it i
and star
amer ic
Ġspec ial
sp ir
b d
h ill
15 59
Ġstart ed
11 64
13 98
15 87
Ġc ustom
ess ion
amil ies
Ġget ting
lat imes
buzz feed
13 19
13 49
Ġt al
Ġt aken
ĠC or
oun tain
14 69
our t
ĠY ork
I N
f ic
h ere
15 29
ist or
ore d
Ġpre vious
Ġam ong
s ay
15 23
Ġt est
ix p
14 30
13 68
ul es
tra vel
a e
12 96
14 88
Ġt aking
Ġs w
ap er
11 96
16 18
Ġf ight
Ġsm all
aught er
S e
c ase
Ġcom ing
Ġ20 21
Ġ 18
16 66
up le
if y
de velop
wom en
j a
s an
Ġin fl
Ġg ener
ang u
tren ds
m b
s n
10 75
12 84
15 30
Ġto tal
lat est
1 106
f ans
15 46
15 50
15 78
15 70
ut ions
ĠS erv
ash ington
14 48
13 53
ac ed
ang er
N ew
13 03
ven ing
az ine
Ġen ough
h ire
j ud
12 22
13 06
el ess
Ġe ffort
ound s
- -
d om
p ite
12 42
con f
ĠH ouse
ohns on
1 105
s and
11 67
11 75
k o
m ig
10 01
12 41
Ġs l
ash ion
Ġdo ing
boston herald
15 27
er t
ain s
overn or
Ġmov ing
12 87
14 66
15 17
15 28
or ge
Ġl ow
Ġcl ass
id a
se cur
Ġg iven
ĠN orth
11 10
11 89
15 18
oun ce
n bc
12 82
14 98
15 19
Ġe ffect
sh ort
M an
k n
11 32
15 90
Ġc ut
ĠD ep
ĠU k
f ric
h ard
p ers
14 35
14 59
14 55
15 57
ar ing
Ġwith in
Ġcom mun
au g
pr ise
h app
Ġ veh
12 08
il t
bl ue
b on
g old
j ohn
10 02
11 76
15 58
Ġb ro
mov ie
free press
j an
12 95
13 77
1 103
10 74
11 62
15 88
ric es
mer c
cr ash
j apan
w ales
14 77
15 16
15 37
th em
Ġb all
ent al
g ree
h ood
Ġ ens
Ġin c
ĠA pril
av y
Ġce lebr
f ederal
p op
p rom
15 69
15 93
Ġen g
12 65
12 07
12 51
14 34
11 53
ou ch
Ġw atch
net work
Ġstat ement
r ace
10 03
12 05
ac ing
ĠC ar
ear ch
ph ot
Ġpro ble
riv ate
Ġres ult
go ing
13 07
15 96
re sp
the y
oc um
Ġr at
f a
12 55
14 68
13 76
Ġm id
Ġst aff
ĠB ank
15 42
Ġth ought
ab l
ĠP olice
cl us
irect or
15 40
M ar
g ot
13 14
15 68
er ious
em y
Ġus ing
1 104
112 4
ĠW orld
c tober
15 60
Ġre ach
ĠS te
pr ice
ĠSt reet
Ġpart y
show biz
den ver
12 14
12 75
11 54
val ley
oci ety
Ġdoes n
Ġexpect ed
ampion ship
y e
15 35
15 47
ne ar
Ġto w
ul ation
u le
Ġ others
pre m
Ġbre ak
o es
w al
Ġ ide
12 64
ĠR ep
Ġch arg
az on
Ġme an
cont in
s ocial
12 74
bl ive
tri blive
12 52
12 92
Ġf ace
ĠAmer ican
Ġask ed
f ive
14 78
15 25
ou d
se a
Ġst ri
Ġy et
col um
Ġsign ificant
a ps
h av
Ġ 13
14 89
15 56
ou ble
Ġh eld
oc r
Ġco ach
ex p
Ġle ast
Ġqu ick
ste ad
Ġann ounced
12 97
14 16
14 86
13 87
av or
Ġcl ose
M e
e es
Ġa ction
ĠR es
Ġpro vide
ish ing
Ġk ind
ret urn
kill ed
c ard
it ness
pro ject
w rit
12 45
12 32
16 16
Ġth ough
ib ility
Ġdec ision
ollow ing
Ġbuild ing
b irmingham
f oot
p an
10 83
14 76
15 65
Ġne t
air s
12 85
11 82
Ġp at
aw ay
col lege
ann ounc
11 55
11 73
11 92
sl ash
l os
15 99
ar ies
el ves
id ay
sh ips
e qu
l ant
s ome
18 64
com ic
Ġon ce
ĠP art
Ġpres ent
13 99
13 32
13 86
st ill
at ic
Ġm or
Ġl ikely
ĠE n
wrest ling
h on
s eries
Ġd one
Ġk nown
invest ment
m ad
or n
Ġm od
ust ain
wh ite
b ad
f ra
f uture
11 33
week ly
cal ifornia
Ġrecent ly
E R
M y
14 17
is ode
Ġs ure
ch ief
iol ence
b ow
d et
m ot
14 08
13 95
cor por
ĠIn ter
main e
C on
b asketball
Ġh istory
ĠS up
Ġem ploy
12 44
14 95
13 94
15 33
16 08
Ġl a
Ġbe hind
be ing
Ġsec urity
j e
t urn
12 76
14 45
13 55
15 89
15 07
ĠC ent
um e
te chnology
14 97
st op
Ġm usic
Ġd r
ĠW h
11 63
15 09
Ġth ing
res ults
ug ust
j ack
Ġ 9
il s
Ġh om
d ict
o ke
10 31
15 95
Ġin st
im in
Ġe ver
s ch
y a
Ġa uthor
Ġs us
Ġm ult
Ac cording
e urope
12 33
11 52
Ġm en
ol f
Ġre ve
1 101
b at
h ur
h aw
p ot
14 67
c ities
Ã ©
on a
ent ry
Ġcon d
Ġag o
show s
Ġposs ible
19 54
il ar
ch ina
ĠF in
Ġsp ace
Ġiss ues
inquir er
e ce
14 96
Ġro le
Ġcer tain
m and
n igeria
o ice
Ġ 0
Ġ ident
12 83
13 64
15 38
er a
Ġst e
14 87
it er
Ġh ope
se cond
ĠC ourt
ĠJ une
C ar
P r
b ra
c s
i que
t d
th ings
Ġc rit
ĠA ir
ell ow
tri es
14 07
11 83
av es
leg al
mur der
14 84
Ġl oss
ĠC ap
Th ese
Ġro om
duc ed
stud ents
obs erver
nor thern
f arm
k r
12 54
11 85
st one
ation ship
z er
Ġ 14
Ġ 16
12 73
Ġg ave
c itizen
14 65
13 97
13 51
ist an
m atch
13 65
15 48
ay lor
Ġneed s
Ġdevelop ment
j ewish
l oss
w ant
12 03
Ġl ate
ter m
' ve
C O
i et
Ġ old
14 94
Ġben ef
g ers
Ġ 50
12 06
14 44
13 45
Ġf ront
ch ildren
ov ed
Ġfin ancial
k in
t ax
14 63
11 31
ant is
ard en
ĠJ anuary
Ġind ustry
brid ge
c as
enc ed
bur gh
E x
h uman
s ells
10 21
11 51
Ġt ax
im ately
Ġj ob
Ġcomp et
call s
allen ge
b ec
g ov
r d
u it
13 44
an iel
b ing
12 62
14 85
11 95
13 63
al ys
ic em
tr ad
ĠMin ister
secur ity
12 10
12 02
14 74
the hind
ste el
rad io
I s
h ospital
t ers
Ġb it
ch ristmas
Ġl arg
us ing
us band
w ild
11 11
ed ing
ian ce
Ġde v
Ġme et
Ġen er
ug gest
d y
Ġ 17
15 67
Ġof ten
ag on
d c
f p
20 70
13 05
15 06
16 10
invest or
b urn
g i
Ġb r
Ġoff er
Ġwom an
Ġvide o
f ront
m ill
th rough
re p
al i
ro b
Ġc a
ad y
tr ust
coun try
Ġper cent
y l
14 91
17 85
Ġl arge
inter est
rick et
b ree
s uccess
11 81
13 42
13 04
16 69
on to
Ġadd ress
w estern
13 72
le v
Ġse ven
13 74
15 76
16 07
Ġt reat
Ġwant ed
h all
12 53
Ġh ours
Ġl ed
sp ot
c amp
ic ation
le te
Ġoff ice
gr ound
14 05
16 04
Ġme eting
Ġpot ential
14 72
13 33
at ives
Ġshow s
b al
f ol
s old
t ur
13 75
15 97
ie ce
Ġv ot
m ic
p ast
14 75
17 15
Ġw hether
Ġm oment
Ġcomp let
Ġincre ase
t rain
14 01
15 45
an ks
Ġw a
ip le
wh en
ĠO r
Ġplay ed
Ġsay ing
Ġbel ieve
15 55
wh ile
Ġcour se
Ġrece ived
m ob
12 81
13 10
Ġch ild
leg it
P ro
m ac
14 22
20 68
in king
Ġf irm
Ġin s
Ġl im
ĠB ar
Ġv ol
comp any
h im
12 43
20 00
15 05
Ġb as
om et
ith er
Ġst ake
Ġme ans
Ġquest ion
punch ng
p y
y oung
14 93
16 45
in n
re lease
Ġm ar
ĠF or
Ġtry ing
alyst s
i j
12 21
le e
Ġh uman
Ġco ll
ĠJ uly
rou ght
Ġar rest
Ġdis cuss
ĠMan agement
c ru
14 92
13 83
16 15
16 09
ter n
Ġn ational
con cer
bre aking
Ġevery thing
a head
14 52
19 69
er ry
st rong
Ġsa w
Ġapp ear
ecut ive
I D
k ent
14 53
16 03
and emic
he art
T r
12 11
on se
Ġp ort
Ġm akes
we alth
ĠRo ad
bree ze
p ri
12 13
16 06
in fl
Ġt y
te en
ock ed
Ġap pe
spec ial
M c
l ier
12 63
17 47
ill ing
Ġst ay
cl imate
wor ks
in ese
med i
ĠO ctober
digital trends
14 03
13 73
Ġf all
el es
ers ey
Ġn ame
âĢĿ .
Ġen joy
ĠCom mission
atur al
Ġvis it
C l
b ri
h ib
13 52
17 48
ap pro
ĠP ar
ph one
ĠW ill
ĠU K
Ġincre ased
Ġla unch
d id
14 64
18 33
st ream
day s
Ġrat io
comic book
14 43
15 83
er man
Ġc reat
gr and
grow th
m ith
Ġ key
id ence
sh ooting
ann ed
ran ch
F in
w ins
Ġ 25
12 91
Ġa head
ast e
ov ers
lin es
Ġener gy
1 102
13 71
ol a
Ġst ar
m us
13 93
co ach
ch est
daily breeze
tri bune
du ce
Ġpol itical
serv ices
b ell
14 73
13 22
17 02
ou l
ent ly
un ion
bl og
pect ed
esp ec
ĠDep artment
S ome
f ar
14 83
al a
ist ic
Ġch alleng
inter national
A S
12 94
15 94
Ġd am
Ġl ost
part y
stru ction
c ross
m ing
t ies
12 61
19 52
ĠW e
ĠE urope
econom y
d rug
e ag
23 59
ad ium
om as
are nt
ĠH ar
Ġex pl
coun ter
Ġunder stand
Ġevery one
11 91
13 02
or ing
Ġp ick
ren ch
Ġincl ude
alys is
espec ially
m ass
15 75
ĠA fric
gl ish
vo ice
liver pool
c am
Ġ 24
le ft
Ġper formance
13 21
15 77
15 74
18 24
Ġl ight
Ġe mer
ap r
sour ces
Ġph ot
N o
m art
12 31
17 16
th reat
Ġh ospital
Ġc ampaign
Ġre leased
our ney
do es
Ġdif fic
Ġcurrent ly
reve als
M r
g ar
h alf
in ing
Ġf ocus
Ġm ess
Ġm ember
ig inal
up date
15 44
15 85
15 01
15 62
ww e
and er
Ġhe art
11 93
it ics
Ġs ex
Ġfor m
ĠA nd
fe atures
ĠG u
ĠN ovember
we et
Ġgo al
i ers
16 34
is land
com ment
Ġre present
um er
oo gle
Ġr ate
Ġpartic ular
ĠFe bruary
11 71
15 52
27 68
ic ip
Ġw eeks
oc cer
Ġsa f
cl ud
Ġhigh er
b ase
m ult
16 65
19 76
ed itor
new castle
oc rat
Ġres idents
Ġra ised
ic on
Ġt alk
iz ing
gl as
icem ag
I T
v in
Ġ especially
13 41
ur ance
ct v
ĠM ark
Ġpl ans
Ġbu y
ĠBl ack
Ġfriend s
investor place
Ġb ody
ĠC al
ĠG e
express andstar
russ ia
ateg ory
birmingham mail
11 61
15 22
18 26
18 21
st reet
at al
se cre
ĠJ ohn
ĠLe ague
A mer
b oost
f ast
g as
p a
ed ge
am id
up dates
ĠA ll
Ġmor ning
D on
b ul
15 73
19 41
er et
Ġg ir
Ġco uple
ĠW ar
act ers
per th
oy al
col orado
amin er
14 02
news network
ist ry
Ġim prove
Ġen vironment
gu ide
Ġpr act
Ġear lier
f ind
m other
15 12
15 54
ire ment
te ach
Ġcomp anies
Ġmin utes
o a
u x
co s
ber g
po ss
gr ad
Ġal most
week end
dev icemag
advis ors
16 05
at ory
Ġh on
ir c
ĠM ed
ĠD ay
Ġsome one
a ustralia
m arch
u th
Ġ X
13 85
em p
b ate
l ab
12 12
18 17
th ers
le w
Ġbe gin
ab ly
amp ton
report er
i pl
s il
t re
14 54
13 01
13 92
15 84
er n
co very
he st
Ġg round
Ġdirect or
18 19
Ġn on
ian a
b ol
19 05
Ġbe gan
anc y
ĠCh ina
serv ice
e th
14 42
16 56
le ment
ol s
ag n
Ġare as
Ġval ue
Ġopportun ity
t akes
14 71
er r
at est
Ġb ased
fe at
eng land
rit ish
Ġcre ate
19 78
en a
Ġb ar
ĠA p
Ġpro v
Ġte chnology
Ġris k
g all
ro te
pl ans
av en
cr is
off ice
ĠV al
Ġplay ing
C A
d ie
k ids
p to
s ummer
t ions
15 15
16 80
Ġpro tect
ĠDe cember
ĠTr ump
Ġtow n
b oss
16 79
17 58
ut y
Ġre lease
ap point
ack s
Ġneed ed
des eret
d ies
15 64
17 26
le an
Ġh ot
Ġre venue
ĠA ugust
ustral ian
v iv
15 92
er c
it z
ak s
ex plained
tal ks
b ang
f ashion
s ix
12 72
14 51
16 76
Ġl ower
af ety
Ġcontin ued
Ġdiffic ult
S p
m akes
Ġ 100
13 81
15 04
15 02
15 63
16 39
Ġth reat
ad ian
ir t
Ġcon tract
224 2
Ġde ad
we ather
Ġcl ub
Ġcoun cil
Ġiss ue
Ġdel iver
ctv news
in em
18 12
en vironment
riv ers
P e
c c
h el
j un
16 23
18 23
Ġl o
ĠP al
Ġj ud
ins ide
use um
Ġcare er
14 14
16 12
Ġd rop
Ġl if
ĠG l
pro gram
rid ge
Ġind ivid
oci ation
e cho
w alk
15 53
Ġb oard
Ġp ush
Ġm ot
Ġe p
ĠA t
os co
Ġsh ot
der n
ip p
Ġout side
Ġreport s
Ġchar acter
ivid end
announc es
3 143
t itle
16 59
16 42
in ks
Ġa ud
ou thern
Ġs ummer
ĠC enter
Ġ20 20
amer a
Ġact iv
O ur
g ener
h uff
w ind
Ġon line
ĠS en
ph ys
ry pto
ins on
Ġresp ond
stri ke
Ġinc ident
g ow
14 61
15 03
17 53
19 40
Ġre cogn
op h
king s
pro test
Ġresp ons
H is
f air
Ġ ur
20 48
17 87
18 46
ur t
Ġn ation
216 3
br it
Ġle ar
ren g
Ġ20 24
b ooks
k eep
14 13
15 72
17 89
me et
Ġany thing
wom ens
gir l
m ile
m ade
m ajor
n iger
p ul
16 43
th ere
an sport
Ġl atest
if ul
ĠG overnment
min ister
2 127
m is
n j
p urch
Ġm ilitary
oc key
sh ot
aur ant
mag azine
minist ration
s ite
13 12
13 31
16 11
17 13
17 46
is l
b id
m ust
15 32
16 98
16 67
16 01
18 39
ar r
el ine
ve y
tri al
Ġso on
14 32
16 53
17 11
le ep
one ws
anc ed
anc is
Ġplay er
let ter
rug by
A T
12 01
14 10
14 11
16 83
18 65
19 94
Ġp ain
om b
ĠC up
iv ision
trans fer
y ond
13 82
16 24
ig in
se qu
218 2
ous ands
ang ed
Ġhow ever
Ġbec ame
Ġresp ect
Ġcap ital
steel ers
C ol
t our
Ġch ance
be aut
ĠSt ates
Ġoffic ials
f il
i os
i ber
ou is
Ġs uggest
ul a
we ight
ari ety
cris is
14 82
16 78
17 80
17 63
ar io
Ġw rit
Ġre quire
oo se
ĠB iden
amp le
Ġres ults
bet ter
E C
m akers
s qu
15 51
17 99
17 91
de x
nbc sports
l ights
16 55
17 18
17 19
im al
Ġe lection
ore s
Ġwas n
ĠT V
ĠE d
cre d
pol icy
ĠSe ptember
g ate
h ousing
20 21
16 14
16 93
co vid
Ġp arents
ra b
16 02
18 67
25 26
ch rist
se cut
ang ing
Ġcomp ared
ootball talk
kill s
prof ootballtalk
su it
Ġpop ular
Ġev ents
w el
w ick
20 09
17 10
17 12
17 09
19 03
Ġp rior
ch es
ro vers
ad io
ell ig
az ing
ubl ican
Ġpol icy
kr do
b it
r ise
t in
14 12
14 62
16 89
18 72
au gh
I nd
O r
b n
m el
20 39
17 54
fl ix
ĠK ing
Ġte ams
Ġcont rol
Ġinvol ved
. '
A P
d raw
w ide
Ġ enter
13 91
16 29
16 31
th ough
26 12
al ing
Ġf ig
ct ors
ĠA I
rou ps
Ġtra vel
build ing
16 44
17 62
st ocks
Ġb ook
em e
ly ing
uc ks
li ament
Ġexper i
T e
c ricket
j ames
u a
20 99
17 28
17 69
18 42
ar ious
ut s
ir med
Ġre view
Ġst ep
anc ing
Ġsp ot
Ġreg ion
gen eral
. ,
S te
d ers
g al
w ire
y d
23 69
16 87
19 95
Ġw rote
Ġd rug
im pact
em b
ain e
po se
oll ar
' m
m ove
17 21
18 13
18 07
25 07
ĠS an
ĠA ng
let es
ourn ament
Ġinter view
Ġappro ach
R E
d avid
20 20
16 52
16 72
17 49
st r
st ake
oc ate
Ġmov ie
ĠUk raine
E n
m i
m aking
s am
16 37
18 34
ic les
im ary
Ġpro perty
ĠE ast
d am
d uring
h op
p ack
17 71
19 71
cl ub
ĠE l
ĠE ng
Ġse em
work ers
hol lywood
rank ed
t arget
u ing
w ife
24 00
st ag
it a
Ġs our
Ġb ad
ath ol
Ġsing le
Ġ 21
14 21
23 02
16 27
17 51
18 59
Ġm other
ot ribune
ib times
Ġsup er
invest ing
ord in
ĠNew s
chicag otribune
m ond
r ants
13 11
17 30
18 80
re ach
at o
ri p
Ġsh ared
be fore
c na
17 86
18 82
30 79
Ġs uff
am as
ra il
qu is
Ġco ver
ex pl
Ġpl at
ĠCh ristmas
bour ne
Ġtrain ing
F e
g ro
20 37
17 20
19 16
Ġd og
im inal
fl ip
sent inel
h al
m outh
14 33
20 73
16 26
17 24
th y
ic ester
Ġs en
Ġis n
ph il
Ġlead ing
jo e
afric an
Ġpartic ip
O N
b us
p c
17 50
18 49
Ġa ch
Ġw ind
Ġf ield
oc king
Ġcon tribut
der by
ny s
In ter
Ġte ach
Ġthrough out
Ġass ist
Ġlead er
gaz a
Ġob ject
Ġdem and
ĠCan ada
perth now
i ams
l iving
o om
23 99
15 71
16 95
19 33
Ġa ge
Ġw alk
ow ers
uk e
sp ace
inf o
2 135
C an
f estival
x imately
16 77
18 90
18 09
Ġa ffect
it ic
Ġf ather
ear ly
Ġact ually
i ant
l anc
15 11
15 13
le vel
Ġe ight
2 111
A C
P S
d ist
20 91
15 82
17 25
re ce
Ġf r
Ġl ives
for med
off s
chronicle live
2 120
m il
23 79
15 31
16 35
16 49
19 02
29 10
al y
Ġm ass
Ġm atter
ad s
ag s
sun times
dr ink
Ġrun ning
23 80
16 64
17 40
18 94
19 20
Ġb ank
ly n
sp ring
Ġde part
ran ge
Ġcost s
struct ure
E O
s im
13 62
16 75
16 71
21 10
Ġd ig
ri a
em er
Ġnot e
Ġme as
app le
16 91
st ant
22 29
Ġb oy
Ġp ers
un k
se c
ab les
ĠHe alth
p on
16 32
Ġt em
Ġh op
Ġd ied
olog y
global news
roy al
14 31
20 28
17 64
18 27
ra ises
for ward
227 1
ĠF r
ivers ary
bur g
Ġbel ie
bud get
Ġcustom ers
Ġsaf ety
N ow
j ob
20 30
16 21
16 60
19 47
19 08
28 66
re es
Ġm ind
he at
ag ain
ĠM e
do or
20 13
13 13
15 61
16 99
16 41
22 23
Ġf amilies
Ġd eter
ms elves
Ġfour th
b um
m ess
20 69
16 22
17 38
17 90
19 31
Ġh ol
to o
ĠD r
Ġoffic er
Ġmed ical
istor ic
J ust
g s
20 65
16 47
in v
18 55
19 84
19 92
Ġthe mselves
Ġs ite
ri f
ment al
Ġsh op
man chester
Ġch ief
Ġ20 19
Ġac count
Ġens ure
E N
c ue
16 81
19 49
on ly
st at
for ms
Ġn othing
Ġcom ment
ĠH ol
H er
M ay
g aming
o id
t exas
v ot
23 27
18 36
en al
Ġc ash
ĠA m
ire land
227 7
Ġv ers
aw a
Ġcoun tries
ĠFin ancial
secre t
D A
N e
Ġ 22
23 26
15 41
17 29
17 08
ak a
223 9
des ign
Ġoffic ers
Ġsc ene
Ġleg al
2 103
p es
12 71
16 28
16 70
17 14
17 59
17 00
18 00
19 36
19 51
le ases
le vision
Ġd ate
ak istan
oo le
man ia
ĠL ondon
Ġde p
Ġhim self
Ġlong er
Ġappro ximately
ĠInter national
thehind u
2 101
S T
14 81
23 88
15 43
16 20
16 38
16 54
17 23
ur ning
are a
Ġr ange
au thor
res idents
vent ion
Ġwork ed
Ġent ire
ocum ent
b irth
Ġ 40
20 45
17 36
18 06
18 61
18 91
re ds
ee ch
pr ison
Ġar riv
ĠIn vest
ivers e
bor der
ĠInd ia
freepress journal
d istrict
15 91
16 50
16 92
17 70
18 60
18 71
19 38
19 85
Ġh uge
Ġp rices
Ġin stit
rou d
Ġsim ilar
Ġgl obal
A M
v a
z y
17 94
Ġf elt
Ġg eneral
Ġne igh
iel ds
Ġtrans action
ĠAmer ica
pat ri
c id
c ancer
Ġ 23
13 61
23 28
16 96
16 94
17 72
17 81
19 53
at re
at imes
Ġa ut
com mun
be ach
Ġ arg
20 25
20 51
16 30
16 40
16 85
19 23
19 73
ro ps
Ġc andid
ul ed
ra ight
ĠA ct
br and
pr int
Ġal leged
times of
nes ota
reed om
arrest ed
l ake
v ia
20 07
16 57
17 39
17 88
70 214
ig an
col umb
star s
ham as
Ġinter national
Ġdes cri
stud ent
Ġsit uation
colum n
ĠPart y
h o
m ash
14 41
17 55
18 22
18 03
19 12
19 27
19 45
ar th
Ġf ootball
Ġst rug
de als
cor p
cent er
ĠServ ice
b as
g ins
l ooking
23 36
15 21
16 68
16 88
17 68
18 43
st orm
Ġs on
ent y
ex c
Ġsa fe
te gr
Ġr ates
Ġra ther
uck y
Ġweek end
hom es
clus ive
b art
l ov
20 43
23 56
16 90
16 62
18 73
19 77
an other
Ġb oost
ig hest
Ġab ove
ĠO ff
Ġwork ers
tra il
Ġter ms
boy s
develop ment
' ll
2 146
F L
S outh
l ink
s occer
23 29
23 40
16 19
17 17
17 35
17 34
17 45
17 43
19 21
Ġc red
Ġc ases
Ġl iving
ri an
ind ustry
Ġwho le
air man
Ġim medi
her es
Ġinvest ment
aster n
Ġann ual
Ġnear ly
n h
Ġ education
20 19
20 80
23 90
17 83
19 19
19 44
19 93
Ġt akes
ri but
em ents
qu arter
Ġk illed
dev on
celebr ity
Ġveh icle
c ivil
Ġ ke
Ġ oil
17 61
Ġb ud
Ġd rive
et ro
ut ah
224 9
225 1
ĠJ ames
ific ation
Ġdes pite
d ont
s id
20 90
23 33
16 73
16 51
18 14
18 02
st rate
est ic
Ġst rate
ear ing
Ġpro duction
Ġremain s
bab ly
Ġconcer ns
Ġcommun ities
Ġproble m
poss ible
2 117
A L
a ew
20 42
23 78
re ement
Ġf ederal
ur ies
op ens
ast ic
227 8
vis it
A m
W ill
c andid
p eter
16 48
17 78
19 14
19 34
19 57
25 63
al ex
Ġd eep
ĠA c
ĠP at
219 4
az a
amer ica
ug ar
Ġel se
Ġeconom ic
Ġreve aled
Amer ican
stag ram
E l
b attle
w ed
â Ĥ
20 18
20 01
15 10
18 88
st age
Ġcom mit
Ġex ist
3 147
20 26
20 02
20 52
23 35
23 06
16 58
17 66
17 44
17 01
26 30
ad emy
Ġwor ks
ret ary
Ġproduct s
ellig ence
2 108
C o
d rop
l ate
m ers
16 25
18 68
st ers
ri age
Ġst age
Ġcon nect
ĠJ ack
Ġsp ent
miss ing
A p
n ba
20 71
17 67
18 11
19 06
st ates
Ġs erious
id ing
tr ack
ans ion
man chest
ĠH all
Ġle ave
bl ed
ris k
Ġrel ationship
chnolog ies
2 149
j ersey
23 73
16 84
17 74
17 41
17 92
18 48
36 30
ar ian
il ing
Ġf ul
Ġin v
am azon
ir ms
Ġg as
ort ion
228 3
ĠN et
od es
Ġany one
gir ls
Ġhear d
Ġquick ly
b rown
p ic
23 46
23 98
17 76
17 04
18 54
18 52
19 10
Ġh or
Ġp ret
um bers
220 2
229 3
ark s
pul se
B ar
f ather
n is
u als
20 17
17 31
17 96
18 28
18 05
19 82
and a
id ers
217 0
216 5
ĠN o
be hind
cre ener
Ġcont act
cover ed
ros oft
Fin ally
N ational
g on
23 50
23 97
17 95
18 40
18 53
19 90
or ial
Ġw el
de cl
ie g
ell ed
av our
ash ire
ik es
reng th
2 142
2 152
g ary
o sh
y ard
20 87
23 66
17 65
18 15
18 16
24 30
an th
Ġc ause
ac ross
ere vening
Ġtr ack
car s
sc ri
bor ough
bro ad
markets creener
manchest erevening
manchesterevening news
2 136
N ot
c ategory
m at
20 15
17 57
17 56
18 18
18 86
th ird
29 92
re cap
st ep
Ġs earch
Ġd raw
Ġe as
Ġen cour
Ġhapp ened
Ġhold ings
D uring
T V
d d
w ere
17 27
18 08
19 64
22 12
Ġb rought
ĠS mith
ak ed
aw ards
Ġqu ality
Ġiss ued
Ġperson al
ĠCap ital
Ġ 27
16 33
16 86
17 22
17 52
19 70
35 35
Ġs qu
ce le
Ġst ates
219 8
cl ose
daily record
br ing
Ġap plic
vent ure
lead ers
central maine
tor onto
angu age
J ohn
g ri
r ated
s cotland
Ġ 28
20 14
20 27
20 34
16 63
in i
17 79
17 33
18 51
19 32
19 00
19 81
34 57
Ġt ouch
il ty
Ġb an
Ġb ill
Ġb ase
ch at
Ġd riving
ill er
ess ional
ĠD em
ass et
cast er
Ġhelp ed
Ġinvest ig
stand ard
elect ric
0 70214
h un
k el
l og
16 82
17 05
24 71
Ġc ross
news asia
Ġg rand
ub u
con tract
456 7
ult ural
channel newsasia
reg ion
l am
t ar
23 67
16 61
17 98
17 97
19 65
19 83
26 75
Ġin side
218 6
tr ade
Ġch anges
ric h
Ġne cess
business mirror
sc ience
Ġeffort s
, âĢĻ
O R
Ġ i
20 10
20 97
23 64
19 18
ch anges
Ġto wards
ir a
ong ress
cr unch
ĠAd vis
2 116
h ope
23 39
17 60
19 28
19 58
an ime
226 6
Ġr ound
Ġde fin
ree k
nd tv
Ġper fect
play er
Ġide a
e vent
i us
w ould
Ġ 26
17 93
19 11
19 25
26 96
re cor
Ġs elf
Ġb rand
am ous
Ġc amp
de ep
228 9
224 5
aw ard
ful l
ey e
ord an
hol iday
stand ing
orm al
charg ed
Q u
h ad
i qu
s um
y er
20 36
19 30
19 43
24 14
re main
is ation
un te
sh are
ĠB ay
217 6
ep isode
Ġam ount
Ġbusiness es
g ent
20 29
23 77
16 36
19 99
co ast
22 24
as p
ill a
ex ico
219 3
Ġex press
pro perty
cent re
Ġgo als
Ġinvest igation
oft ware
claim s
americ ans
I C
d ata
l ag
23 08
18 87
18 85
19 39
26 58
ar ound
ps y
ou ston
Ġf oot
219 7
ĠR ed
Ġex ample
rain ian
cy cl
d raft
18 47
18 78
18 69
19 17
24 20
an alysis
Ġt ell
Ġs ong
Ġp rivate
ch el
Ġe ither
ri al
ap t
ap pe
ĠB en
220 9
218 1
br ary
Ġqu ite
enc ies
fore ign
ann a
Ġph ys
Ġsco red
2 133
b illion
m om
r ac
s afety
16 97
17 75
17 07
18 66
18 45
19 09
24 25
25 58
25 05
27 10
28 00
at i
co ol
and journal
ill y
ĠA s
sh ore
man y
gr ams
Ġman agement
sm ith
thes cottish
thescottish sun
I S
W est
d irector
in ch
18 31
Ġs ales
Ġm o
ol ina
ir ish
pl us
fl ood
Ġreg ular
vid ence
p ur
p aper
20 12
20 11
20 77
23 57
17 32
18 89
26 63
st aff
or ia
le eds
Ġb road
un iversity
ac cess
220 1
con ference
uc lear
lect ed
Ġatt empt
Ġoffic ial
ĠCol lege
2 118
M ore
g op
m um
p ush
s now
20 04
18 70
19 24
Ġh el
ow a
Ġg un
ak h
220 4
216 4
224 3
Ġv arious
ĠN or
act ions
iss ues
Ġbig gest
Ġspec ific
athol ic
2 124
2 154
d in
m ut
20 59
20 50
20 82
23 96
23 94
19 79
37 44
22 10
22 25
22 28
Ġw rong
Ġc lean
ig en
pre dict
336 5
ĠN igeria
ib ly
3 126
B y
E very
m ilitary
o z
Ġ z
20 94
23 49
18 30
re search
ing er
ut ional
Ġl ooks
ĠM or
219 5
ick et
tri b
Ġadd ition
Ġlead ers
americ as
ĠEng land
2 155
2 100
f an
i i
k id
20 38
23 89
16 74
18 77
18 95
19 61
25 60
Ġm ur
em ploy
218 4
daily star
press andjournal
row d
az z
ĠCh rist
und reds
nes n
ĠCom p
2 126
2 143
c at
20 46
23 68
19 59
19 97
24 80
24 97
Ġf avor
Ġp aid
Ġm is
Ġm ater
ust in
Ġcon duct
229 7
219 9
226 5
pr us
ict ion
win ning
Ġear nings
Ġread y
Ġquest ions
Ġarrest ed
. âĢĻ
d un
Ġ ant
20 33
23 74
16 46
19 48
on lin
37 22
at lant
and courier
ne ver
ac ific
the age
ab y
220 0
av is
post andcourier
Ġint ro
Ġconf irmed
Ġeconom y
writ er
p arents
20 56
20 31
23 37
17 37
17 06
17 84
18 10
18 04
18 93
19 13
19 07
19 62
22 22
21 14
Ġwh ite
Ġcom mon
ell a
227 0
ass ault
per form
me eting
mid dle
base ball
mash able
4 191
a a
t em
w an
in formation
18 35
18 92
19 35
19 80
ic ated
Ġp ull
pol l
Ġbu ying
ple ment
ĠRuss ia
launch es
prem ier
P olice
h ab
t reat
20 74
18 29
18 79
18 84
19 22
19 50
19 01
25 74
26 46
228 4
227 9
223 1
Ġse ems
Ġop ening
part ners
Ġsee ing
Ġinclud ed
Ġset t
dead line
2 147
4 185
R uss
s ky
20 78
20 98
20 67
23 38
18 32
25 43
at ers
al leged
Ġp ict
Ġp andemic
Ġg ets
Ġpro bably
ĠG reen
ry ing
ret urns
tra ffic
may or
rang ers
e u
h ul
p oole
s ave
u fact
20 63
18 76
18 97
18 62
24 35
24 70
22 16
Ġw ants
ir ty
Ġg en
Ġg iving
ĠM ac
216 8
228 7
ĠR eg
336 2
pt ion
Ġtr ue
sm all
Ġbl ack
Ġmin ister
Ġstud ent
umb ai
itiz ens
phot os
I L
c u
c ant
17 73
18 37
18 56
18 01
19 56
19 42
19 74
24 29
24 60
25 46
re leases
22 13
Ġf low
he el
om en
Ġbe aut
Ġan sw
pre p
223 6
Ġr out
pro duct
Ġatt ention
stit ute
bab y
Ġinfl ation
Ġmult iple
glas gow
2 141
g ender
l oc
20 95
20 64
23 85
17 42
18 25
18 63
24 85
28 12
it age
ĠD istrict
con gress
od cast
bl ing
ĠCh ief
Ġreg ard
ben ef
anger ous
E S
M in
b ot
h ockey
s ale
s cot
w ich
18 96
18 83
19 87
24 77
en ews
co p
Ġan alysts
227 2
225 9
ph y
Ġch e
ĠJ apan
mar vel
Ġbu ilt
ger y
Ġinclud es
clos ed
apr il
2 159
H S
b f
p aul
20 16
23 32
23 83
17 82
18 38
18 98
18 41
19 60
24 33
25 16
26 48
28 91
is ions
Ġc enter
ir ing
Ġg r
ain t
217 8
ish es
can india
ret irement
let ters
bay today
federal newsnetwork
c raft
l ot
l td
23 12
23 34
23 86
17 77
19 15
19 37
24 45
26 84
27 20
Ġin it
ant a
225 4
ub e
wor king
med ical
Ġoff ers
ise ase
tv showbiz
Ġph one
yn am
Ġsim ple
Ġelect ric
2 137
3 113
F irst
h u
l ock
23 87
23 05
23 63
19 29
19 86
25 44
re x
22 20
Ġs low
Ġf air
Ġf lo
qu ote
Ġcom b
226 9
ĠJ ohnson
call ed
just ice
Ġschool s
ĠOff ice
f ollowing
h um
l ost
n ership
23 47
18 20
24 48
24 90
26 05
220 8
228 0
225 3
ĠW ashington
az e
ins urance
Ġcont ent
ai i
dep ot
Ġstart ing
cur rent
Ġmain tain
ocr acy
ĠVal ley
lanc ashire
N orth
f riday
r ig
r ish
23 70
33 38
Ġh ands
220 6
217 1
pre view
Ġpro gress
gr ade
ix ed
Ġpre p
c ash
23 22
18 74
25 77
26 99
29 30
st ab
Ġt itle
Ġc y
ri e
226 3
back s
Ġclos ed
2 130
2 150
G e
u ce
20 53
23 09
19 89
19 75
25 06
27 55
36 17
st an
22 15
Ġfor ce
est ine
ĠA ustralia
oun der
217 7
226 8
ph en
act iv
fl ict
Ġcan not
ick ets
Ġgrow ing
Ġpass ed
Ġlevel s
rup tion
Ġpress ure
Pe ople
2 104
2 122
C C
c ra
d an
t ips
23 44
15 81
24 50
28 20
29 23
on ation
re ason
is a
com ed
ĠS ch
218 7
Ġk ids
coun ts
bs ite
ĠQ u
Ġallow ed
f ish
k ins
20 88
20 76
23 10
23 23
18 57
18 81
25 81
26 52
38 24
it ation
il son
Ġre pl
Ġe vidence
out s
220 7
228 1
Ġpe ace
Ġvict ory
Ġest abl
ĠWh ite
omet imes
R es
b ie
20 66
20 03
20 41
19 88
Ġs ustain
Ġh ousing
Ġre comm
ct ions
ĠP l
227 5
549 9
mon itor
Ġproject s
quire s
liver poole
liverpoole cho
V ID
c lear
d ar
m ichael
r ates
23 54
23 92
19 46
24 28
24 53
26 24
26 03
22 14
45 53
Ġd est
225 5
ry an
Ġwe ather
Ġtr ust
col n
lead ership
vol ution
ĠCal ifornia
2 157
2 180
E D
f ford
g ive
z en
20 06
23 65
18 75
24 76
24 43
25 28
25 84
35 91
ro le
Ġre d
if th
ĠD on
ans as
ĠH ospital
led ge
rel ated
Ġcond itions
n ar
s ong
w inter
20 84
23 48
23 52
19 98
19 63
24 66
27 24
27 26
27 82
29 28
21 12
Ġw r
Ġw ife
el le
ad or
ĠC O
ab er
ĠM id
ear th
217 3
217 4
229 0
223 4
with out
school s
Ġtra ffic
ocrat ic
O ver
g j
h its
w y
20 47
23 76
27 59
28 97
ar ily
Ġf ail
ĠG eneral
iz es
Ġim press
Ġop tions
ble eding
vers ation
Ġhapp y
Ġhapp en
sco re
sign s
merc ury
Ġmod el
2 145
i at
n ab
20 05
23 30
23 84
19 26
24 16
24 89
26 10
37 73
st ore
it bart
217 5
Ġle arn
Ġover all
Ġsup ply
hold ers
bor n
Ġpos itive
ĠRuss ian
sus pect
estin ian
japan today
fol io
4 194
d ue
m ountain
20 79
20 96
20 81
23 00
24 86
24 41
25 25
28 08
46 37
ic ide
Ġb ox
ch er
all s
ĠP ort
219 2
ĠD is
Ġv ill
Ġv iolence
Ġch eck
Ġshow ed
Ġwon der
econom ic
Ġtreat ment
2 102
F rom
G u
f ocus
m ind
o or
p ick
r ights
20 54
20 62
23 25
23 43
23 04
23 62
th ese
24 26
27 23
27 99
34 26
il legal
ch ampionship
Ġfor ces
217 9
pre ci
219 6
224 4
ĠR iver
Ġnot ed
po ints
org ia
cy prus
Ġrun s
Ġprovid ed
Ġhom es
2 131
c ill
y es
y outh
24 34
24 55
25 41
28 86
al and
Ġw ays
Ġf arm
ce ed
Ġg one
om a
ra v
ĠP e
216 2
219 0
ĠN e
325 3
ens es
Ġdec ided
Ġcontin ues
Ġstud y
adv ocate
Ġfund ing
Ġdam age
Ġsen ior
F ollowing
f ed
h en
l ittle
20 49
19 91
24 09
24 84
an o
25 35
26 44
22 11
22 19
Ġh um
Ġd ou
pre ad
216 6
te ction
bl ock
Ġgo es
att ers
gl ing
Ġfe atures
bre itbart
play ers
Ġbl ock
Ġinvest ors
real ity
ington post
cept ion
Ġdirect ly
ĠCl ub
Ġrem ember
huff ingtonpost
igen ous
E ven
w ants
Ġ 200
20 60
20 44
20 75
20 72
23 21
23 31
26 72
27 80
29 27
re v
Ġd istrict
Ġc ast
Ġc ivil
im a
Ġg rad
Ġe asy
220 3
Ġr ights
323 2
Ġ20 18
Ġbel ow
Ġest im
ĠRep ublic
Ġbud get
2 105
2 125
G l
b ible
d rive
j ohnson
s cottish
20 35
23 60
23 53
24 75
25 50
27 70
28 37
29 58
re a
es cap
Ġh ar
Ġp itch
un a
he x
ĠC ongress
est ate
ĠP hil
ust rial
217 2
216 9
Ġex tra
Ġde bt
no on
sco ts
Ġpret ty
Ġmur der
2 113
2 156
b ound
c b
c el
20 57
20 58
24 18
25 78
25 42
27 49
Ġs ale
ch urch
us ion
ab et
ap ol
de bate
219 1
con nect
Ġpro test
Ġor iginal
Ġun ique
Ġse ctor
ann ual
her o
war ning
Ġresp onse
Ġpurch asing
2 139
2 158
R A
b ust
j u
20 89
20 92
24 95
25 32
47 18
Ġa ware
Ġw ild
Ġb us
ad el
Ġl oved
em on
oo th
amp ions
226 4
225 8
ru th
sl am
des pite
sa fe
mem bers
sand ieg
, '
2 107
2 151
c net
23 16
23 55
23 75
18 99
24 15
24 52
25 15
26 51
27 83
35 56
43 23
Ġg rew
Ġg roups
229 6
223 2
Ġle ague
Ġk new
comp ut
cle an
Ġprevious ly
Ġchalleng es
Ġplat form
2 106
2 121
2 144
H ar
L ast
g ad
t ot
Ġ ess
23 15
23 51
in y
17 03
24 88
24 74
29 37
en glish
Ġa vo
ou the
ent ially
ag o
ab in
224 6
218 5
223 3
Ġwe ap
Ġab ility
Ġac cept
ĠCh urch
lo ad
celebr ates
Ġopportun ities
R o
j p
l ikely
t es
v ote
20 93
24 93
22 18
ar les
ic ations
Ġw al
Ġt w
Ġs ch
43 34
im um
sp in
ee per
226 2
ob it
Ġse par
ath an
Ġag ency
Ġincre asing
Ġ- -
esp erson
vict ory
Ġchar ge
% .
2 160
d aughter
m uch
s ud
Ġ ill
23 14
23 24
19 72
24 42
24 06
co in
ar on
60 03
and al
ion tribune
oun iontribune
225 7
pr ing
Ġman ager
sm art
iam i
Ġturn ed
sandieg ouniontribune
20 86
19 55
24 39
25 66
25 90
25 73
26 80
30 00
st ay
Ġs ched
Ġb ur
Ġre quest
ire s
220 5
ĠT w
ĠF ore
ref er
ĠSt ar
Ġpart ner
war s
pres ents
20 85
20 08
25 57
26 91
30 85
38 69
Ġt our
is lat
Ġc ris
ad i
ot ional
Ġst ore
br on
fl or
Ġim pro
Ġus ers
Ġexp and
gj sentinel
2 134
I m
m es
v ariety
23 45
in burgh
24 44
24 51
26 56
26 65
46 48
Ġs ense
com mission
Ġb o
ch ip
226 1
Ġadd ing
Ġmov ed
sk i
acc used
Ġclaim ed
ĠServ ices
Ġparticular ly
P ar
d ark
f aces
23 95
19 96
26 33
26 06
26 07
28 09
co u
Ġs n
Ġs at
Ġb attle
Ġin stead
ol ution
ab our
ĠB el
ack le
227 3
223 8
Ġr ace
Ġpro per
Ġex act
fin ance
mob ile
2 132
h usband
j on
j im
r ules
20 83
24 23
24 59
24 67
24 08
25 64
26 69
27 31
ic ans
Ġs creen
Ġb al
ow e
Ġst ream
216 7
224 0
223 5
ĠG old
fore st
Ġfollow ed
Ġcr ash
ĠTr ust
Ġsco re
2 140
S ince
c n
v iolence
23 61
24 01
25 40
25 80
26 28
26 78
28 34
22 21
ch ris
et a
ay a
Ġl ack
ess or
de bt
ĠB ro
Ġat tract
229 9
218 9
Ġv ote
act ive
ens us
net flix
ok es
Ġpre vent
esp ite
di ary
rup t
inj ury
Ġoc cur
Ġstri ke
3 140
3 248
D o
i ar
n ik
p atch
y m
20 55
24 11
24 36
27 27
Ġin iti
Ġm ental
Ġbe yond
ab ilities
ore a
ĠD avid
223 7
226 0
pro ble
ste in
Ġincre d
Ġfun ds
merc ial
3 249
b ull
m ens
w on
23 18
23 41
25 27
25 79
25 70
27 81
Ġa ward
ne ction
ac ity
Ġper form
itt en
ner gy
ris on
lead s
icag o
An other
Ġcre ated
B A
p ict
y o
y r
in ation
25 54
26 70
28 22
22 26
Ġt en
le icester
Ġb ought
Ġp ubl
Ġc ulture
if ts
ĠB ritish
225 0
330 8
328 0
Ġits elf
dis cuss
har ry
lim ited
charg es
ĠComp any
2 115
M on
W orld
c amera
n al
23 91
18 44
24 27
24 68
25 23
25 31
25 09
25 83
26 79
26 32
26 09
26 61
27 48
29 42
29 63
34 56
st rug
46 34
56 56
Ġt able
ch allenge
op ening
Ġn or
Ġn ine
227 6
224 1
223 0
ue en
Ġwho se
not ting
get ting
Ġeven ing
Ġown ed
ĠAss ociation
infl ation
c ustom
e ff
o ch
p ath
t it
y et
23 07
19 04
24 69
25 68
28 11
30 52
co hol
it ors
im port
he im
ag ic
Ġg ain
ĠJ an
Ġcl imate
ev ents
person al
C or
D espite
c anc
j i
s av
w ashington
23 19
26 90
26 54
26 89
27 60
27 75
re ak
22 27
Ġp ack
Ġd ividend
ol der
ĠS am
ĠP aul
229 5
228 5
228 6
Ġop ened
comp et
bro bible
cut s
quest ions
mig ration
ranch ise
brit ish
2 123
3 188
3 171
c us
h our
k esperson
l u
t aylor
Ġ 29
19 66
25 14
25 22
26 25
26 26
26 53
26 73
27 03
28 74
re land
re public
com mon
32 26
Ġh usband
Ġin come
Ġc ard
Ġex ecutive
Ġwe bsite
ru ct
Ġcomp lete
Ġ( )
lor ida
elect ions
Ġinfl u
Ġmess age
E d
P h
P al
d if
n am
p iece
t aking
z ing
20 32
23 42
er g
24 47
24 62
25 59
25 87
25 97
26 36
27 88
27 06
22 17
it ely
Ġs ell
Ġb irth
Ġp ark
am ong
daily post
act or
ĠJ ones
ann iversary
Ġdec ades
Ġcent re
start ribune
nov ation
Ġveh icles
Ġproble ms
steelers depot
P ol
S up
c elt
f ac
n ick
23 13
25 47
25 08
25 51
26 62
28 35
28 73
30 26
35 76
Ġp ur
43 25
ac le
all oa
qu ality
ĠP ol
iz er
be en
pr ince
min nesota
ĠY ou
big gest
Ġchar acters
mal ta
fox sports
gov t
Ġappe ared
clud ing
" .
F C
i en
u ate
w r
18 58
24 98
25 55
25 02
26 55
28 04
35 57
38 57
46 32
33 17
Ġc al
Ġre sources
um ps
218 8
Ġr an
ĠE m
ĠSt adium
Ġtri ed
force ment
Ġgir l
M A
c inem
j ul
t able
Ġ 31
24 12
24 03
25 20
25 72
25 82
26 38
27 00
30 19
Ġp red
Ġre fer
Ġn amed
ĠM al
229 8
227 4
224 8
339 0
Ġpart s
Ġrel ated
Ġcr ime
prof it
Ġspo kesperson
aug ust
Ġca used
Ġful ly
alloa advertiser
s ell
Ã ¡
24 24
27 46
27 50
28 76
29 57
29 69
36 28
36 70
38 21
Ġs ports
Ġp an
ch eck
Ġm om
Ġd i
Ġd en
Ġd ouble
Ġc irc
un ning
ation ships
Ġsh ooting
Ġex plained
wor st
338 6
ous ly
leg ations
amil ton
Ġro ll
hold s
Ġcons um
fire s
fund ing
Ġdet ails
Bl ack
got i
Ġauthor ities
ĠAng eles
2 129
H igh
d od
d river
e an
g iving
j une
j anuary
l arg
23 58
24 94
25 11
26 11
26 59
27 57
27 44
29 33
36 34
34 55
37 66
37 69
Ġth row
46 50
49 67
Ġs k
Ġd ed
ow l
Ġbe at
end ers
Ġcon ference
wor d
Th en
cr itics
sl ate
Ġbl ood
york er
Ġactiv ities
3 105
3 128
e vening
m umbai
Ġ ut
24 05
an nel
25 33
26 20
26 98
26 92
27 90
28 03
28 01
29 41
36 02
38 18
le ts
ag a
ĠS w
ĠC r
est s
oc used
Ġcom mitted
228 2
224 7
Ġch allenge
440 7
enc ing
af ford
pos al
Ġsim ply
ĠAp ple
lancashire telegraph
5 264
C al
P l
S P
f amilies
m its
20 61
in ary
24 87
25 75
25 00
26 13
26 45
27 25
27 58
28 80
st or
ad er
Ġon going
sp ired
ant age
qu al
ĠD el
ĠD irector
ĠL ake
334 5
Ġj ourney
cor ing
Ġtr ade
chn ical
Ġcap t
stud y
c m
f ail
k ai
m ary
r as
23 11
24 99
24 73
24 61
25 12
25 36
25 53
26 37
26 85
28 39
28 49
28 60
36 01
34 15
37 17
38 19
co vent
Ġs ound
am ma
Ġd ark
ir an
se ven
ra ised
ĠC EO
sp l
de en
216 1
Ġwor ds
press herald
Ġsp ending
Ġfin ally
ĠCom mittee
sun day
Ġtri al
bang or
beaut y
d ou
m ort
19 67
24 40
24 54
24 04
25 99
25 61
27 01
27 07
29 05
30 25
35 31
34 09
ac quires
all africa
ation onlin
ri ot
ul ner
ĠG od
ren cy
mark s
itch en
stit ution
gin ia
quir ing
then ationonlin
Ġrece ive
oper ation
thenationonlin eng
2 153
6 270
A I
c f
d omin
d ouble
g overnor
g arden
j ones
k nown
l as
20 40
23 03
19 68
er ation
24 65
26 35
27 08
28 47
28 69
29 08
30 44
en es
co ck
31 14
Ġp air
ch a
ch ampion
ch alleng
Ġm ention
Ġd aughter
ut ch
225 6
fe el
ĠN iger
ip ped
326 7
Ġap point
call er
olog ical
comp anies
rew s
Ġoper ations
ocr ats
fra structure
L a
g oogle
23 81
24 17
24 19
24 37
24 79
24 83
25 13
25 19
26 66
26 02
26 41
27 14
28 26
28 90
28 06
28 64
30 18
30 89
34 13
37 08
it imes
as ks
Ġf an
ĠB oard
ex pect
229 1
ans w
ĠL a
tri p
Ġpr ison
invest ig
Ġemploy ees
covent ry
2 109
B I
f est
s uff
s ustain
th ink
24 96
25 21
25 62
26 71
27 38
27 95
29 35
it als
Ġs y
Ġf resh
Ġd ram
ĠM art
Ġcon tain
229 4
ĠH ill
be an
Ġad ministration
polit ico
Ġann ounce
fr ance
ĠCent re
Ġlarg est
gall ery
3 109
D avid
S E
c ul
m ax
t ro
t el
x i
25 48
25 67
25 65
26 29
26 22
27 72
28 24
28 56
29 45
re ets
36 03
34 19
st alk
58 40
ne ll
to k
sp oil
ĠI I
ff ee
per fect
Ġne g
eng ers
rest aurant
Ġpre m
Ġfe ature
Ġhelp ing
Ġwin ning
Ġinj ury
Ġcharg es
ĠAfric a
Ġdescri bed
3 103
3 154
d ot
m oment
s car
Ã ¢
Ġ rain
th r
24 31
25 56
25 88
26 18
26 34
26 93
28 42
29 52
30 32
34 76
Ġa ff
45 52
Ġs ave
Ġg reen
Ġe ye
ra ise
Ġn orth
Ġn atural
sh oot
228 8
ous es
ich ard
ĠY ear
rem ier
care er
Ġcol lect
Ġprom ot
thes un
Ġplan ning
âĤ ¬
P er
R ed
p ension
r ating
Ñ Ĥ
25 37
27 63
28 15
28 84
28 72
30 40
35 69
Ġf ast
Ġp ath
43 17
Ġm arg
im ent
ir k
ir is
Ġon es
325 1
Ġk ick
bl ood
Ġsp ir
Ġdis play
cour ant
city news
Ġcall s
char ge
Ġcharg ed
Ġpat ients
ÑĤ Ð
2 128
3 127
3 138
B en
i very
m ans
m ah
23 01
24 92
25 18
25 03
26 27
26 60
29 38
29 80
30 83
Ġt ren
se y
Ġbe hav
ist ers
ĠB u
Ġan im
ĠT exas
Ġv ia
Ġv iol
327 3
Ġle aving
ann er
ys elf
arm ing
war ns
Ġcould n
lo om
fall s
ocum ents
3 190
i ences
m ine
s ociety
u f
Ĳ Ð
23 82
25 89
25 71
26 68
27 15
27 69
29 59
29 43
30 43
30 53
35 52
37 19
or a
47 28
ne eds
Ġm ob
news online
325 5
ĠE T
pr ime
eng er
go es
li ber
Ġdec l
report s
ten nis
kill ing
dec ision
bow l
kent online
Ġimmedi ately
ÑĤÐ ĲÐ
b ear
c rypto
l ie
24 38
24 46
24 64
25 69
25 52
27 04
28 83
29 17
29 68
re ll
30 11
35 25
34 58
38 12
or ation
or ney
im o
ce an
the w
Ġst ories
Ġn umbers
if ying
226 7
Ġr ise
Ġpro duc
330 7
own ers
ĠJ oe
323 1
fore x
ĠIn stagram
Ġjo in
M ark
O L
P C
f it
g ard
j ama
Ġ ult
25 76
26 57
26 40
27 11
27 35
27 43
27 51
35 10
35 07
36 59
Ġf ailed
ur a
ri z
225 2
pro gress
riv al
Ġass ault
bro ok
duc ation
Ġdef ense
jewish press
Ġlif ted
Ġach ieve
d ream
l ooks
t ells
Ġ 60
24 63
27 16
27 97
36 26
34 75
39 32
Ġd river
ur ges
news diary
daily caller
pe ace
328 7
ĠJ ust
Ġk n
Ġtr ansport
ann ounce
Ġfe at
round up
run ning
Ġdem on
Ġvict im
ĠRep ublican
Ġcertain ly
Ġcrit ical
ĠTw itter
newsdiary online
3 132
3 177
3 185
d ed
d est
e ven
h istoric
i ro
l p
n c
t ik
w ol
24 07
25 39
25 91
26 15
26 76
26 00
27 67
28 50
29 67
29 32
30 30
30 68
36 89
Ġa im
ol en
Ġre mov
um a
ign ed
fe ature
ber ry
Ġres ident
Ġatt end
Ġreg ul
Ġend ed
Ġlook ed
Ġfil ing
Ġacc used
colum ns
Me an
Ġbas is
Ġemer gency
2 138
D r
g pt
g olf
n amed
w ise
z il
23 17
24 32
26 16
27 66
27 53
28 25
29 31
37 04
ou rist
Ġs erve
Ġb ed
Ġg ather
Ġcom mittee
ĠT own
ĠR ob
Ġch anged
av al
Ġj obs
Ġdo or
Ġal one
Wh y
ax y
ef fect
dem and
Ġter m
don ald
york shire
ĠEurope an
eag le
eag les
Ġsour ce
Ġarriv ed
timesof malta
E m
g ear
24 21
25 95
26 14
26 88
26 97
26 43
27 34
27 74
28 14
28 30
29 14
29 39
30 20
35 77
38 71
40 56
ht m
Ġs ort
and y
Ġh y
Ġh ighest
Ġp roud
ch ian
Ġre quired
Ġl ov
ri er
ĠB rown
ĠI reland
ĠL aw
Ġch oice
ip ment
av a
329 9
ach ine
Ġad vis
erv es
mon ton
Ġact or
cont rovers
ask a
review s
Ġpost ed
Ġmid dle
ĠSup er
comment ary
Ġpract ice
3 161
d iv
n ut
o ol
p rices
v ine
v eter
z el
24 72
25 98
25 04
26 39
27 28
27 47
27 78
27 77
27 92
28 19
28 48
28 77
28 65
29 66
29 09
30 07
35 51
34 08
st ation
57 05
40 73
Ġa fford
am ps
im prove
ce o
ĠS cotland
ter ror
ĠM iss
pl ant
Ġex plain
bu ff
arch ives
Ġfin ished
Ġserv ed
Ġmay be
Ġsur round
atter y
add ress
Ġclaim s
inj ured
Ġspo ke
Ġtal king
Ġinst all
Ġcompet ition
Ġindivid uals
2 119
3 135
S an
f al
n ame
v inc
an im
26 86
26 42
28 45
28 99
29 76
29 87
29 53
30 55
34 40
37 86
co re
ou ce
Ġs um
il ed
new yorker
ag u
Ġst ated
ĠM ur
ĠA lex
ĠT om
Ġhe avy
con serv
wh ich
Ġup on
bu ys
bo ing
bar ry
oll ars
jud ge
mot or
Ġbegin ning
5 169
b ears
r h
s aturday
24 49
26 49
26 47
26 82
27 76
28 32
28 75
28 71
29 96
29 04
re c
re ct
36 24
34 53
40 26
Ġs un
Ġp et
ent ed
Ġin tegr
ir ates
ul ing
Ġst ation
Ġst rength
Ġn ature
ĠM ad
od s
440 1
ile y
Ġ20 17
ĠK en
app ear
miss ions
Ġfore ign
pop ular
3 245
? âĢĿ
B oth
T C
h ouston
i est
k f
o int
p aid
w rong
26 74
27 40
27 84
28 40
28 07
28 02
30 33
50 54
ch ick
el a
new stalk
Ġfor ced
ant imes
ore gon
ĠB ur
ee ps
ex clusive
Ġpro grams
330 1
330 9
328 1
per formance
enter prise
work er
sup reme
dr ag
jo in
Ġfeel ing
mor ning
Ġmiss ing
Ġpurch ased
Ġloc ation
Ġdepart ment
Ġdig ital
3 102
L et
S A
S ec
T A
j uly
s ales
26 08
27 39
27 05
29 12
30 17
30 57
30 59
30 45
36 83
37 28
es sex
as ure
ur ities
Ġre ality
ri ef
ĠS ing
ĠM us
Ġcom mission
Ġpl ant
ĠPr ime
Ġreturn ed
ĠIsrael i
Ġwa it
ĠFor ce
cred it
tin ubu
Ġke pt
Mean while
3 107
3 155
D ep
d p
h air
j al
j obs
l ouis
n ie
p akistan
in st
th el
24 10
24 91
25 29
25 49
29 00
29 74
29 64
29 51
30 35
37 16
39 30
al g
50 59
33 25
33 39
Ġf re
am ber
ur ban
Ġl og
ap ter
Ġr ules
ĠG erman
537 1
Ġad mitted
ev in
part ner
Ġsub ject
fort un
hom eless
Ġlear ning
3 146
3 247
D is
T wo
d ied
g ment
h unt
l ad
l ives
23 93
25 01
29 82
30 24
30 28
30 84
30 82
34 97
and on
ut ely
ri ven
pl c
ĠF ire
330 0
ik a
ban ks
cont rol
set t
ha ps
aur ants
every thing
Ġsuccess ful
resp ond
Ġmean ing
erc ise
Ġobject ive
3 148
H ol
h eld
k ick
s er
t t
25 10
25 30
26 77
27 32
27 86
28 46
29 19
29 70
30 69
30 75
35 98
36 86
34 89
ĠS he
ant e
iz ations
inc ess
cer tain
sur viv
Ġsur pr
Ġsign ed
Ġsystem s
attack s
ĠAfric an
C he
M any
m ates
t ournament
24 57
24 22
25 38
25 45
25 92
26 17
27 12
27 61
28 28
28 93
30 14
30 34
30 78
30 70
30 71
46 29
47 19
Ġt ough
com ics
Ġe mp
ĠC ons
ap ers
ore an
Ġcon struction
336 8
br ight
ob by
Ġab sol
ĠUn ion
Ġhold ing
then ew
sex ual
exper ience
happ y
det ails
psy ch
flor ida
A ny
S en
d b
d ress
d aniel
m yst
p rivate
23 71
27 79
27 02
28 27
28 55
29 48
re ally
30 63
Ġth ank
al le
40 64
ar us
ed inburgh
ig ious
Ġl ic
Ġl os
ĠS to
ĠM ichael
sh ut
327 2
339 1
fore cast
Ġpr imary
vers e
Al though
Ġleg isl
hor ror
contin ues
Ġbenef its
ĠGe orge
Ġnecess ary
Ġcris is
3 199
3 207
A ss
D C
d irect
e b
g age
j er
p ts
25 24
26 21
27 13
27 09
27 41
28 36
28 96
28 63
28 41
29 90
29 88
29 54
29 93
34 74
34 07
38 68
39 50
39 95
50 02
ic ate
32 23
un ve
ers e
all ow
em ony
ĠP ublic
ĠL eg
334 3
iz z
337 2
Ġro ck
Ġyour self
how biz
Ġfe els
reg ional
Ġra ise
Ġcall ing
ĠIs land
Ġfl ood
def ense
ĠCent ral
Ġbenef it
Ġep isode
3 187
4 258
O P
h es
j ailed
m ist
m aker
o ct
p per
r s
th et
27 18
27 85
28 21
29 25
35 68
36 73
ps on
ic king
32 24
Ġc ancer
ag h
Ġit ems
qu ake
ge orge
218 3
ĠL os
330 5
325 8
ov a
pro tect
og y
ĠCh inese
app ed
cal gary
aces howbiz
vious ly
Ġprovid ing
sal on
gra itimes
system s
bangor dailynews
chian graitimes
3 129
3 136
H ere
L I
c ases
d owns
h art
m ate
24 58
25 34
26 04
27 89
28 58
28 59
29 65
36 80
34 67
37 29
37 78
38 35
39 55
st oke
ar c
ic ed
Ġb order
el ter
el ly
id ah
news info
art ers
Ġl ay
Ġg rant
om an
ast s
ex aminer
229 2
334 1
own er
338 4
ach el
fl ag
Ġafter noon
off ers
Ġam azing
sen ate
Ġext rem
offic er
Ġjo ined
corpor ation
Ġaud ience
Ġavo id
4 127
I A
S am
S un
b ills
f ant
w ont
25 85
25 94
26 67
26 31
27 42
27 93
28 16
29 89
35 14
35 20
35 87
36 96
38 31
46 57
ar ah
33 37
Ġt re
32 13
ver ness
pl es
325 9
338 9
ace ut
439 5
we b
Ġim plement
dis ney
Ġfe et
wa it
ĠInd ian
tw itter
vill age
Ġeng ine
contin ue
slash film
Ġsus pect
hex aminer
3 186
f uel
l ers
o king
p ain
s it
23 72
24 78
24 02
28 85
29 01
30 31
30 42
34 04
39 94
40 16
it ude
Ġt im
is le
Ġs elling
as ion
âĢ ĵ
Ġc atch
ag ers
ul ous
Ġcom fort
os is
326 1
Ġpl aces
pr act
ĠO ne
Ġac quired
cr imin
leg acy
oh io
arm aceut
abc news
exper t
Ġinj ured
ghan amma
Ġnet work
icon ic
ĠCO VID
2 148
3 122
3 230
4 204
b ought
g les
er o
25 17
26 81
27 21
29 18
29 50
30 56
30 66
30 80
30 81
35 40
37 67
37 00
40 42
ar id
Ġs pread
il i
all as
pl ies
Ġpro posed
ov id
Ġqu al
ict ed
Ġap preci
cons ider
Ġpower ful
Ġspe ak
pal estine
Ġprovid es
dif fer
3 174
3 181
D P
F A
M ost
d f
g ay
l on
24 56
29 40
29 98
30 22
30 98
35 37
35 06
35 71
36 66
36 94
36 51
37 10
47 25
Ġt on
Ġs outh
il ot
32 29
ne igh
Ġp urs
Ġm er
Ġg old
Ġg ives
Ġsh ip
ph p
fe b
ĠF und
336 3
325 4
326 5
ash es
des antis
law suit
On ce
friend s
friend ly
patri ots
Ġflo or
Ġexact ly
3 116
3 134
d ad
d ating
f ly
s elling
in dex
24 81
27 36
28 53
29 46
30 10
30 12
30 90
30 03
30 72
36 40
37 13
38 80
33 34
is cons
as se
43 27
ac ement
Ġre duce
ab eth
ph ia
335 3
335 6
Ġwe ight
gu yan
fin ale
Ġcons ist
Ġevent ually
adv ice
Ġelect ions
Ġorgan ization
ograph y
angu ard
Ġcond ition
Ġsex ual
Ġgir ls
Ġprov ider
Ġmo dern
thenew daily
T ok
c p
m w
w ent
25 86
26 50
26 95
26 83
27 45
27 73
28 05
28 61
29 15
30 39
30 58
30 96
30 01
35 70
35 72
36 74
36 52
34 79
37 49
38 70
40 33
47 20
33 14
it ts
Ġw ide
Ġs al
Ġf em
Ġh our
31 12
ent inel
am y
am ie
ĠS ol
ĠB ig
rom e
ĠP en
ĠD en
ĠF irst
ĠG aza
ĠN FL
335 2
335 4
327 6
439 0
320 3
iss ue
Ġcol lege
russ ian
Ġattack s
Ġconsider ed
haw aii
Ġwa iting
Ġlim ited
Ġcoll abor
purch ases
Ġmeas ures
ĠAdvis ors
gad gets
' d
3 120
4 122
P at
a ire
i ors
r ings
24 13
26 01
27 56
27 33
27 98
27 65
28 57
28 44
28 92
29 61
30 15
35 97
34 54
37 27
co de
56 99
33 16
ic ies
Ġs il
Ġin sur
el and
Ġd ress
73 35
ab ama
ex plain
cl in
328 5
334 8
326 4
ob a
ish op
ens ions
Ġpl enty
Ġde but
pect ive
St ate
sur v
Ġsur v
denver post
bri ef
Ġlaunch ed
emer gency
Ġtem per
Ġcommit ment
3 118
3 100
3 173
G B
O T
U N
d riving
g ies
m ap
m aster
p odcast
Ġ ver
25 96
28 70
28 31
30 02
35 01
38 91
Ġth inking
40 65
44 56
67 54
as c
Ġh air
Ġb ot
ol es
ra ising
de but
Ġcom ments
ĠH ome
ber ts
328 9
ĠE nergy
440 8
ich igan
char les
char acters
Ġapp ears
bet ween
Ġprof essional
Ġmiss ion
Ġtrad itional
exper ts
Ġreach ed
Ġcomplet ed
Ġty pe
Ġcred it
tik tok
3 202
4 332
A ls
b ets
o ks
w ear
Ġ anti
th ought
26 64
27 37
29 24
29 29
29 07
29 73
30 04
36 12
48 30
33 20
33 22
45 59
Ġs ize
ĠA g
ĠP er
Ġco ol
pre gn
329 2
od d
436 6
323 3
537 4
ib bean
Ġoff ered
ĠK e
ose ph
do ctor
box ing
mont real
train ing
ĠMark et
Ġdeter min
iscons in
3 209
4 236
B el
G P
a ustralian
d les
f ix
h ip
j r
m ight
o day
r ally
s el
27 54
28 33
29 86
29 97
35 30
35 92
34 12
34 50
ro ve
Ġd om
ac on
ur b
ul ate
ĠS ports
op portun
ab ortion
ust ries
ĠF ound
336 1
uc ial
ash ed
fl ight
Ġag reement
int end
gu y
Ġpart ies
St ar
Ġtrans fer
Ġconf idence
Ġhear ing
Ġvict ims
Ġlet ter
sing le
camp us
birth day
nab is
3 153
3 169
3 152
3 205
M P
s low
Ġ overs
28 79
28 52
29 62
30 49
30 51
36 47
34 17
37 71
38 17
46 35
33 15
33 33
32 28
Ġm yself
ur bs
328 6
329 3
329 4
327 4
326 9
ish ment
Ġpl ays
Ġyou th
Ġus ually
Ġcoun ter
invest igation
Ġreg ister
Ġlead ership
bro ther
Ġexper t
por ary
Ġcreat ing
adel phia
evening post
iris hexaminer
3 111
3 124
3 131
6 400
h ull
h uge
l uc
l abor
m ike
t old
28 38
28 62
29 49
29 44
29 94
on ce
re cogn
30 16
30 64
35 29
35 79
35 09
36 37
36 57
36 84
38 49
33 32
is cal
Ġs ometimes
com pl
le ave
44 14
ro d
Ġto ward
tr ansport
me an
Ġpo or
ĠCom munity
vict ims
hot el
Ġalong side
blue print
Ġmass ive
Als o
3 108
3 117
3 121
3 206
3 191
a ith
k u
o ak
Ġ ir
in come
26 94
27 87
28 10
28 78
28 94
29 06
35 15
36 78
36 95
39 74
57 02
Ġs port
Ġs ens
as er
ir ds
ra f
Ġst raight
ind er
tr ue
ĠH aw
338 2
Ġup coming
730 4
comp letes
cap tain
Ġgu ard
law s
rem ember
Ġcent ral
fr ancis
fort une
month s
Ġexc ited
resp onse
ipl om
3 165
5 166
P resident
S im
c ro
g reg
h r
an sp
26 87
28 13
28 23
29 20
29 95
29 81
30 13
30 88
30 65
30 08
35 48
34 84
38 32
38 75
39 29
Ġth ousands
90 13
ic ial
il k
Ġin frastructure
Ġc rowd
news nigeria
Ġst reet
ĠM s
ĠP h
Ġas king
ĠT ur
440 9
439 3
320 1
425 1
634 4
Ġac quiring
Ġal tern
und ry
go al
Ġsec ure
Ġact ions
health care
Ġass oci
ersh ire
rel ationship
pm newsnigeria
roll ed
fight ers
ĠSec retary
incre ase
equ ity
fra ud
Is rael
Ġfig ure
4 259
L A
N ews
b ond
d ated
k m
k ar
p ow
p air
s at
u ated
26 23
26 19
27 19
28 82
29 16
29 47
29 71
30 05
30 91
35 26
35 47
35 62
36 79
34 35
34 52
Ġw inter
Ġw itness
32 25
Ġb i
Ġre duced
ĠS tr
uk ee
Ġy ards
daily herald
334 0
335 5
456 9
639 3
ĠO n
Ġact ivity
Ġhigh light
Ġass ess
Ġfore cast
Ġinj uries
emb ly
Ġvers ion
Ġphys ical
cou ver
ĠJust ice
3 178
5 171
b oot
m att
n ic
o be
w ing
Ġ ed
27 62
28 89
29 02
30 29
30 37
35 58
34 99
34 71
al o
48 32
33 26
65 49
ol k
ag ues
Ġg overnor
Ġon to
ĠM P
ast ers
ud ge
aily news
330 6
325 2
aw i
449 1
Ġj un
mer ce
po ps
lead ing
Ġsee king
Ġcr iminal
celebr ate
fight ing
grow s
Ġoper ating
ias at
Ġdist ribut
Ġbro ther
Ġident ified
Ġdefin itely
recor der
3 115
3 168
3 234
4 197
5 260
O f
S ch
d ale
e a
Ġ une
in cluding
th ousands
re ams
30 46
30 60
30 62
35 39
35 99
35 96
36 54
36 00
34 20
34 63
34 92
34 61
37 79
39 01
40 35
47 34
33 30
33 36
33 21
im ore
ĠS cott
um es
ab a
ab use
ĠA wards
ĠF lorida
ĠH er
be come
be gin
327 9
337 8
459 9
we ap
off er
lin coln
Ġtri p
Ġfind ing
Ġcor ner
spe ed
bol lywood
Ġindivid ual
Ġhol iday
columb ia
3 125
3 150
3 163
4 222
R eg
c ages
f at
g iven
k tar
p age
r out
u z
y ers
25 93
27 22
28 88
28 95
29 34
29 83
30 38
35 86
34 47
38 98
39 44
39 89
40 27
40 99
le et
le ments
Ġb and
Ġb orn
ac quired
ag azine
Ġg overn
us a
em an
Ġst ress
pl at
ia h
ĠT or
ĠT aylor
Ġhe at
ud i
ĠF ed
Ġv oice
336 7
327 1
od ds
ass ist
aw n
Ġwor d
Ġcomp lex
Ġoff ering
860 3
Ġop tion
see ks
ok ed
Ġfin ish
urs es
ĠTh omas
raw story
Ġput ting
hor osco
Ġspe ed
reve aled
great er
leader live
Ġdesign ed
fa ith
pot ential
did nt
Ġaffect ed
4 257
B ritish
S pe
d ollar
j ay
l g
n an
28 17
29 22
35 28
34 59
34 03
37 50
37 54
38 14
38 65
39 67
39 81
40 79
48 07
Ġf uel
Ġm ill
id ese
ĠS al
sh er
ĠB ill
ust ody
man ager
328 2
335 1
old s
326 3
view s
world s
Ġwould n
bor hood
Ġmov ies
death s
wa ukee
Ġfac ing
Ġjud ge
investing news
Ġant icip
apol is
cages idese
cagesidese ats
3 119
3 139
3 236
4 103
5 262
6 142
N A
S C
U k
W ar
e ight
o ir
p un
23 20
27 96
27 94
28 29
28 67
30 76
35 11
35 66
36 71
37 39
37 99
37 96
38 58
38 74
39 79
39 80
or igin
40 29
40 05
ic ine
44 43
32 19
Ġf ine
Ġf ell
42 12
Ġl i
Ġl ived
to gether
if ty
ĠP eter
ire ction
ph as
ĠG rand
336 4
326 6
aw are
Ġj ournal
arg o
Ġsp end
amil iar
inter net
arm a
arm y
Ġshow ing
Ġman aged
ling ton
Ġra re
Ġown er
hot air
shop ping
Ġmajor ity
Ġreason s
Ġoc cas
Ġrespond ed
Ġwrit ing
ĠInvest ment
ĠJack son
Ġbeaut iful
islat ure
spoil ers
ĠFound ation
3 167
3 260
4 200
5 209
6 399
J ack
R C
f re
i ary
k h
l ic
p andemic
s ister
24 82
27 17
27 64
28 43
29 78
29 84
30 36
30 50
35 50
36 99
37 98
37 87
39 17
or p
40 39
46 07
id den
om ers
ĠA venue
ost er
336 0
ff ield
og ue
324 3
438 5
Ġj ump
rit ain
Ch rist
ific ial
uck er
osp itals
stit utional
room s
offic ial
fun eral
ĠSec urity
Ġfil ms
concer ns
Ġdrop ped
Ġboost ed
3 137
3 157
3 141
3 179
3 166
3 193
4 100
5 300
6 390
C ity
M ed
b ucks
f ab
t ell
u ct
28 51
29 55
re new
30 99
35 13
36 15
34 98
34 01
37 07
37 72
39 51
46 30
46 59
49 09
Ġs ociety
Ġh aven
Ġc ars
Ġre pe
Ġl anguage
Ġe mail
ul ated
Ġn ormal
Ġcom plain
ĠR ock
ĠF l
ĠF ederal
335 0
pro cess
436 3
437 5
ren ce
550 1
638 9
can al
pos es
not e
ord ers
Ġsupport ing
put in
Un ited
ĠCol orado
rap id
Ġloc ated
zer o
trail er
3 101
P A
T om
W ell
j ail
n omin
p in
p el
s ince
v iol
29 03
30 21
35 78
35 61
36 10
36 27
36 76
34 66
38 27
39 49
39 77
39 00
39 06
46 21
46 52
ar ms
ic als
Ġs kills
44 58
ch air
ro g
ol ar
ur ge
news andstar
se ver
Ġl ose
Ġl ines
ill aw
te ams
328 8
ew is
Ġ20 16
oy d
see k
polit ic
ox ford
iver pool
israel i
Ġallow s
Ġpop ulation
Ġprof it
Ġadv antage
dog s
ĠBe ach
mo dern
Ġcomplet ely
Ġrespons ible
chat gpt
Ġfavor ite
3 200
3 164
4 199
4 172
K e
f irm
i phone
l en
r ide
s leep
s iasat
27 29
27 71
29 13
29 85
on na
34 21
37 91
38 56
39 24
or al
40 48
40 60
40 89
46 58
46 41
48 05
33 27
33 28
45 25
ne e
31 10
Ġm iles
Ġd ollar
Ġd ocument
em i
Ġn ice
The ir
329 8
ĠCh icago
gl ouce
invest ments
lin ed
Ġdef end
tribut e
Ġsol id
offic ials
ĠSec urities
Ġcrit ic
teach er
Ġexist ing
rex ham
3 104
3 158
3 197
3 196
3 183
L E
P aul
S W
k im
Ġ er
in ner
30 47
30 74
30 41
35 32
35 64
36 23
36 38
36 46
37 48
37 76
38 78
38 08
38 04
39 90
39 07
40 61
46 97
47 41
ou red
Ġs light
Ġs uit
ch and
ch inese
42 29
id el
ad ow
ut o
ut ral
to ps
ul f
ie ces
ĠB ra
334 4
337 3
440 0
449 3
Th ose
arg ets
Ġag reed
business es
Ġcons ult
Ġseason s
tech crunch
Un iversity
spect s
mig rants
gree k
cs i
counter punch
Ġexperi enced
Ġcandid ate
devon live
Ġwel come
Ġansw er
aber deen
Ġlos ing
3 235
4 110
4 231
7 356
C ons
I ns
K en
N E
j ourney
m g
m n
s ets
in er
28 98
35 60
36 31
36 97
36 43
36 53
37 74
39 15
39 76
40 04
40 83
40 93
40 41
49 04
50 81
69 58
33 12
33 18
is bury
is odes
Ġs leep
il a
ne ys
Ġf it
Ġp age
42 11
ol ly
ĠC he
ĠD ef
fe bruary
330 3
av oid
334 7
iz abeth
ong writer
Ġwill ing
od ies
447 0
535 5
Ġad op
525 1
ĠSt ud
min ute
Ġter ror
host s
-- -
corpor ated
americans ongwriter
bleeding cool
Ġpubl ished
4 148
4 189
6 127
A ir
N or
R O
S y
V E
c d
f i
f avor
g ic
s ched
w top
Ġ 70
an on
28 54
29 60
30 95
30 61
35 81
36 08
34 33
34 62
38 25
39 59
39 78
40 10
40 59
49 45
47 43
47 91
69 73
Ġs now
Ġb oss
42 17
75 22
Ġc aught
um n
ap y
ack ed
ex pected
Ġsh own
330 2
ber y
329 0
327 0
458 4
424 1
Ġtr uly
ale y
her itage
Ġcons ensus
Ġsm art
fr ank
Ġoc cup
Ġcustom er
Ġdev ice
mic rosoft
mult i
lab our
ĠAc ademy
scots man
obit uary
3 151
3 194
3 239
4 275
J ames
e er
h att
m oon
s outhern
30 94
35 03
35 53
36 67
37 24
37 35
37 33
37 05
38 77
39 56
39 88
40 36
48 66
47 71
ed monton
32 12
Ġre nt
Ġe ffic
are t
de e
oun ger
ĠI tal
ĠP lay
Ġare n
ĠH amas
Ġch urch
ĠW estern
334 9
325 0
329 5
337 0
339 9
447 9
457 0
435 5
Ġam id
ten ham
ont ario
Ġret ail
Ġgu y
char ity
alt imore
aps e
niger ian
fil ms
yd ney
pops ugar
3 106
4 104
4 158
4 260
4 300
4 380
C ont
m useum
p ub
w eeks
Ġ 90
29 99
29 72
35 45
36 22
34 49
34 72
38 11
39 20
or ce
Ġa id
is f
and e
Ġm ix
um ent
con struction
330 4
act s
br ings
438 2
cor ds
cr itic
677 5
can ber
app ing
Ġdec re
la undry
Ġdiffer ence
sco res
ĠCo ast
incre ases
phot o
chief s
want ed
quis ition
rece ives
Ġbelie ved
wed ding
3 162
3 246
4 118
4 280
B ig
C ent
M s
d n
g iz
g ives
h amp
w v
w art
Ġ older
th ony
27 91
28 68
35 22
35 89
36 90
36 98
36 32
34 18
34 44
37 47
38 79
38 60
38 54
38 81
en ix
st ershire
at ar
co ld
40 12
2023 03
it r
Ġt ro
Ġt rou
com ings
44 24
Ġp riv
Ġm us
Ġd ollars
ers elf
Ġl ink
Ġn omin
ate ver
ĠB r
os en
ĠW ater
327 8
ob i
339 4
ĠE ducation
448 9
426 1
425 2
press ion
cor onation
red d
Ġcoun t
sc ape
Ġbet a
cap t
ask ed
Ġknow s
Ġmark ets
Ġacc ident
editor ial
hollywood life
bron cos
3 156
3 170
4 134
7 121
B S
C ap
D el
E ast
a ver
f are
m t
m au
w csi
27 52
29 26
29 36
29 77
30 93
36 18
36 09
36 62
36 61
34 24
34 77
34 05
34 41
34 91
37 84
37 63
39 53
40 23
40 63
46 49
48 12
48 58
es h
33 10
32 20
Ġf ranchise
Ġf ocused
ro se
43 15
42 14
42 28
ĠS c
sp ider
ĠM ary
pl ied
Ġcon nection
tr uth
ĠL ee
328 3
436 4
439 8
Ġun it
ĠO ffic
735 4
mon sters
can adian
Ġcont est
fin als
Ġdec isions
Ġman ufact
ient ists
char acter
mid lands
ĠMin istry
spe aker
mod o
Ġfight ing
ĠWill iams
stream ing
ux ury
ĠFr ancis
3 130
3 176
3 184
3 221
4 140
4 285
e ffort
n z
v t
30 86
30 97
35 38
34 38
34 68
34 83
37 46
37 53
38 42
40 08
40 03
46 00
50 62
ww d
Ġt it
Ġt ruth
44 50
Ġb aby
ch ase
ch anging
ro c
Ġd angerous
Ġc anc
ol y
ut in
Ġst or
Ġst ruct
ĠR oyal
ĠF estival
329 6
pro vid
row s
ĠO pen
Ġme ant
Ġthan ks
sc ene
Ġbl ue
Ġtra il
Ġwin ner
plan ning
Ġmove ment
Ġtrad ing
hib ition
osco w
Fe ed
abin et
Ġneg ative
ĠET F
3 149
3 204
4 180
4 195
C H
a co
k ind
p icks
s ens
s oft
t ree
w en
Ġ 35
29 11
35 16
35 36
34 14
34 37
37 57
37 52
38 47
38 96
38 93
st al
co uple
40 28
40 58
40 90
40 85
33 11
33 13
Ġs pring
44 12
44 42
32 15
Ġb anks
43 13
ol ph
he avy
73 34
Ġbe coming
ly mp
ab b
ĠM ic
ĠM ont
ist ics
âĢĿ ,
339 8
448 0
450 6
ĠâĢ ¦
Ġal though
enc er
Ġra p
vict ed
Ġrest aurant
Ġfac ed
Ġfac ility
rock well
Ġref lect
ape ut
Ġbring ing
ĠSup reme
Ġvol unte
Ġphot o
christ ian
giz modo
3 133
3 198
4 168
4 181
4 298
6 274
7 178
A lex
M al
b ag
d one
l ose
t ow
u is
re ck
re sources
30 48
30 92
35 59
35 04
36 65
34 31
34 64
37 40
37 42
37 65
37 81
38 87
38 53
40 09
40 72
Ġf ear
43 21
ot es
Ġre lat
ag os
ra ud
ĠM ountain
ĠA gency
ere z
end a
Ġr ac
ber ta
334 6
own ed
335 8
Ġor igin
ang eles
leg end
mov ing
Ġear ned
depend ence
bar r
need ed
ete ur
gi ants
ĠSen ate
Ġhel ps
Ġinit ial
3 189
3 195
4 240
4 306
6 555
K ing
c ell
i y
s ox
Ġ ve
28 18
29 56
29 21
29 75
29 91
30 06
35 27
35 34
35 54
35 84
36 49
36 93
37 45
38 84
38 52
Ġth r
or ian
40 47
40 77
40 00
40 95
40 51
46 39
46 22
48 92
47 27
50 00
2023 04
33 23
Ġs coring
44 39
32 10
ch in
ro t
se es
ab s
if ies
oo re
sh ub
Ġco verage
pre h
ĠT er
te chnologies
cl ar
Ġv ulner
be gins
327 7
337 4
436 9
ik Tok
rit ory
ester day
main link
review journal
grow ing
media ite
Ġsol utions
Ġtrad ed
Ġrecord ed
slash dot
purch ased
Ġaut om
Ġoccur red
mainlink anon
4 109
4 177
4 206
4 370
b om
m u
n w
p itch
p ended
in verness
29 79
30 87
35 05
36 60
36 72
34 96
34 06
34 02
37 59
37 68
37 89
37 09
38 09
39 10
39 35
40 66
59 86
Ġs oftware
32 14
54 15
Ġp aper
am i
id ance
ag an
ĠS ur
ĠS her
if er
ĠI t
cl oud
ĠW ood
326 8
448 7
446 3
447 3
324 1
538 2
gr ant
ĠCh ampionship
ah u
int elligence
ann ah
not es
ĠIn stitute
li brary
ris ing
Ġhigh ly
ars enal
Ġcor por
sub urbs
Ġpurch ase
Ġstop ped
gold en
Ġlarg er
Ġlim it
infl u
Ġregard ing
4 132
6 126
M ichael
S w
e co
h s
h ours
n umber
n uclear
s aving
28 87
30 54
35 19
35 42
35 95
35 83
36 48
36 04
34 23
38 07
or se
40 76
46 11
46 87
56 20
ing ly
70 31
com mittee
32 11
Ġp iece
43 22
to ms
Ġe yes
em br
ĠA ff
Ġcon flict
325 6
325 7
329 7
od i
448 2
426 4
Ġup date
erv ation
national ist
Ġte levision
Ġjust ice
Ġact ive
hold ing
Ġass ets
ĠDe velop
president ial
Ġart ist
ĠEx change
Ġwatch ing
Ġappear ance
kai eteur
kaieteur newsonline
E L
P M
b rom
b eng
h ud
j ets
k han
m ember
p ull
s cott
35 24
36 35
36 07
36 92
36 82
34 34
34 42
37 82
38 10
38 37
38 99
39 21
39 93
46 05
46 51
49 18
33 35
it ig
Ġh its
Ġh undreds
Ġb ag
Ġb rief
ay ed
83 25
se en
Ġcom m
Ġsh ut
336 9
335 9
pro per
450 9
447 8
457 2
430 2
cor n
735 5
air y
Ġim ag
ĠV ir
dep artment
Ġpre gn
sw ift
Ġcar ry
Ġhapp ens
ĠAmer icans
veh icle
break s
bd irty
jack son
boost s
cele bdirty
glasgow times
Ġbot tom
celebdirty laundry
3 159
3 238
4 115
A b
B u
G old
M id
M ad
S tr
T H
f ear
l ap
m exico
p ubl
y les
30 67
30 09
35 85
36 06
34 80
34 85
37 12
37 02
39 25
st ances
st raight
co up
40 19
40 96
40 97
46 12
46 81
58 65
45 54
le aves
Ġf avour
Ġf ifth
Ġp le
el on
el sea
ad ed
83 26
ag ency
om ing
ain ed
ie ved
ĠB er
ke vin
ub usiness
339 6
339 7
Ġpl anned
aw ful
449 0
549 4
Ġcl in
In vest
947 7
990 4
Ġsp eech
Ġen h
ok ie
ush ed
val ue
Ġappro ved
Ġlaw s
acc ident
spect ator
ĠCan adian
Ad d
Ġcelebr ate
thehind ubusiness
Ġmot or
Ġeas ily
Ġexpress ed
appe al
thehindubusiness line
3 144
3 160
4 159
4 176
4 265
5 245
8 798
F r
P ort
c atholic
d vid
f inds
n atural
an ish
re ject
35 49
35 21
35 67
36 39
36 77
36 41
34 65
34 00
37 18
37 25
37 88
37 32
37 85
38 48
39 12
39 23
40 20
46 67
46 93
79 71
Ġw ood
Ġw arm
45 48
32 17
54 29
42 23
Ġc rew
un icip
to s
ag g
ĠS il
ĠS how
oo s
de feat
ack down
ign s
ph ones
335 7
338 7
446 8
Ġim age
ĠV er
ug gets
eng ine
invest ors
will iams
high lights
aut o
Ġcap acity
del hi
ploy ment
sen ior
Ġremain ing
Ġspe aking
Ġconcer ned
Ġequ ipment
ĠUk rainian
them ed
squ are
ĠAm azon
rops hire
Ġstrate gy
Ġimpress ive
Ġincred ible
dvid shub
3 142
3 175
4 125
4 184
4 270
5 146
5 164
G ood
M ac
f m
f ig
p j
r age
v ac
Ġ ice
in als
an ch
27 30
35 46
35 00
35 94
36 14
36 55
34 10
34 82
37 03
38 20
38 15
38 33
38 01
39 28
39 66
40 32
49 48
49 61
47 33
50 40
56 90
ed ding
it oba
ps e
45 10
45 27
45 42
Ġs u
Ġs pl
Ġf aith
ad am
ur u
ot ion
ĠS ystem
op les
op her
Ġst uff
ab ad
ld aily
ml b
os a
pre ne
te levision
Ġv ir
Ġv eter
334 2
329 1
339 3
ric ulture
459 0
459 8
450 8
440 6
ace book
ren a
Ġun ion
row ing
639 1
gu ilty
col a
car l
riv es
cour se
quest ion
fem ale
ĠMc C
Ġreported ly
Ġdeath s
Ġtal ks
Don ald
Inter national
Ġintro duced
hul ldaily
product s
Ġextrem ely
Ġfem ale
hulldaily mail
3 208
4 179
4 190
4 187
4 250
4 277
5 163
A g
G o
O S
e ur
f resh
k g
n ap
u ations
30 23
30 27
35 08
34 46
34 48
37 41
38 44
38 51
39 18
39 92
al ition
40 75
40 81
46 60
50 03
33 24
Ġt elling
com b
44 57
32 18
Ġp en
am med
42 20
Ġd omin
Ġc itizens
83 36
52 24
om es
ra re
ak i
Ġis land
Ġst ars
ĠP remier
Ġco ld
Ġsh oot
ĠD ev
ĠG ame
wh el
458 0
324 2
538 3
428 1
Ġk id
igh th
res cue
950 1
pos it
ret t
do ors
ey es
duc ing
Ġhealth y
comm od
Ġexc ell
does nt
lew rockwell
appoint ed
Ġbelie ves
Ġbal ance
Ġspir it
examiner live
3 180
4 130
4 169
4 235
4 274
L ike
R ep
f itness
h ub
r ition
s aid
13 186
in ity
28 81
re volution
re prene
35 44
35 75
35 02
36 58
36 88
34 28
34 73
34 51
37 36
37 93
38 46
38 03
40 43
46 13
46 09
49 14
49 94
49 93
48 80
33 29
it arian
77 56
44 20
80 49
75 14
Ġc as
ad ing
ri x
sp eech
ĠM er
ĠI ran
Ġr ule
ĠF rench
Ġch oose
ĠW ales
337 7
446 2
450 7
Ġac know
gr an
445 2
Ġop position
mov es
Ġmin ute
dead spin
Ġexpect ations
roll ing
mag ic
Ġfac ilities
advis ory
Ġlear ned
african ews
Ġalleged ly
sum mit
jama ica
' .
3 123
3 145
3 172
4 120
4 128
4 163
4 174
4 193
4 286
5 206
S ever
U K
c ry
d ividend
g am
k l
s oon
u gh
35 65
36 81
34 16
37 26
37 83
37 61
38 59
38 76
39 58
39 75
39 72
39 61
co w
40 45
48 20
48 17
48 49
48 77
47 30
47 96
59 44
com fort
44 40
and critics
Ġto ols
43 39
ol itical
ir i
ĠS ociety
ĠC ont
ab ove
ess ions
ist ed
ack ing
pl aced
ell o
pe g
Ġch air
327 5
337 5
338 5
339 5
ach es
448 4
449 4
546 5
ang ers
534 5
fl ash
Ġpol l
cur rency
Ġfl ag
Ġexp ensive
Ġconcer n
ĠCor p
IN G
ĠCar olina
Ġste ps
Ġfig ures
shore newsnetwork
Ġdom estic
monsters andcritics
4 178
4 269
M S
M or
N P
S al
d ocument
f ollow
l arry
s erious
Ġ 80
an es
35 74
36 13
36 33
34 70
34 60
38 95
39 57
39 98
39 05
40 24
40 52
49 66
49 54
49 95
58 46
59 14
50 95
45 31
Ġs end
44 44
99 79
Ġf ellow
Ġm ist
42 18
95 32
52 27
ĠS cottish
Ġst ret
ĠM useum
ĠB rad
ĠD ec
Ġr ising
iz on
337 1
338 1
ass ador
ach ed
459 7
447 2
ang el
Ġse qu
eral d
net t
inc ip
low er
col or
Ġcoun ty
ste ps
play off
Ġstart s
Ġset ting
ĠAr my
Ġmiss ed
Ġprogram me
newcastle herald
candid ates
Ġapplic ation
Ġpict ure
Ġrecomm end
Ġinsur ance
comings oon
4 141
4 164
4 162
4 358
4 297
5 178
B r
J o
P lay
a it
b un
d ance
v oy
Ġ ups
10 309
35 41
36 36
34 69
34 88
37 90
38 39
38 92
39 33
39 31
39 62
39 91
al bum
40 57
49 83
48 00
47 12
47 86
47 09
50 23
ic ing
ic it
45 19
le agues
Ġf ant
Ġd ream
Ġd isease
im ming
ot ed
ri ble
pl aces
ĠF ox
man n
ĠL abour
pro duction
338 8
456 5
448 1
Ġad just
Ġ( $
526 1
erv ed
860 4
In stead
ok a
ĠV ict
let ic
sm h
Ġmon itor
Ġreg ional
Ġknow ledge
par liament
Ġgu ilty
vo ices
Ġfact ors
Ġinterest ed
To day
remain s
benef its
illaw arr
4 108
4 117
4 142
4 186
4 183
4 247
6 137
7 123
G reen
I P
O ther
b les
b rain
f ake
h io
i ency
l iv
t ah
v y
Ġ arch
35 88
35 55
36 11
34 78
37 31
37 94
38 13
38 41
39 19
39 26
39 03
39 71
40 13
40 37
40 84
46 38
46 40
46 63
49 12
48 29
48 36
48 74
47 54
50 67
50 86
Ġs ession
77 30
44 37
Ġb ooks
ro id
ro bert
Ġd iv
Ġc rypto
ut er
ot ic
62 12
the atre
Ġst yle
ian online
ĠT imes
ĠD aniel
over ty
cl ash
man ent
Ġex cept
ip ping
act ors
av ig
339 2
ound ed
458 5
440 4
434 8
538 5
424 3
430 1
429 1
445 1
ĠCh arles
cess ion
Ġpart ners
Ġdec ade
kill er
pm n
Ġimport ance
ĠQ ueen
Ġread ing
Ġelect ed
mod el
ĠWe alth
teach ers
grad ed
beaut iful
hop es
candid ate
jersey eveningpost
4 102
4 129
4 131
4 156
4 209
4 266
5 500
B ur
B ec
B ank
I ts
e asy
m r
10 256
th ed
30 77
35 18
35 33
36 45
34 86
37 62
38 89
38 62
39 22
39 96
49 13
48 90
48 99
48 86
48 64
47 48
47 75
58 48
79 56
33 31
Ġw ish
67 31
Ġf amous
Ġh istor
43 37
se ctor
Ġe state
ab led
ĠM ah
ap ing
ĠD es
ĠW omen
ĠE ag
448 6
438 8
Ġne goti
547 6
Ġ20 15
445 5
air port
Ġme th
ank a
Ġte en
ams ung
bor ne
report ed
Ġown ers
que en
Ġwar ned
Ġkeep ing
clos ure
ĠRes earch
Ġca using
Ġty p
mus k
drug s
Ġseem ed
Ġsuff ered
Ġmater ial
Ġprep ared
Ġsepar ate
proble m
import ant
republic ans
Ġmom ents
differ ent
itts burgh
3 237
3 182
4 112
4 113
4 133
4 170
4 207
4 244
5 167
7 175
C r
E T
R ec
W E
d ynam
g ang
g overn
j ar
m arg
x ic
in os
on ing
30 73
36 50
36 05
36 64
34 90
34 32
38 29
38 97
38 85
38 94
38 61
39 16
39 27
39 60
39 45
39 54
or ough
57 41
40 82
46 18
59 90
50 68
66 24
60 83
Ġs cr
44 28
Ġp enal
43 11
43 26
ac re
âĢĻ .
ĠS and
for um
ĠA b
ap est
ie ves
ure n
ure au
ĠL ife
ĠG reat
ĠG oogle
daily echo
ĠN ations
iz za
337 9
436 2
435 0
Ġwor se
430 3
arg us
int ro
col lect
Ġus er
Ch ina
win ner
high er
vir al
Ġexper ts
Ġpay ing
ci pl
Ġpot entially
cost s
aud i
Ġpat ient
ĠEn glish
farm ers
Ġvot ers
Ġdrug s
Ġsch eme
Ġmarg in
4 139
4 165
4 290
5 139
R ock
R oyal
a un
b ike
e k
g ift
y ellow
35 63
36 56
34 27
34 87
34 95
37 34
37 77
38 36
38 00
38 02
39 38
39 69
39 97
39 42
40 25
40 80
40 01
49 49
48 47
48 42
58 49
45 17
Ġt ight
Ġs eek
Ġf light
Ġb ul
el er
43 35
ur ious
se m
um ar
the star
de ed
de fin
ist le
ĠI m
pl ays
Ġco ast
Ġcon versation
ĠD un
ĠG ood
ĠG overnor
Ġex change
328 4
be yond
pro be
448 5
457 3
anc orp
ĠK han
445 4
ĠSt an
ron es
iel der
ai wan
und red
sm outh
reg ister
gaz ett
Ġpass ion
Ġdevelop ed
aged y
ades h
stri kes
pass es
fun ds
fans ided
emp ts
Ġhot el
hel ps
Ġhop es
strate gy
Ġwal king
4 155
4 208
4 308
5 241
6 350
c ury
d rivers
f atal
l ash
Ġ ign
in th
35 23
36 21
34 25
34 43
37 60
37 43
38 73
al most
40 15
40 30
46 44
46 06
46 02
46 83
ar row
49 10
49 80
48 65
48 06
47 66
50 01
45 39
44 23
44 15
44 38
ne st
Ġh erself
Ġb ond
53 29
52 16
ri fic
ĠT ra
Ġv en
Ġhas n
be y
459 6
439 9
Ġab use
Ġse ction
ru le
Ġad vert
656 4
amer cury
af fect
ret ail
Ġgu ys
Ġsur prise
Ġcol or
Ġgreat er
vict im
roy ed
style caster
Ġsol ution
wall st
Ġtal ent
Ġeffect s
gree ley
clus ion
turn ed
Ġvisit ors
Ġphot os
column ists
chel sea
treat ment
Ġwr itten
escap e
comput ing
challeng es
illawarr amercury
4 105
4 167
B ro
I I
M o
c ause
s ab
w ednesday
19 210
36 16
34 30
37 11
37 56
37 92
38 05
38 06
39 47
39 65
39 63
40 49
40 67
40 31
46 28
46 88
46 04
49 27
49 56
47 69
47 68
47 07
56 05
2023 05
45 36
45 41
44 11
44 27
32 27
43 20
Ġd aily
Ġc amera
for ces
326 2
448 3
447 1
449 8
Ġal bum
inc ident
Ġim ages
Ġop tim
col leg
Ġsec ret
mar riage
health canal
Ġhapp ening
rat ings
Ġob serv
Ġappe al
sil ver
Ġboy s
Ġcandid ates
Ġeas ier
ĠNor thern
armaceut icals
apeut ics
ĠDevelop ment
3 192
3 222
4 107
4 153
4 239
4 289
5 104
5 360
6 409
7 200
b in
f b
n ine
s ound
u ous
u able
an alysts
35 90
36 20
36 29
36 69
36 75
36 85
34 29
34 45
37 23
38 16
38 28
38 45
39 87
39 43
57 74
40 17
40 68
40 44
46 45
ar ity
49 85
47 61
it ol
ic ts
45 29
Ġs ad
44 13
44 26
ch ain
ch ance
am ar
42 15
Ġc ities
Ġre presents
Ġre cords
Ġg ra
ĠS im
ain ts
pl ane
Ġcon stant
ind a
av i
br ad
ĠE arth
per cent
456 0
456 3
438 7
437 7
439 6
540 7
559 2
amer on
Ġte ch
red uc
ann on
riv als
miss ed
Ġam b
Ġsupport ers
Ġsign s
celebr ities
sol utions
well ness
then ational
Ġremain ed
hor se
Ġprom pt
Ġpresent ed
antis em
Ġexperi ences
mess age
venture beat
Ġdou bt
Ġess ential
Ġmention ed
ĠSing h
completes ports
4 268
4 234
5 279
5 236
5 266
6 123
c ing
f old
l arge
p w
w ag
w heel
Ġ article
Ġ educ
35 12
36 44
36 91
34 93
34 81
37 06
37 51
38 66
38 64
39 11
39 40
57 55
40 38
40 40
40 92
46 25
46 75
47 70
50 60
60 40
Ġw earing
45 38
Ġm ig
un ter
ĠS qu
the ater
119 27
ĠA uthor
Ġy ield
ĠN ov
pro wrestling
ĠE ll
436 1
437 9
556 7
cr iminal
Wh o
Ġpart nership
comp lete
read ing
Ġserv ing
har i
road s
Ġcr ucial
Ġchar ity
power ed
Ġoper ation
mor row
Ġstand ard
ino is
van ia
Ġgener ation
Tr ump
mult iple
Ġenvironment al
ĠGl obal
Ġrespons ibility
Ġur ged
Ġassist ance
anth ony
foreign policy
Ġz one
horosco pe
4 114
4 136
4 249
5 188
5 359
6 255
8 304
C oun
a o
c atch
f reedom
j ab
o cean
s cr
t um
10 799
12 500
an ne
an imal
36 63
37 15
37 38
37 01
40 78
46 46
46 61
ar ab
49 24
49 28
49 52
48 24
59 38
50 14
44 16
44 45
55 54
67 49
80 63
Ġf aces
Ġin dependent
Ġm ale
news letter
107 49
73 11
Ġre new
Ġbe comes
ĠC are
oc tober
ist ration
ast on
ĠB BC
ĠP an
Ġcom ed
ĠT our
king dom
Ġch ampion
ov ic
ĠE v
ref lect
ru it
ite ct
coun cill
Ġtr uck
head s
bo at
lo an
sur gery
Ġadv ice
ĠCon ference
Ġfil ed
Ġexc iting
near ly
Ġdr ink
mic ro
cru it
Ġdeliver ed
huff post
ĠDis ney
Ġweap ons
Ġtw ice
3 244
4 124
4 149
4 145
4 143
4 157
4 267
4 221
4 331
5 183
6 579
8 541
P hil
g od
i pe
j ok
m all
v ince
th omas
er b
35 43
36 68
34 36
34 22
34 94
37 58
37 80
37 75
38 55
38 67
39 99
39 41
39 82
ar med
49 00
48 04
47 01
50 21
50 87
50 73
66 15
Ġa w
45 23
45 18
55 43
and district
32 16
Ġh urt
Ġd rivers
Ġd ocuments
53 25
all ed
Ġl abor
ag ar
ĠA rea
ĠP ower
ell er
ĠD ivision
ĠR ec
ub er
ĠH old
ĠL ouis
ip es
og s
434 4
435 4
Ġse at
428 2
430 4
erv ative
Ġen forcement
He alth
gy pt
urs ing
Ġear th
herald live
ĠAr t
Ġrece iving
sen al
Ġfun ction
Ġallow ing
Ġsw itch
Ġunderstand ing
cam bridge
bourne m
Ġstream ing
notting hamp
barry anddistrict
Ġabsol utely
nottinghamp ost
barryanddistrict news
4 152
4 205
4 248
4 171
4 360
4 296
4 233
5 141
5 263
6 148
6 248
B iden
D es
M arch
l us
m ater
n ca
r onews
t owns
t urns
Ġ 500
in ions
er en
35 82
36 25
34 11
37 14
37 55
39 13
39 73
at tract
40 46
40 86
40 94
49 29
48 14
50 30
70 05
60 60
45 28
45 30
44 46
44 22
67 28
Ġf iscal
42 27
ay er
ut ers
53 17
ot o
ra j
ĠC ard
Ġst r
ab q
ĠM at
ĠM il
ĠM usic
de cember
iv a
ĠB owl
ind igenous
fe ction
Ġv ision
wor ds
338 3
og an
458 1
458 6
434 3
437 6
437 8
439 4
549 2
557 9
pr imary
Ġk ill
Ġk illing
Ġoff ensive
po k
Ġag ed
545 2
Wh ite
sl ams
Ch ristmas
Ġact ors
bro ken
Ġcar ried
Ġem otional
Ġdel ivery
Ġrest rict
Ġstat us
she ffield
Ġsit ting
class ic
announc ing
slash gear
Ġmar ried
mart in
tre k
hun ter
Ġvill age
Ġestim ated
outhe cho
ĠMart in
omers et
Sever al
bournem outhecho
4 116
4 182
4 333
6 103
6 109
6 259
M O
P art
a is
b uck
b omb
c aught
f d
f rench
r im
s ame
w inds
re cent
35 93
34 39
37 37
37 95
57 08
co ok
40 54
46 26
46 73
49 03
49 41
49 81
48 46
47 76
47 74
59 20
59 62
50 12
50 24
50 05
it ting
Ġt ext
Ġh arm
Ġp refer
ch anged
Ġd irection
95 31
ad emic
52 19
52 25
Ġre v
op p
ĠA ustralian
Ġco re
Ġco ordin
Ġcom mercial
ĠT re
ĠR am
ĠF acebook
Ġv ac
Ġpro duce
336 6
ĠW al
ide as
338 0
457 8
pr ide
559 9
678 2
ron ic
ai ja
Ġpre c
met ronews
ush ing
Ġcontin uing
que er
ned y
sol ar
Ġstand ing
sal isbury
concer t
clud ed
Ġwind ow
derby shire
Russ ian
wv metronews
4 101
4 147
4 154
4 245
5 194
5 247
A F
A G
M C
T S
w ired
Ġ illegal
12 508
11 397
in ct
39 36
en joy
57 67
40 18
40 70
40 91
46 27
49 64
48 50
48 95
48 51
47 97
47 85
59 67
50 06
ing red
66 36
Ġa th
60 42
it able
Ġw aste
45 22
45 49
45 21
Ġs ides
le ak
55 40
54 58
ro gen
43 38
Ġm ic
id ays
all ing
Ġl iter
op position
the eagle
for ced
ess ed
daily camera
446 9
438 1
438 4
435 1
cre am
cre ate
428 4
539 4
ĠO ut
ath on
ath ers
Ġal legations
Ġper haps
Ġpol icies
mp toms
dr ama
Ġem phas
ĠMan chester
tor ney
Ġorder ed
Ġris ks
Ġeffect ive
Ġbro ken
hon or
farm ing
ĠGu ard
Ġfr ust
ĠFore st
cn n
Ġdram a
Ġanim als
ĠOffic er
abq journal
theeagle online
4 123
4 137
4 146
4 160
5 250
5 277
6 570
b jp
f acing
g re
l ady
o ices
p rior
Ã Ń
37 30
37 97
38 26
38 50
39 08
st ed
40 69
46 79
59 16
59 32
50 80
50 97
50 51
56 07
69 65
45 13
Ġt ells
77 26
44 48
43 14
42 16
im son
53 24
ĠC ovid
ail ing
wor ce
ĠW ay
446 0
458 9
438 6
437 3
530 3
ition ally
ĠCh ris
off ensive
sc am
Ġmost ly
jo ins
Ġcent ury
central recorder
sol id
Ġhold s
Ġbuild ings
add y
roll s
Un der
than ks
uge es
Ġsing er
los ing
Ġauthor ity
tur key
Ġpick ed
commun ities
pict ures
larg est
Ġlegisl ation
4 135
4 166
4 198
4 299
4 359
5 208
5 560
5 231
6 115
A pril
G rand
I F
M ur
O ut
a verage
c art
g ap
i our
j ordan
m ph
t uesday
v et
w aste
14 294
35 80
36 87
39 46
39 48
en ry
at aka
57 28
40 21
46 54
ar ant
49 55
49 31
48 98
48 81
47 08
59 15
59 21
56 01
69 23
it ar
45 24
Ġb id
am an
43 24
42 10
63 18
se p
ak u
ns w
Ġv ital
Ġv acc
Ġv ariety
ĠN ight
ĠW ilson
ĠE U
457 9
557 6
426 2
527 3
637 1
cent ury
star community
let t
play ing
ord on
ĠBl ue
Ġconf ident
green ock
Ġstand ards
Ar t
offic ers
four th
Ġclear ly
Ġconsider ing
exp ansion
lew is
gener ation
columb ian
celt ic
Ġmob ile
riz ona
fortun ately
ĠAff airs
Ġpenal ty
4 119
4 150
4 188
5 133
5 162
5 239
5 349
6 266
6 269
6 307
6 377
8 276
N C
P D
a er
f s
m v
r ub
t ough
u an
v anguard
z one
re comm
37 20
37 64
38 90
38 83
39 64
en ough
at on
40 74
46 14
46 47
46 33
46 03
46 01
47 59
47 92
58 58
56 04
70 87
60 12
44 19
44 21
55 47
67 39
67 32
Ġh ur
ch i
43 28
75 16
ri ers
ĠC ast
ĠM em
sh all
sh ropshire
Ġy esterday
ist ance
qu arters
ind y
con duct
457 5
440 2
Ġwor st
548 6
press ure
556 2
527 2
Ġag ree
oth es
Ġpol itic
go als
Ġunder st
Ġpres ence
ĠSe a
Ġpass ing
Ġdef ence
plic ations
Ġadv ance
enn ifer
claim ed
Ġpar king
abl end
ĠWill iam
Ġencour age
cinem ablend
coventry telegraph
Ġult imately
Ġsurround ing
4 106
4 278
4 202
4 309
5 390
6 197
M em
P eter
R ob
a qu
a ik
c ats
d ub
f amous
i ac
j ared
n othing
w rexham
13 143
17 578
th ursday
on en
39 14
40 06
46 10
46 90
46 08
48 39
58 38
59 01
59 52
50 28
50 34
2023 02
es cal
66 07
70 10
68 81
Ġs ac
Ġs ister
55 19
67 12
67 58
Ġb ra
Ġd ance
Ġc at
ig ger
74 21
53 19
ss n
52 12
52 18
62 24
Ġg arden
us i
ul ty
um stances
ter y
124 57
sh aw
os ed
ge orgia
ell i
port smouth
ĠH a
ĠH ot
ĠG o
Ġex ercise
Ġwe ak
434 2
Ġse a
Ġher o
ict ment
677 1
Ġus es
Ġinter net
Ġdec line
Ġatt ended
reg ular
ĠThe atre
Ġwar ning
Ġinterest ing
Ġcer emony
Ġdet ect
Ġmatch es
Ġbro ke
project s
ĠEn ter
Tr ans
recor ds
Ġsched uled
Ġannounce ment
Spe aking
Ġmill ions
5 148
5 309
5 357
6 171
7 129
M el
R S
d ivision
h ay
h ands
h ubs
k an
l ig
z o
13 484
in iti
38 34
38 22
38 86
38 72
39 34
39 70
39 85
57 32
40 98
49 22
48 79
48 75
47 13
47 16
47 24
50 22
50 98
50 99
60 21
33 19
45 40
45 44
le ans
44 10
Ġf ix
Ġb right
ro ots
87 79
43 12
43 18
Ġm ort
52 17
se ptember
ul ations
ĠC amp
um ph
ĠM el
ĠM et
ie go
ĠB ut
180 69
pre t
ĠD o
con versation
ĠL td
ĠW ild
ob ody
ĠJ im
Ġwe alth
456 4
ric ane
459 1
459 3
450 4
457 4
457 7
435 3
548 3
558 2
Ġcl im
Ġag encies
bu ying
af c
gl ass
gl obe
win ners
Ġlead s
Ġsupport ed
oci ates
Ġcol lection
dom estic
Ġclass ic
resp ons
je ff
trad ing
Ġvot es
pri ate
gro ve
Ġdog s
Ġdi agn
Ġfre qu
5 120
5 195
5 202
6 132
6 554
7 247
9 132
A re
B O
D aniel
G et
J im
N S
S ur
e uro
h ssn
m osp
p ac
t ackle
w ave
in spired
re ns
re covery
35 17
40 87
46 17
46 56
49 65
49 01
48 23
50 58
50 75
70 56
60 74
45 45
Ġt ournament
44 29
80 72
Ġf ish
54 27
43 10
43 29
43 36
42 13
et ime
art ist
Ġl ab
ag ree
ĠS y
ĠS ky
ĠB ridge
rom ance
ud den
ĠR ichard
ph an
cl es
Ġv irt
ĠL ong
ass ment
Ġnot ice
459 2
436 8
434 7
438 9
439 1
557 0
ang a
ould er
638 5
427 2
bl ow
656 5
leg ation
ann ounced
not ices
Ġpol itics
ev ac
Ġpre par
my london
play offs
nes see
Ġend ing
lear ning
vict oria
ĠCl ass
ĠPro ject
reve al
Ġorgan izations
arn ataka
estin ians
mb ly
yl vania
Ġchalleng ing
sequ ences
Ġsour ces
timesof israel
Ġfoot age
compet ition
xi ety
liber al
forex live
awful announcing
4 151
4 196
5 278
5 172
5 306
5 232
5 333
6 118
6 152
6 163
6 204
7 118
E ach
M E
a aron
c rown
h ills
k ish
n ames
37 21
38 38
38 88
38 82
39 68
39 02
or iginal
57 79
co verage
40 34
46 77
46 76
46 42
46 62
ar p
49 16
49 68
49 87
48 38
48 33
48 85
48 93
47 02
59 26
59 66
59 68
59 31
50 46
50 41
69 41
60 68
90 90
ic ious
45 16
45 55
Ġs kin
44 25
55 26
55 35
as ury
Ġf ashion
Ġp ieces
42 26
64 27
53 39
83 13
52 20
om pson
us al
em ail
the courier
sp ending
oc ation
ex ican
Ġsh aring
Ġsa v
Ġr ing
ĠG r
ĠG al
Ġch ampionship
ĠW eek
br ands
337 6
Ġde bate
Ġde feat
447 4
546 6
550 2
548 4
547 7
430 5
535 3
429 4
ick y
Ġoff ense
Ġac counts
545 1
mon s
ĠV an
pos ing
jo sh
mc car
su icide
enn is
Ġroad s
ĠAir port
Ġport folio
Ġhop ing
lag os
Ġded icated
houston ianonline
greeley tribune
4 161
5 140
5 189
5 207
5 346
6 190
6 161
6 249
6 306
6 552
7 197
A fric
J on
M at
b h
b oth
b ird
f ro
g oo
l ater
m os
m iami
p erez
s weet
t un
u gu
u zz
w er
â Ħ
re form
36 19
36 42
38 30
38 43
39 83
or ange
40 22
46 23
46 69
46 68
46 89
46 74
49 20
49 19
49 86
48 10
48 01
58 53
59 80
50 66
50 71
56 09
60 69
60 54
45 35
44 36
44 34
98 72
67 11
80 39
80 33
Ġf reedom
54 17
76 52
ch ampions
42 24
75 29
65 48
84 59
ow ed
53 38
52 15
ir on
Ġl ock
129 49
ess ing
ex tra
ke es
man itoba
Ġpro secut
der land
av ail
Ġde gree
446 6
458 3
458 8
437 1
547 1
427 3
425 3
ru ce
429 3
647 3
car bon
ivers al
dis patch
Ch ris
met al
sur ge
Ġmin or
cy ber
cy cle
Ġapp ly
ni peg
mig rant
Ġmult i
Ġident ity
mass ive
wel come
Ġcamp us
Ġconsum ers
Ġtren d
Ġslight ly
pj media
incip al
ĠAuthor ity
âĦ ¢
4 111
4 192
5 298
5 234
5 244
5 265
5 288
5 274
6 138
6 150
6 265
6 407
6 253
6 553
9 160
A D
M er
N et
O p
O ffic
P ublic
U p
b ee
f ounder
j ap
l ib
11 806
al ert
46 66
49 79
49 99
49 96
48 68
47 40
59 10
50 16
50 50
56 36
60 36
60 48
45 56
77 40
44 31
55 34
55 38
54 33
Ġin formed
et ic
64 16
64 24
64 26
ac count
84 14
ur er
53 13
83 21
op nik
Ġst orm
Ġst ocks
124 21
ĠM exico
ĠA rab
ap ore
sh ine
Ġan alysis
ĠP lan
Ġcom mand
ian o
ns ylvania
ĠD an
Ġpro duced
Ġch annel
ĠE lect
aw ays
459 5
449 6
ash ing
ock et
428 3
any ahu
ins ider
min ing
Ġbig ger
central oregon
gress ive
sign al
akers field
Ġgl ass
iff s
ko imo
Ġprov ince
Ġpers pective
Ġinstit utional
ĠNet work
employ ees
ĠChrist ian
asse mbly
rapid city
koimo i
4 138
4 288
5 106
5 109
5 154
5 378
6 110
6 114
6 258
6 287
6 566
7 145
8 542
F l
F ort
G eneral
M ah
N Y
P ark
S antis
T er
e aster
h ighest
r ams
14 148
in corporated
al ty
al ds
40 14
40 71
49 36
49 37
49 90
49 53
48 19
48 35
48 70
48 73
47 64
47 03
59 29
59 06
50 56
50 31
50 84
69 05
it ure
77 78
44 47
55 24
86 25
75 13
64 32
um s
sp ons
ĠA k
out side
140 39
end ment
ĠB ritain
ĠT im
ub a
Ġr ough
ĠL i
ip eline
act ing
ĠE PS
434 1
434 6
546 3
540 8
426 3
427 1
529 2
we ak
677 7
att end
ubl in
sl trib
health y
ific ations
Ġatt orney
itch ell
Ġmark eting
Ġsur vey
eg as
Ġsc ience
ĠAr ts
dig ger
Ġbre ath
prem i
corpor ate
rep ublican
bid ens
Ġstrug gle
Ġpull ed
4 144
4 173
4 279
4 246
4 295
5 200
5 237
5 256
5 370
6 444
9 206
A ng
J P
S c
T y
c row
k ed
l ord
t ail
t ouch
y ield
z ens
39 39
39 86
40 88
ar iz
49 26
48 57
48 97
48 62
47 22
47 21
58 60
50 27
50 09
50 07
70 18
70 58
69 12
69 35
69 55
69 93
90 55
45 43
Ġt icket
Ġs an
98 64
55 16
55 17
55 55
Ġm yst
Ġm achine
Ġc ru
ig ible
64 22
52 11
63 38
se an
Ġl eng
ra st
Ġwh atever
ap ed
de cre
ĠR yan
ĠH am
ip per
Ġpl aced
457 6
458 2
449 9
435 6
540 1
540 3
Ġun its
550 3
529 4
539 2
ven ues
760 8
Ġal cohol
Ġcl ients
878 3
fin ally
oss il
Ġres ol
Ġreport ing
Ġdef ensive
ci pe
rap ped
Ġclos er
Ġide as
Ġdev ast
Ġdev ices
Ġmeet ings
Ġhon est
Ġlo an
mile high
Ġweap on
Ġdecl ared
jal opnik
rapidcity journal
3 240
5 127
5 280
6 285
6 366
7 128
8 359
8 579
C U
G reat
J une
h at
m ath
p ped
s or
Ġ 45
Ġ 32
14 999
on ia
39 09
57 29
co ffee
46 94
49 44
49 97
48 37
48 61
47 57
47 45
47 83
58 90
50 11
50 85
50 82
50 61
66 60
70 12
69 30
69 21
60 87
88 16
45 51
44 32
55 33
86 10
43 16
Ġm aster
42 19
id d
Ġd ad
65 20
Ġc ustody
un c
un n
ac cept
news paper
52 14
ri ze
ra iser
ĠS eries
ĠM ike
ĠA sh
ĠP ress
165 19
cl ark
ĠF ood
ĠH arry
Ġpro tection
be ats
og a
458 7
434 9
449 7
435 2
cre ative
538 4
530 4
Ġ20 14
ĠK orea
860 6
956 5
bu ilt
947 2
cr itical
gl ed
Ġro se
sl ides
olog ist
comp lex
Ġman age
ĠTh is
Ġret urns
Ġsc ale
put s
county press
Ġhealth care
cons umer
pat rick
Ġstat ements
Ġspo kes
Ġsignificant ly
some thing
success ful
Ġpush ed
girl friend
Ġsqu ad
Ġconduct ed
Ġinit ially
leicester mercury
spl it
Ġafford able
Bec ause
nca a
4 175
4 238
4 237
5 143
5 347
6 173
7 172
7 798
H arry
L ondon
b ors
d iss
d eter
e as
h in
s ask
t ears
u v
u ction
v acc
10 791
in vol
th ose
re present
39 52
Ġth er
57 47
57 87
57 63
57 71
40 62
46 70
49 74
49 82
48 11
48 18
48 22
48 48
48 78
48 88
47 49
47 80
47 99
50 72
56 60
66 14
78 89
79 25
79 00
70 91
68 22
is an
44 18
98 40
67 42
80 95
as i
Ġc ell
im press
83 22
Ġg ar
ith ium
119 76
ail and
qu ick
ast y
ight ed
Ġsh ots
ĠR et
ph ill
ĠH ow
Ġch airman
ĠW all
ĠJ er
448 8
446 5
450 0
447 5
436 7
546 1
530 5
670 7
inc inn
868 1
ley ball
mon day
Ġdis closed
rest aurants
ev il
will iam
Ġend s
Ġinvest or
bet ting
Ġdevelop ing
Ġnear by
sa udi
hil ton
Ġens uring
haw ks
ĠPar liament
Ġhon or
ĠMed ical
lov es
trib hssn
sud an
Sup er
Ġassoci ated
lg bt
ariz ona
5 102
5 111
5 136
5 100
5 249
5 246
5 380
5 191
5 340
6 178
6 172
7 142
7 444
B er
R em
V ict
b att
g g
k il
k orea
l anguage
p as
14 349
11 900
11 908
38 23
38 40
38 63
57 20
46 15
46 24
46 80
49 34
48 26
48 59
48 03
48 63
47 36
47 05
47 73
58 16
58 79
58 32
58 89
59 30
50 77
56 72
66 95
78 12
70 78
70 77
69 70
60 37
60 43
60 05
60 73
Ġw all
80 83
as ian
Ġf ired
Ġf raud
Ġp un
86 38
Ġm ile
53 10
53 14
73 27
Ġre covery
Ġg iant
Ġe vol
Ġe lements
the front
ak atimes
Ġst ands
up ils
Ġy ounger
out look
ĠB oy
132 11
ĠT en
ĠR od
168 36
Ġr ural
con flict
pe ak
ĠJ o
ĠJ r
ĠJ on
od t
ric s
457 1
440 3
540 5
Ġun able
537 6
534 1
423 2
any on
ton y
iss ipp
ĠK n
630 5
628 1
tain ed
959 7
ug by
cour ts
ject ed
Ġtra v
tren ding
spe ak
van couver
Ġview ers
happ ened
Ġmod els
Ġcomplet ion
Ġcover ed
Ġinstit utions
cycl ing
atlant a
Ġestim ates
andon ed
mw nation
favor ite
vt digger
Ġrap id
Ġexcell ent
% ,
4 256
5 116
5 134
5 131
5 185
6 131
6 156
6 257
6 182
7 185
8 100
8 299
d avis
d angerous
f if
n ovember
p acific
s ad
t aken
Ġ 52
13 188
35 73
37 70
en h
st adium
st olen
57 60
57 45
40 55
46 36
46 55
46 96
46 84
ar ra
48 67
48 52
48 91
47 90
47 65
47 95
47 06
58 31
59 34
59 58
50 35
56 91
66 09
79 75
70 49
69 29
69 08
60 56
60 51
45 15
45 34
45 32
55 20
67 50
67 52
80 55
il der
Ġf amiliar
Ġb asketball
54 46
ch art
87 60
ve gas
64 17
im pro
53 23
he aring
63 21
ir l
82 16
our ce
ter ing
119 49
Ġn one
ĠA li
pl ot
port folio
Ġv i
ĠW or
ĠJ ewish
456 2
439 2
534 2
679 6
545 5
ca ps
Ġap art
Ġpr im
Ġcont rovers
ĠV ill
Ġsup posed
dis aster
trans form
sur rey
rel ationships
ĠHe ad
ĠRo bert
mem orial
forman ces
tribut es
ĠFe b
Se ptember
bec ause
Ġlarg ely
lev ant
fol k
environment al
arr ative
iber al
Ġenter ed
gal axy
pc dn
Ġwr ite
sustain able
unve ils
Ġrepe ated
. -
4 126
5 112
6 179
6 188
Y es
b oo
b altimore
b akersfield
g om
l ack
l av
m are
n ations
n uggets
x pected
st arts
57 52
57 61
46 78
46 95
49 91
58 28
58 55
58 84
59 85
50 29
50 96
50 83
56 23
56 55
70 53
69 22
60 94
ps hire
ou g
ic id
45 57
com plain
98 60
55 56
80 59
ch ad
86 26
el i
el ed
Ġm ent
75 33
Ġd raft
65 22
64 12
64 49
53 15
112 03
if ax
sh ock
ud d
tr uck
Ġch anging
ong o
br un
ish i
Th ank
438 3
435 7
420 1
cre g
556 5
556 9
Ġdo ctors
646 4
Ġro b
ham pshire
ban e
indian a
sur pr
Ġmin istry
Ġgu idance
Ġsur gery
Ġrel ationships
del iver
Ġint elligence
wales online
lement ary
ĠAt lant
tour ism
Ġteach ers
sec ure
ĠFr ance
scri ption
ĠDem ocratic
Ġmater ials
Ġpur pose
Ġcirc umstances
Ġfeat ured
wol ves
lus akatimes
4 276
5 113
5 205
5 235
6 177
6 186
6 379
6 233
6 478
7 182
7 358
8 305
9 114
9 363
A ugust
J ul
J uly
J anuary
T E
f ill
g roups
k at
s ize
u i
11 804
16 155
57 91
40 07
40 02
49 75
49 71
48 13
48 21
48 44
48 31
48 02
48 83
48 82
58 30
58 75
50 38
56 39
56 61
es us
66 61
70 75
69 10
69 54
Ġa wards
60 93
68 82
Ġt ickets
is ure
Ġs weet
77 34
77 60
le aving
55 29
67 18
80 36
80 68
Ġb ott
54 20
54 19
54 38
54 48
105 18
86 37
Ġm atters
75 11
75 45
Ġd riven
85 46
Ġc ards
63 19
ce bud
62 13
Ġg e
ri ots
Ġn uclear
up coming
ĠA ward
ĠP et
Ġcon vers
ĠT o
ĠT ikTok
te chnical
Ġv ice
ĠL im
175 12
ish er
ĠJ en
Ġnot es
447 6
447 7
434 0
449 5
420 3
550 6
cre w
548 9
536 3
bl ind
534 4
res c
525 3
647 9
ĠO hio
car low
car ibbean
Ġdis covered
come back
Ġquarter back
ump ing
try ing
St ill
par is
real news
law makers
dead ly
stit u
Ġtrans ition
fight er
ced es
ĠPr of
Ġext ended
spe aks
Ġprof ession
ĠAss et
Ġview s
Ġcompet itive
Ġexpl ore
Ġphot ograph
Ġsuff ering
mil waukee
stat ement
vot ers
Ġban king
Ġcomb ined
Ġsustain able
ĠRepublic ans
Ġiniti ative
ĠGerman y
Ġton ight
glouce stershire
Ġacknow led
Ġstr uck
cebud ailynews
4 230
5 105
5 126
5 132
5 142
5 388
5 356
6 102
6 119
6 151
6 199
6 206
6 578
6 241
6 264
6 333
7 159
7 191
7 280
8 386
C B
I M
M art
N ovember
S ir
c ame
e astern
f g
f u
f ielder
l ies
n creg
p arent
t ag
w age
Ġ 38
39 37
st able
or ious
57 57
57 42
40 50
40 53
46 31
49 11
49 40
49 62
48 45
48 87
47 14
47 60
47 77
47 32
58 36
58 37
58 74
58 73
58 41
50 33
50 88
50 04
50 93
66 13
66 94
70 29
70 79
70 45
60 70
68 50
45 26
44 17
44 35
44 59
44 33
Ġb low
54 10
54 26
54 57
103 24
am ount
42 25
id ge
ig ers
53 37
ir cle
Ġg ift
ill iant
120 29
ant ly
128 59
ast ed
140 80
end ar
148 55
Ġco de
ĠR ights
200 66
ov en
ish a
450 3
436 5
439 7
549 6
540 9
429 2
ĠO lymp
637 2
637 5
657 1
Ġal ive
Ġop pon
vis its
dep th
cap olitical
ĠCom mun
vir ginia
Ġpos itions
put e
atter ed
mal awi
Ġexp ansion
sing er
Ġart ists
ĠTe am
Ġsmall er
hav en
Ġenjoy ed
ĠAt torney
ato day
lyn n
Ġimmedi ate
atlant ic
Ġelectric ity
Ġincreasing ly
Ġimpro ved
owe en
nut rition
Ġtre ated
iplom at
oly mp
ĠSqu are
ncreg ister
4 307
4 254
5 170
5 152
5 197
6 122
6 196
6 207
7 241
8 161
8 292
D ay
E ng
T R
b ath
h ouses
m m
r ance
w id
Ġ 33
14 081
13 451
in spir
re mov
re spect
57 34
57 99
46 16
46 19
46 99
46 92
46 71
49 30
49 47
49 98
48 27
48 28
48 84
48 94
58 14
58 18
59 63
59 72
50 15
56 19
56 37
56 32
56 87
56 41
79 02
70 48
69 16
60 59
90 00
45 47
77 54
55 10
80 23
99 37
ne ts
ne utral
Ġb ath
54 13
54 25
89 59
65 40
65 47
53 18
53 26
53 30
52 23
he y
63 13
Ġre b
Ġre li
82 20
Ġe at
ra pe
ĠA rena
127 58
ĠB oston
pl anned
ec ial
os ion
ell ers
ĠR on
cl ay
ĠF rank
Ġpro posal
der ly
ĠW ol
pro duc
ens ation
ens ky
ass ing
450 1
434 5
546 8
Ġad ults
769 4
az i
630 4
po or
636 4
899 6
Ġsec retary
ste phen
Ġpo ol
ran sport
par king
par ade
black pool
Ġapp arent
Ġrem ove
rum ors
ĠEx ecutive
Ġvide os
spir acy
exp and
Ġloss es
ipp ines
Ġsuggest ed
Ġwalk ed
alleged ly
Ġestabl ished
ĠMid dle
Ġfarm ers
unicip al
pok emon
5 107
5 129
5 123
5 179
5 238
5 287
5 289
5 201
5 580
6 155
6 244
6 282
7 139
7 478
8 164
9 145
F ore
H ouse
P R
W hether
a us
b ob
h undreds
h amilton
p ent
r amp
s b
s ick
10 287
12 358
16 271
st ress
57 80
co bs
ar o
48 08
47 47
47 42
47 04
47 94
47 51
59 74
59 91
50 36
50 39
50 70
56 15
56 28
56 33
56 97
56 71
66 76
66 08
78 86
70 07
69 52
60 99
60 86
60 07
60 52
60 63
68 17
68 78
68 45
88 53
Ġw est
45 20
55 48
55 53
67 19
67 34
67 37
67 57
Ġh istoric
54 18
Ġp lease
ch em
87 70
85 16
Ġc ult
ad aily
64 37
im migration
ri ors
ĠS EC
ĠM ag
130 55
iv an
Ġsh ift
ĠT y
tr ick
ĠF C
der ry
163 18
ric ts
540 4
559 0
559 1
536 4
556 6
bl itz
529 3
658 4
747 2
ĠU N
778 4
Ġcl oud
tain ment
Ġpr ime
star advertiser
Ġro les
let ics
do ctors
Ġdec ide
uss ex
sw ick
sw itch
Ġsecond s
Ġmem ory
Ġappro val
Ġleg end
ha ul
Ġpay ment
nov ative
cover ing
Ġben ch
Ġpresident ial
here ford
Ġbr ings
gall eries
nh l
afford able
Ġvulner able
5 128
5 125
5 159
5 158
5 165
5 151
5 177
5 296
6 159
6 174
6 300
6 275
6 397
7 180
7 260
7 258
7 171
8 486
B ra
T ra
a fl
e at
f its
f ired
p k
q a
r ush
t i
t ack
Ġ âĢĻ
15 174
17 599
17 671
er ick
at ically
57 13
57 22
57 66
57 53
57 83
46 86
46 72
49 39
49 63
49 92
48 40
48 56
47 35
47 52
47 62
47 72
58 77
58 81
59 25
59 83
50 47
50 45
50 74
56 48
56 80
66 57
78 88
78 97
78 71
78 81
79 20
70 13
70 80
70 32
69 15
60 28
60 35
60 33
68 12
68 03
88 10
88 39
88 70
88 60
45 12
is nt
55 13
55 22
55 51
80 32
80 87
Ġf estival
Ġb attery
65 15
65 26
ig ion
un iverse
94 45
ut d
ut ies
82 29
us ual
ill o
Ġbe ach
Ġst reets
ant on
ist a
Ġan alyst
ther es
178 60
ĠF air
ĠG en
214 51
pro secut
ĠJ ul
ĠJ ordan
Ġde put
456 8
450 5
557 1
659 2
ven ge
445 3
low ers
Ġro y
Ch arles
sup ply
Ġevery body
hol der
Ġmov es
run s
ĠSe ason
di et
di agn
wa iting
Ġob viously
sk in
tor ch
Ġcor rect
Ġorgan is
Ġshort ly
pal estinian
Be fore
found ation
incre ased
Pr ince
spot light
Ġvol ume
ĠPal estinian
protest s
Ġteach er
cele bs
Ġsong s
Ġrout e
insurance journal
reason s
Ġbus y
heim er
Ġinflu ence
Ġaltern ative
greek reporter
sched ule
hatt an
ĠMic rosoft
Ġrelat ively
ĠEag les
mccar thy
5 114
5 358
5 369
5 271
6 157
6 239
6 245
6 380
6 560
6 271
6 263
6 798
6 242
7 286
7 234
8 188
8 368
8 346
8 291
D em
Y our
d isease
e ction
g b
h c
h ang
k ers
l oo
w u
Ġ 36
Ġ entertainment
10 000
10 332
17 496
39 84
st ance
57 16
57 49
49 05
49 07
49 02
48 96
48 41
47 81
58 20
59 27
59 45
50 18
50 19
50 90
50 91
56 13
56 66
56 53
66 58
66 41
66 51
78 16
78 21
78 99
78 63
69 33
60 15
60 06
60 09
68 11
68 28
68 46
90 64
88 56
88 79
88 80
88 99
45 11
44 49
55 57
Ġb urn
54 50
76 23
76 54
87 46
Ġm ax
65 29
65 59
85 39
et own
ig o
ur se
53 21
83 12
Ġl iqu
72 20
92 15
119 38
oc a
ist ing
ie v
ĠI ns
ĠF amily
ĠL ocal
Ġch ances
456 1
538 9
548 1
424 2
Ġk itchen
658 7
658 9
iss a
ĠK ent
ath letes
gr at
gr ades
756 7
869 7
859 5
879 3
Ġop inion
can nabis
Ġar m
her oes
mark eting
Ġreport ers
Ġfe ed
ring ton
sun ak
Ġmay or
Ġgu ess
Ġrel ief
Ġcol leagues
prof ile
Ġlaw yer
Ġdem ocracy
Ġel imin
ĠAss embly
Ġequ ity
Ġvot ed
Ġmar riage
hib it
Ġtalk ed
Ġmot iv
Ġrequire s
Ġmeas ure
ĠAs ia
Ġfail ure
chip chick
dod gers
Ġremov ed
controvers ial
surviv or
ĠDen ver
origin als
4 287
5 259
5 308
5 299
5 398
5 331
6 200
6 181
6 308
6 289
6 251
7 150
7 157
7 194
7 470
A nt
D E
D an
D ef
S mith
V er
a the
e le
o is
p apers
t le
t ight
Ġ edge
Ġ iconic
11 361
in aug
an ews
en de
en ko
or able
57 50
57 78
46 43
46 64
49 72
47 37
47 58
47 78
47 63
47 93
58 66
59 37
59 70
59 02
50 49
50 79
56 10
56 16
56 21
56 73
2023 08
2023 06
ed i
78 00
79 35
70 15
69 48
68 26
it an
77 20
55 15
67 55
Ġf ort
89 37
Ġp arent
43 19
Ġd ie
65 39
65 44
ol ine
84 10
ut on
ut ton
83 20
52 13
63 12
62 11
se at
Ġl augh
72 12
us ive
ri ff
est abl
Ġn ov
ĠM aine
ap olog
are as
ear ns
pre vent
218 08
Ġr um
ĠL ight
ĠL iverpool
ĠG ar
ĠN ot
ĠE conom
ric hard
450 2
440 5
Th ree
437 4
549 8
Ġun iversity
550 8
547 4
535 4
Ġad ds
pol ls
ĠU p
629 3
757 2
amer as
866 2
836 2
869 4
col lection
itt ers
ret ro
Ġact ing
met a
cont est
more news
St ud
Ġra il
Ġcons umer
stock news
Ġind ic
Ġstud ies
dem ocrats
celebr ation
mc u
sign ificant
ĠCl ark
russ ell
ĠSp ace
Ġadv anced
inf ra
hand ed
Car thy
ij ing
Ph one
celt ics
Ġpred ict
ourist s
explain s
Ġdetermin ed
Ġoccas ion
olph ins
Ġstret ch
greenock telegraph
4 255
5 119
5 198
5 367
5 348
5 203
6 128
6 198
6 268
6 500
6 262
6 780
7 296
7 346
7 480
7 221
7 569
8 104
8 259
8 369
8 660
J an
M ic
U R
b ishop
c itizens
d im
d ors
e ah
g ifts
j ury
m ud
p ope
Ã ±
Ġ rival
10 186
18 194
th al
39 04
57 69
57 95
46 98
49 60
48 55
48 09
47 38
47 82
58 96
58 06
58 83
58 62
50 20
50 57
50 76
50 65
56 81
ed ges
78 24
78 28
78 06
79 21
Ġa pol
60 17
60 57
60 49
60 79
60 04
68 27
90 65
Ġw id
Ġw ear
Ġw ins
45 46
45 50
45 33
Ġt ied
Ġs udden
77 50
77 77
55 44
67 68
Ġh ospitals
54 47
76 10
103 15
id ency
Ġd estin
85 29
ad mits
84 13
112 89
83 19
63 10
63 17
Ġre mark
se attle
ĠS ab
ĠM ass
ard ash
220 26
100 86
te le
ĠF ootball
ĠG i
ĠJ eff
446 7
Th ough
437 2
540 6
659 6
638 2
535 1
768 2
630 2
649 1
635 3
636 5
868 8
898 5
846 3
Ġsp ons
877 1
ms nbc
pos itive
do ing
sc i
herald net
tal king
aut om
just in
For mer
Ġpay ments
Ġair craft
Ġpush ing
Ġneigh borhood
Ġserious ly
zing a
Ġbirth day
Ġpan el
Ġbehav ior
boing boing
Ġcomfort able
fab ulous
Ġcorpor ate
avail able
5 115
5 186
5 286
5 470
6 120
6 100
6 170
6 184
6 238
8 121
8 244
G O
M iss
T im
V an
c ards
f ame
p ad
s i
u h
w ine
Ġ river
Ġ psych
12 468
in ning
en o
st rict
57 19
57 70
46 82
48 53
47 53
58 26
58 08
59 19
59 48
59 47
50 55
66 19
66 03
78 98
79 98
70 23
70 81
Ġa ims
90 42
88 29
88 87
Ġt ree
Ġt ask
98 92
55 41
67 63
Ġb ills
54 21
89 22
76 59
85 11
et ts
ig ar
ac ademy
he ard
63 28
63 37
to ok
ag reement
ct ic
us er
ĠC arl
ĠC atholic
Ġst ab
ĠM etro
oun ts
ĠP E
ĠP akistan
Ġco ffee
ex change
ind ustrial
Ġr ich
cl ays
Ġex am
ip ur
be er
gh ost
gh ana
Ġde als
550 4
550 5
559 4
Ġse lect
537 2
we igh
634 1
erv ille
839 3
878 4
Ġtr ansp
cr imson
858 3
ix el
pos ite
Wh ere
Ġback ground
Ġact ual
ten ance
vol unte
Ġgood s
vir t
coll ision
Ġem b
Ġperson nel
ĠAd am
Ġclos ing
Ġsold iers
ĠHigh way
ghan istan
europe an
ĠGe orgia
str ings
Ġneigh bour
civil beat
Ġsqu are
predict ions
achel or
Ġappreci ate
- %
5 118
5 149
5 157
5 285
6 117
6 124
6 129
6 146
6 247
6 234
6 358
6 276
6 507
6 541
6 542
7 179
7 298
7 497
8 273
9 207
F our
I R
c irc
f ishing
f ields
f avour
g ab
h ung
j am
j azz
m ach
p g
s f
s oftware
z ie
Ġ 300
12 145
12 651
11 792
16 599
16 405
in quis
in novation
18 138
19 244
st un
57 24
57 40
57 89
57 51
al aska
46 85
49 17
49 25
49 58
49 78
47 87
58 85
59 24
59 36
59 40
59 76
59 97
59 61
50 78
50 08
56 24
56 46
56 59
56 98
56 86
56 84
70 25
69 59
69 78
69 60
69 83
60 24
60 81
68 88
68 92
88 90
88 06
88 01
ou p
com mit
77 39
98 48
55 52
99 26
Ġf lat
Ġb on
54 31
89 79
76 35
76 51
Ġp ed
ch ef
85 34
84 36
84 50
ur ged
ut al
83 15
52 10
62 16
93 25
72 18
82 14
ĠC ross
sp ire
ap c
ap es
de b
139 46
ĠP ay
ec ks
amp ed
100 18
ĠR ail
tr umps
Ġv an
ĠG ames
ĠN i
ong times
ĠE V
ĠE r
Ġwe igh
459 4
558 8
558 9
529 1
528 2
647 5
760 1
637 4
679 1
657 7
866 3
866 4
att empt
ier post
Ġte chn
St ory
down town
val ent
coll apse
que ens
Ġann iversary
Ġcar rying
Ġcap tain
Ġfollow s
Ġsub sid
mc courier
Ġpoint ed
thes hill
sent enced
Ġlist en
mod i
spir it
Ġcut s
writ ers
Ġident ify
Ġfall ing
ĠPar is
find ing
feat ured
Ġthreat s
ĠHol lywood
nh s
brown sports
mom ents
Ġspecific ally
comed y
Ġwonder ful
tes la
ĠNiger ian
Ġdemon str
ĠSto ck
larry brownsports
worce ster
thefront ierpost
theshill ongtimes
6 107
6 125
6 175
6 290
6 221
6 252
6 543
7 106
7 207
7 500
7 331
8 177
8 205
8 297
8 203
9 101
9 364
C ur
E urope
F ire
M us
T ur
e ve
f ears
g one
i owa
m ant
m ount
n r
q z
w at
10 257
12 350
12 356
14 841
16 193
on i
st ra
57 12
57 58
57 59
57 98
57 75
57 04
al ask
al cohol
40 11
46 91
49 88
49 43
47 79
47 00
58 22
58 87
58 05
59 17
59 28
59 22
59 33
59 87
59 04
50 37
50 42
56 31
66 16
66 04
78 79
78 90
78 80
79 63
70 17
70 60
69 00
60 88
60 97
60 65
60 84
68 13
68 29
68 87
68 04
it ec
90 43
45 14
Ġt urns
Ġt ackle
Ġs pect
77 22
55 39
55 45
67 65
80 01
ion eer
54 22
76 19
86 16
86 56
86 44
87 18
87 69
43 30
75 24
65 12
65 30
85 33
et ary
74 39
64 50
ow ing
53 20
53 16
53 28
he ars
108 68
ce pts
62 27
Ġl ights
Ġe th
ĠS pe
ĠC rown
Ġn ames
129 27
if fe
ant ic
ĠA rizona
sh in
out perform
Ġhe av
Ġr uling
fe ated
ĠH y
uc king
549 1
ash ville
536 2
Ġse es
638 4
558 6
556 4
fl u
759 9
647 4
ĠK evin
Ġqu iet
868 5
857 3
Ġour s
dis play
sc enes
part nership
bo e
ĠCom mand
na ps
sur prise
Ġind ustrial
big island
south ampton
dem ocracy
Ġgreat est
ben zinga
Ġloc ations
child rens
Ġstri kes
writ ing
ĠCommission er
Ġcreat ive
Ġpract ices
bol ton
phil adelphia
exc els
Ġbeaut y
Ge orge
Ġsat isf
proble ms
GP T
! âĢĿ
5 122
5 145
5 156
5 379
5 377
6 194
6 205
6 202
6 367
6 349
6 453
7 274
8 126
8 175
8 194
8 460
8 589
8 554
C S
D O
M I
M ax
U l
V al
b ail
c aine
g ian
j en
k ansas
l ions
l akes
s aw
v ard
w isconsin
10 146
14 360
11 872
re leased
57 27
57 82
46 20
48 15
47 88
47 98
47 67
50 43
66 11
66 79
66 06
78 13
78 76
79 93
70 50
69 14
60 18
60 47
60 50
60 77
60 85
68 59
68 95
68 64
68 01
90 97
88 20
88 31
88 41
45 37
Ġt end
77 11
77 47
77 68
55 18
55 50
and rew
80 65
80 74
99 47
99 21
Ġf irms
Ġb rain
Ġp ric
ro gate
Ġto ol
87 68
Ġm ag
65 16
65 56
00 00
95 23
84 28
im age
110 33
53 27
53 22
52 28
he m
73 26
108 26
93 30
Ġg rown
om s
us d
ri el
ab u
ĠM oh
sh a
ĠB est
150 65
Ġan imal
Ġcom bat
port er
179 23
ke ys
ĠF ar
ark ed
ark ansas
163 21
240 67
pro posed
456 6
land er
536 5
535 2
769 1
769 5
630 3
750 5
634 3
679 9
648 2
635 4
834 4
958 3
858 2
call ing
ev olution
mar ine
Ġatt empts
nyse ar
Ġstud io
hol y
por ation
Ġvis ited
pat ients
money talks
Be at
los es
Ġhom eless
bri an
umer ous
Will iam
notting ham
stor ms
veter an
Cent ral
ĠHold ings
issipp i
moneytalks news
4 121
5 184
5 297
6 144
6 208
6 191
6 347
6 498
6 232
6 451
7 198
8 406
9 285
L ong
O b
R ay
W estern
b io
c w
d augh
e z
n ormal
p itt
s uggest
14 695
14 072
15 218
16 273
re pl
re action
or o
57 77
57 97
57 65
co le
49 15
49 89
48 60
48 43
47 55
58 10
58 98
58 52
59 69
59 88
50 25
56 26
56 22
56 58
56 50
56 92
66 12
66 86
66 96
78 10
79 31
79 61
70 16
70 22
70 41
69 94
60 11
60 98
60 32
68 39
68 85
Ġt ie
Ġt rees
is lands
Ġs ought
Ġs ites
com merce
44 41
98 35
55 30
55 32
67 10
67 13
67 29
67 66
67 41
80 22
80 50
Ġf ifty
Ġb ranch
54 40
ro at
86 29
75 12
74 33
64 29
64 39
84 47
im ages
art ificial
Ġre place
72 29
us ers
Ġe lev
op ener
ĠC y
uk rainian
ĠM ax
126 10
125 19
Ġcom pl
216 03
100 23
ĠT ri
ĠD avis
ub b
ĠL ove
Ġch ain
ue z
Ġle aves
ass y
557 8
546 7
538 7
548 0
558 4
558 5
bl oom
670 8
539 3
769 9
ick en
ĠO ld
650 1
635 5
Ġdo ors
ĠCh arl
ĠCh airman
Ġag ent
890 6
869 3
858 4
af t
Ġar my
polit an
how s
Ġcoun cill
sc ale
ĠY oung
Ġass ists
Ġmin ing
Ġret ired
Ġret irement
Ġgu ests
north ampton
just jared
del ays
Ġtrans form
Ġcr imes
ony m
Ġhead s
bel ta
rate ful
iam ond
Ġposs ibility
ĠPr ince
Ġrem ind
Ġsent ence
kent ucky
Ġmess ages
Ġfr ame
Ġshop ping
patri ot
Ġstrug gling
Am ong
Ġattempt ed
earth quake
comput er
gard ens
controvers y
kf ka
intend o
Ġregister ed
Ġjun ior
proper ties
ĠVir ginia
Ġspokes man
lgbt q
5 110
5 153
5 269
5 233
5 243
6 113
6 185
6 240
6 348
6 332
7 111
7 147
7 187
7 222
7 263
7 261
8 147
8 408
8 473
D ec
O ff
f ers
h q
h ole
h ampton
j pm
l ane
l oved
p ter
r ural
s ac
t ext
x on
10 266
10 660
10 303
12 702
14 186
14 308
15 401
15 851
16 164
16 604
17 502
th s
25 701
Ġth inks
57 76
57 06
46 53
ar ison
49 23
48 25
48 54
58 34
58 99
58 82
59 57
59 09
50 32
50 63
56 18
56 38
56 49
56 54
56 82
56 51
78 82
79 27
79 76
79 96
79 01
70 34
70 47
70 90
69 24
69 56
69 75
69 95
60 46
60 82
68 10
68 40
68 72
68 41
68 51
90 38
88 78
ou ri
Ġw eren
55 46
55 49
and ard
67 23
67 78
67 44
67 61
80 78
80 70
80 09
99 11
99 51
Ġf ly
Ġh ab
54 23
54 56
89 56
76 22
ch apter
ro ls
86 49
el son
Ġm and
Ġd er
Ġc ultural
95 58
ad op
74 48
64 10
64 25
84 48
110 29
53 12
83 23
83 29
ot ions
63 25
82 13
ul u
ĠS ocial
ly de
Ġst ick
Ġst ores
116 56
oc ates
ĠM o
126 59
ĠA f
ĠB usiness
ĠB ron
ĠP ost
ĠP acific
ther o
ex ecutive
100 27
100 38
ph op
der ate
daily excels
per ate
446 4
Th rough
538 1
558 1
556 1
556 3
769 6
770 2
770 7
770 9
Ġ20 11
730 5
ĠO ct
735 1
760 2
746 2
956 4
840 5
868 7
939 5
544 1
ca fe
leg es
998 9
arch ive
min i
ug s
Ġar med
tv line
Ġret urning
dem on
Ġtri but
lim it
ci ences
Ġent ry
hi phop
Ġjo ining
ĠTe chnology
inquir y
Ġtest ing
conf irms
Ġreach ing
ĠSte el
ĠMed ia
squ ad
Ġplat forms
Ġparticip ate
ĠPat rick
Ap ple
ĠNet flix
Ġi Phone
ÑĤÐĲÐ ©
LI VE
reprene ur
document ary
Ġrestrict ions
inquis itr
dailyexcels ior
2 1052
5 181
5 182
5 192
5 400
6 136
6 580
7 205
7 235
7 256
8 256
8 309
8 282
8 475
8 676
9 154
9 361
A E
E arl
L aw
L eg
Q ueen
T I
b anned
g m
g rees
h idden
k ate
l ah
m oh
s af
s amsung
t at
10 387
14 270
14 355
11 384
17 791
24 580
57 48
49 08
49 73
47 15
47 46
47 89
58 68
58 00
59 78
59 60
59 77
50 94
50 53
50 92
56 47
56 42
56 94
66 46
78 96
78 74
70 14
70 20
70 67
70 92
69 37
69 66
68 37
68 79
68 44
68 93
it ism
88 66
88 95
77 57
le ston
98 36
98 31
55 36
67 48
67 21
as a
Ġf al
Ġf illed
54 30
76 11
76 79
Ġp owers
âĢ ¢
86 39
87 33
am azing
el ive
75 19
65 25
65 45
85 17
ig e
74 13
64 18
64 48
94 20
im ag
83 17
ot te
63 34
63 22
62 19
ag ent
Ġe missions
our ces
ra ig
for get
sp y
ap ps
artic ip
ĠP hill
153 18
ĠT al
port news
Ġr adio
Ġv ari
ĠL uc
Ġex ecut
195 25
og i
ich elle
546 4
559 3
ors es
548 2
530 1
cor ruption
528 3
539 5
fl o
647 6
779 5
628 3
Ġdo ctor
957 1
ah an
859 2
858 6
ron icle
998 2
Ġdis appoint
ivers ities
ull s
cer y
Ġra ising
har ris
aim s
Ġmin imum
Ġincre ases
Ġgu ide
Ġem br
dev ast
ĠDe Santis
di am
cons um
ext reme
Ġposs ession
clos ing
Ġhit ting
Ġlist ed
De cember
Ġdist ance
equ al
ĠPart ners
tur ning
Ġdiscuss ion
appro ach
appro ves
Ġprior ity
Ġach ieved
rif ying
loc ation
Ġcy cle
ĠDon ald
Ġhum ans
Ġnor thern
Ġaim ed
Ġsurpr ised
Ġgrant ed
weap ons
lincoln shire
Ġtrou ble
whel ming
Ġmic ro
5 138
5 137
5 199
5 161
5 258
5 270
5 255
5 399
5 222
5 221
6 116
6 121
6 134
6 162
6 279
6 246
6 256
6 369
6 346
6 408
6 497
7 153
7 168
7 196
7 275
7 590
7 468
7 509
7 554
A k
D en
J apan
O ld
P P
S ky
d estin
f ine
f ailed
j ur
k et
m others
n p
t icket
u ins
w arm
Ġ 34
10 113
10 281
10 567
14 333
11 802
in ent
in ec
er ic
24 268
57 36
57 68
57 43
57 62
al ong
49 38
49 76
49 51
48 34
48 69
47 17
47 39
47 50
58 56
58 07
58 92
59 54
56 12
56 11
56 44
66 49
66 77
66 64
66 02
78 18
79 46
70 54
69 39
69 31
69 64
Ġa uth
60 23
60 19
60 96
68 21
68 66
68 55
90 77
88 28
88 46
88 58
Ġw edding
Ġs and
77 33
77 75
44 30
98 52
55 14
67 24
67 30
80 51
104 12
89 47
89 53
76 78
105 29
87 16
am ation
75 10
75 17
65 18
65 27
74 18
74 46
64 14
84 30
94 46
110 03
83 24
83 28
73 12
62 15
62 17
62 25
62 29
93 10
se ed
Ġl ap
72 25
Ġg ender
Ġg rateful
Ġe co
ul ance
ĠS ud
ĠC am
ĠC oll
em otional
Ġst olen
116 29
uk a
ab by
ĠM y
126 36
ie ving
qu iat
ĠB o
ard o
143 16
port land
Ġr ally
ph ase
ĠL ane
ĠG ra
175 19
213 64
be comes
549 3
559 6
659 1
Ġse gment
ew sp
528 4
ase fire
750 1
758 4
840 4
859 7
leg isl
850 6
me th
998 5
alph abet
sc ious
back ed
Ġinvest ments
Ġoffic ially
less ly
ma id
Ġwin ners
cept ions
prof its
Ġhead ing
Ġleg acy
asing stoke
Ġsever e
Ġcer t
Ġprof essor
Ġattack ed
Ġtarget ed
Ġest imate
Ġev ac
Ġgener ally
wal king
Ġbr ands
ĠOr gan
appro val
secut ive
nys ed
Ġimpro ving
Ġproper ties
strug gle
Ġden ied
riot act
Ġappoint ed
appear ance
Ġcollabor ation
plat form
Uk raine
thed iplomat
Ġtyp ically
pw torch
mosp here
perez hilton
gom ery
gloucestershire live
5 124
5 174
5 295
5 396
6 105
6 154
6 153
6 195
6 388
6 576
6 273
7 140
7 188
7 177
7 208
7 282
8 128
8 179
8 257
8 252
8 303
9 105
9 164
9 343
9 455
9 452
A ustralian
H aving
T or
b eck
c rowd
d uty
h ate
h aving
k arnataka
n u
p ill
p ies
p owers
w ake
10 393
10 494
10 685
12 589
14 306
14 808
13 123
in tegr
st rom
57 64
57 07
al abama
al berta
46 65
58 80
58 71
59 39
59 07
59 94
59 92
56 67
56 74
56 52
78 39
78 75
78 83
79 12
79 15
79 36
70 00
69 26
69 27
69 76
60 58
60 95
60 72
68 48
68 71
88 59
88 97
Ġt argets
is i
Ġs outhern
77 44
77 76
98 49
98 97
67 14
67 40
67 22
67 64
67 53
80 03
80 71
il ience
Ġh ate
102 24
89 10
89 65
106 23
86 19
86 28
86 77
86 55
87 22
Ġm um
75 46
75 49
75 56
Ġd ynam
65 23
65 19
95 27
64 34
64 21
all ery
ot ing
he els
73 15
ĠS afety
ĠS outhern
ĠS ydney
ab sol
sp ain
sp rings
ĠA th
125 17
ap h
ist ant
qu er
ĠB at
132 12
pre ced
ĠN HS
ens on
per iod
557 5
Ġj oy
558 3
Ġad apt
Ġout come
ny c
row ns
770 1
629 2
Ġcomp ete
ĠO nt
637 3
636 1
868 4
cho ice
837 3
Ġim possible
ik h
Ġar ms
rain ed
ev es
rist ol
Ġfe es
win nipeg
ĠNew castle
Ġter ritory
cons ult
roll er
mur ray
ĠCol umb
hy d
ĠMar vel
Ġfore st
amb ia
cs monitor
hal ifax
Ġke en
âĤ ¹
Ġbroad cast
kid n
ĠFore ign
Ġresident ial
fant asy
Ġtemper atures
opportun ity
Ġlink ed
soft ball
itig roup
Ġspl it
5 108
5 117
5 130
5 150
5 144
6 130
6 166
6 189
6 176
6 235
6 286
6 288
6 296
6 357
6 201
6 568
6 455
7 119
7 160
7 236
7 269
7 306
7 295
7 600
8 132
8 159
8 248
8 600
8 242
8 477
9 200
9 580
A A
A ct
B ay
F rench
H O
N i
O ctober
S ol
Y et
b ak
d or
d ur
f ury
f iles
h ell
l um
l iter
m organ
p it
p att
r us
s in
s end
w ight
Ġ 42
10 221
10 789
10 586
10 002
12 267
11 169
11 344
11 874
13 242
13 696
15 062
19 801
re ction
34 006
57 14
57 44
57 09
al ia
al legations
48 16
48 76
47 29
47 31
58 21
58 76
50 89
50 64
56 17
56 35
56 69
56 43
ed ition
66 18
66 85
66 62
78 26
78 95
69 69
69 01
69 07
60 14
60 38
60 44
60 01
60 53
68 35
68 56
68 76
it zer
90 17
90 09
88 25
88 43
Ġw rest
98 45
102 18
Ġb odies
89 14
89 30
89 32
76 42
ch airman
Ġto t
106 56
Ġin tr
86 30
86 34
97 27
97 41
Ġc le
Ġc ategory
ig il
74 26
64 36
ac cording
84 15
94 25
94 56
110 67
53 36
83 34
107 36
ot al
73 14
Ġbe ar
op tions
op inions
Ġst ood
120 90
118 37
ab e
124 28
ĠM oscow
126 50
ĠA ug
ĠA nt
sh es
sh ops
ear n
qu ate
150 27
150 31
132 29
ĠD i
179 21
ĠF ort
Ġv ast
ĠL and
pe oples
175 30
Ġpl us
234 37
ach ment
446 1
557 4
Ġwor ry
536 1
547 3
547 9
ru ction
cor ner
any l
670 1
res ult
747 9
647 2
760 6
779 4
978 2
648 3
650 4
Ġcl ubs
866 8
545 4
857 5
848 3
min or
ys ide
car olina
Ġres cue
ris ks
Ġdec lined
part s
ger man
Ġserv es
osp ice
dr agon
opinion nigeria
Ġbel ong
south afric
Ġspec ies
ĠAr ch
bel arus
alt ies
def ence
def ends
su its
take aways
ĠAd ministration
adv ance
Ġprom ise
help ing
rock et
Ġconcer t
sn ap
sch eme
wild fire
Ġbas ic
Ġrequire ments
wel comes
reach es
bas quiat
Ġstrate gic
kel own
Ġpict ures
Ġprep are
outhe ast
veter ans
myst ery
Sy nd
Ġstor age
preh ensive
beng als
ĠStan ley
southafric atoday
basquiat strings
" ,
5 350
5 332
6 160
6 141
6 230
6 360
6 277
6 309
7 134
7 131
7 576
8 140
8 174
8 240
8 209
8 286
8 500
8 349
8 543
9 397
9 292
9 880
J oe
M ag
P re
S ports
T w
b ush
c ubs
d ah
e aland
f o
f illed
j amin
l uxury
n air
s ight
u aries
y out
Ġ 75
10 106
10 135
10 179
10 276
10 496
14 392
23 137
in stagram
in coln
17 792
st ing
at ively
57 33
57 86
al ways
49 33
49 32
49 06
48 71
47 44
58 59
58 88
59 95
59 08
59 51
50 10
50 48
50 44
56 14
56 45
56 95
66 10
66 37
78 19
79 18
79 28
70 38
70 69
69 28
69 49
60 92
60 91
68 36
68 80
68 86
90 84
88 57
88 47
Ġw heel
Ġs uc
77 63
77 62
77 51
98 14
98 15
98 66
55 21
55 42
67 25
67 38
80 19
80 82
99 19
99 76
99 74
of ab
ne cess
Ġf at
54 24
89 34
89 77
87 12
87 17
87 27
87 58
el sh
75 38
75 31
Ġd ry
65 57
85 14
85 20
85 23
Ġc aut
95 19
news wire
52 29
63 23
62 10
62 23
62 26
Ġl ik
72 19
72 28
92 28
to col
to ofab
sh ell
qu it
149 40
157 11
220 14
100 44
100 96
Ġch a
act ed
av an
ass ociation
ric ultural
ich ol
546 2
Ġab ortion
559 7
659 0
659 4
Ġk il
539 1
770 0
749 5
ath y
628 4
649 5
650 2
635 2
636 2
756 3
979 1
678 7
837 4
Ġper formed
tri ed
Ġthere fore
min n
itt ed
ug ee
867 3
ban ese
Ch ief
cer t
sw ind
sun derland
lear n
wood s
Ġrel ations
less ons
prof essional
mid dles
Ġint ent
Ġposs ibly
start ing
beat en
Ġjo int
fact ory
det ect
Ġdiscuss ed
tern al
Ġrepresent ing
Ġimprove ment
Ġreview s
Ġconnect ed
Ġregular ly
song s
Ġincred ibly
answ er
idah o
pract ice
ĠItal y
Ġdecre ased
nw email
brom s
colleg ian
ĠCast le
5 180
5 275
6 108
6 111
6 139
6 167
6 499
6 468
6 452
7 137
7 189
7 367
7 580
7 552
8 110
8 157
8 279
8 277
8 379
8 576
9 115
D R
P en
S il
d ancing
d rops
h ike
n ative
q b
r ice
r acing
s yn
s ession
w ilson
z k
Ġ https
Ġ 65
10 388
10 263
10 564
10 602
10 901
10 073
18 200
27 885
on n
st rength
57 35
co ps
49 46
49 42
48 72
58 57
58 04
59 13
59 42
56 75
56 02
es se
66 29
66 59
66 66
66 97
66 81
66 91
78 44
79 49
79 54
79 03
70 98
69 92
60 27
60 22
60 78
60 08
60 64
68 33
68 98
68 99
68 53
90 34
88 50
88 42
98 71
55 25
55 28
80 24
80 45
80 67
Ġf ee
Ġb ound
54 11
54 35
54 37
76 27
Ġp al
Ġp ub
ch ant
Ġin novation
86 20
86 53
96 10
96 39
97 35
el imin
75 26
75 58
85 40
ve ill
74 47
74 50
84 18
84 46
84 21
94 29
94 38
110 15
53 34
112 04
83 18
52 26
Ġre n
se ction
72 23
72 17
Ġg am
us on
Ġbe gins
ĠS er
op ed
Ġfor get
um ed
the ast
117 70
ĠB al
220 25
Ġsh ock
Ġsh ape
153 19
100 70
ĠD C
ĠD ar
ĠD aily
ph illy
cl a
cl im
ĠH on
be hav
237 48
ob ally
270 69
Ġpl ot
290 55
557 3
Ġj ury
547 5
658 8
670 3
Ġup dates
747 1
778 6
by u
ond u
656 2
736 4
839 1
with in
arg eting
870 8
Ġtr igger
Ġen counter
att orney
ham mer
Ġother wise
sc andal
Ch inese
reg on
vict ion
Ġpass engers
ha un
power ful
ĠPro gram
month ly
pet ition
Ġstrong er
ĠTe chnologies
Ġsuccess fully
Ġdr ag
bra zil
mill ions
Ġdeliver ing
Ġwrit er
ordin ary
Ġarg ued
peter borough
mat thew
din ner
stan ford
surviv ors
eur onews
gazett elive
Synd ication
veill ance
5 101
5 196
5 257
6 104
6 168
6 209
6 260
6 278
6 370
6 254
6 569
7 104
7 110
7 109
7 249
7 300
7 360
8 181
8 497
8 489
8 799
8 331
8 443
8 553
9 170
9 761
C am
G en
H ome
J eff
M B
O pen
S to
b ancorp
d av
e ffic
h ana
k ap
n oc
p riv
w itch
10 790
10 441
10 664
12 147
12 357
11 369
13 279
13 041
15 217
15 493
16 170
17 986
24 266
re venue
st okes
57 21
57 90
57 54
57 00
58 47
59 18
59 35
59 79
59 81
56 65
56 06
2023 09
66 72
Ġthe me
78 30
78 73
70 19
70 30
70 33
70 89
70 43
70 94
69 50
69 09
69 71
60 25
60 76
68 34
68 70
68 69
it ime
90 07
Ġt un
77 17
77 19
le ast
98 10
98 24
98 62
67 15
80 29
80 38
80 56
99 18
104 11
89 57
89 75
76 14
105 14
ent anyl
106 78
106 44
86 48
Ġm ountain
85 38
Ġc ra
74 20
64 35
64 59
ur ers
ut ed
83 30
63 35
ir s
Ġre action
93 16
Ġg ap
ĠS har
ĠC ow
em ies
113 23
est rian
118 26
ap a
122 19
147 23
Ġco up
155 49
156 10
ex tr
pre nt
216 04
219 83
ĠR oss
164 19
man ufact
ĠH ills
daily signal
Ġch at
ber n
206 56
ĠJ osh
Ġnot iced
306 57
557 7
558 7
Ġout door
ult imate
759 5
768 7
coun tries
990 3
545 3
544 3
ĠSt ation
Ġen th
world crunch
post s
967 3
Ġus ual
ĠV i
ĠV ol
ĠV egas
min ster
977 3
ats on
ross an
Ch arl
bro thers
nasdaq am
Ġbel ief
east idah
bel ow
lim a
ico pter
Ġconf irm
help ed
sy d
list ed
minist r
sus pected
every one
Ġinvol ving
prem ium
mus ical
secret ary
commun ications
broad band
gri zz
kel ly
benef it
custom ers
edinburgh news
effort s
hud son
antisem itism
Ġpolitic ians
cobs erver
eastidah onews
5 155
5 168
5 173
5 268
5 248
5 386
6 165
6 236
6 398
6 790
6 788
6 551
7 126
7 135
7 100
7 230
7 201
7 203
7 570
8 598
9 138
9 599
D S
D i
L uc
P I
P L
R ichard
b ac
b ald
f ifth
j et
m ployment
p ens
s omerset
t ics
t ale
t ickets
Ġ 49
Ġ 48
10 271
10 408
10 562
10 893
12 130
14 391
11 139
11 366
11 583
11 784
11 981
15 228
15 571
16 341
17 478
19 206
57 26
57 30
57 46
57 93
al ive
al tern
22 177
ar re
49 69
48 89
47 10
47 11
58 11
58 13
58 95
59 55
59 84
59 53
50 69
56 89
56 85
es la
66 25
66 98
78 11
78 46
78 32
79 14
79 40
79 22
79 83
70 70
70 55
70 09
70 61
69 11
69 17
69 98
69 97
60 29
60 34
60 75
68 30
68 49
68 68
68 89
68 43
90 66
90 86
88 00
88 08
88 52
77 67
le igh
98 08
55 37
67 47
80 42
80 00
ne goti
Ġb ail
89 24
76 13
76 15
76 39
76 57
ro ke
86 35
86 43
am m
id ity
65 24
95 34
ad ise
74 25
74 28
64 57
84 40
53 11
112 73
all ies
107 15
107 78
73 30
63 26
Ġre ducing
to xic
op tim
the ory
the ava
119 24
Ġst able
116 22
118 55
124 32
qu iet
end um
135 47
ec urity
ĠR s
ub ble
Ġr ated
ph o
fe w
ĠH uman
Ġpro ve
ĠW ith
ue ens
ov o
ish ares
ĠJ ersey
Ġpl ants
od a
ach us
Ġse lection
530 2
Ġad ult
970 2
res ol
fl at
769 3
ond a
746 5
960 4
Ġac cur
Ġac compl
860 9
978 4
978 6
648 4
Ġme chan
646 3
ah s
988 6
col ate
767 2
767 3
pos ure
dis cover
Ġinter nal
comp let
elf are
sm ackdown
Ġass et
nyse c
north western
Ġval ues
dem ocrat
ploy ed
iol a
Ġexp enses
Ġext reme
cond ition
plic ation
Ġequ al
Ġhost ed
Ġinvol ve
Ġcelebr ation
Ġcelebr ated
Ġep isodes
niger ians
Ġcapital ization
Ġsuggest s
dam age
derby telegraph
inv asion
vot es
pic ious
region als
Ġsched ule
ĠTur key
Add itionally
Ġfant astic
slides hows
incinn ati
ĠVill age
infra structure
ardash ian
igar h
5 160
5 187
5 176
5 368
6 145
6 169
6 297
6 192
6 489
6 243
6 454
6 441
7 115
7 452
8 108
8 149
8 144
8 196
8 789
8 761
9 137
9 100
9 297
9 788
9 294
9 453
A sh
B ack
C R
E W
F I
F ar
F rank
M ary
M ike
P U
W ater
b old
h og
i ation
k icks
l it
l akers
p ound
s ense
s alt
Ġ 37
Ġ 39
Ġ 400
10 125
10 891
12 196
12 053
14 351
11 177
11 580
11 880
13 181
16 468
18 403
18 804
19 851
24 316
an er
25 707
29 993
st ick
49 21
58 17
58 25
58 39
58 86
58 61
59 59
59 89
59 75
56 70
56 00
56 03
56 83
ed u
66 45
66 05
78 36
78 47
70 68
70 76
70 84
70 82
69 02
60 31
68 25
68 65
68 05
68 09
68 61
90 49
88 61
Ġw ider
45 58
Ġs ight
77 25
77 69
55 59
67 17
67 59
80 35
80 58
80 64
99 39
il leg
104 40
89 62
Ġin ning
Ġin spir
87 36
el ing
65 32
85 25
74 17
un ique
64 56
84 19
84 58
94 24
ut ter
114 45
Ġl ots
72 13
72 26
82 17
ri en
ri yet
Ġbe half
120 86
117 55
sp ok
129 19
ĠM organ
128 30
123 20
123 26
ap ublic
sh elter
iv ic
ĠB road
150 99
ĠI rish
145 39
ther apeutics
154 20
217 63
100 21
ĠD iego
178 24
ph er
cl ubs
cl iffe
Ġpro ceed
ĠL y
ĠN BA
Ġch osen
240 45
197 30
ide o
195 33
215 86
ob ile
ĠE nd
Ġj ail
659 7
970 1
970 4
966 9
any a
Ġout standing
759 2
ĠU l
770 6
770 8
629 1
768 4
679 3
Ġac commod
gr ims
648 6
756 1
740 2
Ġcl ient
836 1
937 4
646 1
990 1
ca f
850 1
gu est
min er
invest s
Ġman aging
la ud
ste ve
reg ions
sur vey
Ġmark s
val ued
coll abor
ient ific
stud io
aren ting
Ġlaw suit
Ġvis iting
iven ess
veh icles
clos ures
Ġref used
Ġdeal ing
inel and
launch ed
Ġimpact ed
Ġresult ing
weekly blitz
hur riyet
Ġty pes
Ġrecogn ized
stab bing
hen ry
Ġaware ness
âĤ¬ âĦ¢
Ġproduc er
louis iana
bright on
corn wall
Earl ier
hurriyet dailynews
5 193
6 250
6 356
6 490
6 376
6 261
7 102
7 117
7 265
7 379
7 566
7 676
8 106
8 115
8 173
8 250
8 300
8 235
8 264
8 283
8 476
8 762
9 103
9 125
9 239
9 244
9 305
E ar
F urther
c ult
f ts
f elt
j oseph
k itchen
p dp
w right
Ġ 41
Ġ row
10 145
10 202
10 896
12 156
12 380
12 389
14 119
14 223
14 249
11 140
11 154
11 385
15 131
15 786
15 893
18 488
19 360
an che
25 062
30 317
35 352
st v
st reak
57 18
57 84
57 94
58 94
59 23
50 13
56 27
56 64
56 63
es ome
66 38
66 55
66 43
66 00
66 74
78 67
78 85
78 51
79 34
70 24
70 40
70 99
70 42
69 90
60 67
60 80
68 67
68 00
68 07
90 12
90 88
90 01
88 89
77 27
98 16
98 06
55 23
67 45
67 62
80 94
80 92
99 36
Ġf lex
Ġb are
54 16
89 17
89 21
89 69
76 17
106 20
Ġin form
Ġin spired
86 23
86 31
86 51
87 31
65 11
65 17
65 34
85 50
Ġc itizen
64 31
84 33
ur i
110 17
110 34
112 74
all i
73 16
63 20
108 17
108 55
ce iling
114 78
114 55
Ġre ward
93 38
ri k
ra iders
ĠS ir
ĠS audi
ĠC reek
113 34
115 45
117 46
118 43
sp er
ĠM ichigan
128 54
ĠA z
127 16
ast ing
137 57
ĠI slam
133 24
Ġsh elter
ĠT urn
ans on
Ġpro spect
ĠN ation
Ġex cess
240 15
ial ogue
213 35
be acon
br ough
ens ional
244 18
Ġwor ried
res ort
759 4
eral a
by e
640 1
656 3
635 1
657 4
657 5
729 4
arg ain
Ġtr ades
544 2
879 1
899 4
me as
998 6
ever ton
lin ing
Ġdown town
lo de
ten se
Ġmark ed
Ġval uable
Ġcap abilities
Ġfound ed
boy friend
Ġspe aks
Ġfore ver
Ġclos ely
Ġspo ken
Ġsent enced
incre d
vi kings
short age
happ en
Ġeng aged
Ġthought s
Ġcharg ing
jewish journal
sold iers
inem a
Ġlo ans
inside the
there al
Fe bruary
May be
Ġarriv al
bring ing
ĠDem ocrats
rish i
Ġestabl ish
commission er
jim my
Ġcapt ured
GB T
guy ana
idel ines
ingred ients
realnews magazine
bigisland now
minn post
achus etts
5 103
5 267
5 276
5 366
5 254
6 112
6 135
6 164
6 368
6 509
7 103
7 116
7 169
7 277
7 289
7 231
8 112
8 117
8 124
8 258
8 236
8 191
8 265
8 348
8 590
8 507
8 333
9 120
9 159
9 155
9 195
9 194
9 191
9 289
9 378
9 442
B et
E r
T op
W al
a ustin
d oc
d riven
g p
g or
i ate
k ot
k ash
l adesh
z n
10 238
10 509
10 385
10 887
12 137
12 355
14 473
14 001
11 105
11 142
11 152
11 398
11 588
11 787
11 941
23 479
15 797
17 987
19 268
25 301
25 887
or ship
57 15
57 37
57 88
al one
ar an
49 35
49 57
49 59
49 50
47 56
58 24
58 35
58 44
58 03
59 56
59 05
56 76
56 08
66 56
66 42
66 53
66 52
78 09
79 24
79 39
79 99
70 35
70 59
70 85
70 03
70 01
69 38
69 32
69 06
69 63
60 16
60 71
68 20
68 58
90 22
Ġs oft
98 29
98 98
98 94
and o
80 99
Ġf est
76 41
103 11
Ġp leased
87 15
87 21
97 28
97 56
75 34
75 59
Ġd inner
85 26
74 36
74 49
84 23
84 57
112 62
83 39
63 39
108 48
109 98
114 07
62 20
62 18
Ġl ies
Ġl ie
Ġg ro
om er
Ġe ast
Ġe val
the ft
119 33
116 33
117 32
ĠM oore
125 45
127 60
139 24
ĠB a
ĠB ud
ia z
os es
Ġcon sequences
100 22
218 24
tr agedy
ke pt
Ġpro ved
ĠG arden
240 17
ip er
238 44
298 26
970 9
966 8
759 1
647 7
ĠO f
760 9
749 1
634 2
656 7
gr ounds
860 7
937 2
869 6
coun ting
856 1
859 6
cr imes
gu ides
me ets
Ġar rang
ban on
mar ried
ump ed
bro ke
bar bie
Ġmonth ly
ote ch
ari us
rat imes
ament al
Un fortunately
pay ers
pay ments
ĠRe al
spect or
green nation
minist ry
shop per
Ġaccess ible
Le ague
Ġpar liament
Bl ue
Ġemploy ment
je ction
Ġaddress ed
cru ise
ĠHar ris
ches hire
Ind ian
Ġapplic ations
bleeding greennation
Ro bert
ĠGold en
Ġut il
fail ure
Ġgather ed
conserv ative
Ġsurpr ising
ĠTor onto
canber ratimes
Ġorigin ally
Ġours elves
diam ond
6 140
6 299
6 295
6 396
7 112
7 162
7 307
7 460
7 233
7 409
7 489
7 780
7 442
8 118
8 131
8 238
8 370
8 296
8 900
8 281
8 452
8 451
9 118
9 135
9 177
9 161
9 359
9 798
A ustralia
B usiness
G od
H or
I ran
J osh
M il
M et
M att
M ont
N ext
O h
O s
a fe
b attery
b asingstoke
f leet
p urs
v d
w ish
w itness
w olf
Ġ 47
Ġ era
10 103
10 158
10 207
10 594
12 237
12 909
12 871
12 008
14 365
14 083
11 107
11 174
11 374
11 563
11 707
11 504
15 487
16 121
17 571
29 291
29 703
29 751
35 793
37 325
st reets
57 23
57 81
47 26
58 45
58 01
58 02
50 17
56 93
2023 07
66 27
66 50
66 21
66 78
66 54
66 73
78 70
78 43
79 13
79 23
79 29
79 66
79 60
79 04
70 36
70 46
70 62
60 39
60 00
68 18
90 85
90 52
Ġt urning
Ġs we
Ġs ets
77 66
77 53
le pool
98 20
55 12
55 58
67 35
67 36
67 60
80 27
80 30
80 41
ne apolis
Ġh at
Ġh all
Ġh ouses
54 12
54 59
89 31
76 20
76 29
106 59
86 59
87 29
96 19
96 70
97 51
75 15
65 13
65 28
65 35
85 12
85 19
85 28
85 44
74 23
un til
64 30
64 58
110 00
110 82
83 11
107 25
73 18
63 30
114 25
114 79
114 01
Ġre c
62 28
72 27
to y
Ġg rab
ra ke
um in
119 88
Ġst unning
116 21
ab lo
Ġn ative
124 49
ĠM oon
128 66
126 13
127 14
ist on
ist ent
138 12
138 58
ard rossan
Ġan ime
ĠI ll
134 23
ack et
144 22
158 79
220 15
ex ec
180 11
100 37
100 55
ĠR ich
Ġr ad
Ġr ank
165 22
190 78
ĠL ewis
Ġex amin
br is
279 59
ĠJ ay
235 22
286 31
290 68
557 2
547 8
anc ell
528 1
Ġup dated
525 2
ĠU tah
639 2
969 8
768 3
768 9
ĠK im
749 6
634 5
728 4
679 5
960 5
870 4
Ġme al
646 5
946 3
856 3
846 1
846 5
544 4
Ġsp aces
gl en
red uce
Ġres ort
Ġany where
ris es
Ġact s
bo ards
Ġcap able
Ġpass es
Ġdirect ed
Ġhand le
Ġinterest s
Ġspe aker
park s
ĠMay or
Ġel igible
Ġair port
arrest s
mont ana
gun s
worth y
sn p
Ġeffect ively
Ġinc idents
Ġdr inking
Ġdeter mine
Ġarg ument
Ġinv ited
Ġwel comed
activ ities
Ġrecomm ended
won der
Ġgain ed
urge on
redd it
ĠSc ience
provid es
Ġenh ance
Ġven ue
ĠMem orial
jap antimes
centraloregon daily
premi ere
strict ly
swind on
5 121
5 175
6 280
6 467
6 508
7 105
7 138
7 165
7 257
7 299
7 288
7 487
7 262
8 137
8 163
8 254
8 284
9 116
9 205
9 380
9 389
9 264
9 291
G ra
M ill
V P
V ol
c ure
d ivid
h ack
k eeps
m ets
s ons
s anta
w ives
10 178
10 205
10 269
10 267
10 461
10 809
10 683
10 007
10 072
10 071
12 290
12 460
12 586
12 596
14 104
14 195
11 372
20 337
20 709
13 115
13 409
13 790
13 404
15 452
17 607
24 107
36 241
37 901
en y
Ġth us
at eral
at GPT
57 56
al an
58 15
58 27
58 29
58 97
58 42
59 03
59 73
59 41
56 29
56 78
66 30
66 33
66 44
66 80
66 75
78 48
78 94
78 72
79 79
79 45
70 95
70 64
70 02
69 19
69 68
69 80
69 62
69 72
60 55
68 94
90 36
90 46
90 48
90 96
90 41
88 09
88 83
88 73
Ġw ave
Ġs em
77 42
67 16
67 46
80 17
99 25
Ġf allen
54 28
54 34
54 45
54 32
89 41
76 28
76 45
76 44
Ġp ace
106 48
87 19
96 13
96 59
97 57
42 246
id i
75 44
Ġd u
Ġd iet
65 10
85 27
85 49
Ġc art
95 29
74 24
74 22
64 15
94 50
94 31
ot ter
63 11
63 27
108 24
114 19
114 85
art ists
62 14
72 15
82 10
Ġg aming
Ġg onna
om i
Ġe ating
ra id
em a
the current
119 16
120 33
118 24
118 49
129 40
127 36
sh el
sh ah
sh aring
ore n
ĠB ol
ĠB all
os car
Ġcon victed
ĠT ime
port ion
ud ley
ĠR el
tr ims
200 43
ĠF arm
Ġv s
ĠH ur
ĠH unter
279 55
278 44
ĠE mer
298 42
ach ieve
546 9
356 23
cre ation
556 8
970 3
970 7
488 40
670 2
747 7
778 1
640 3
649 4
736 5
648 1
870 6
870 7
tain ing
678 4
958 4
958 6
wo ke
677 2
ier re
ep ic
Ġte le
998 7
ement ia
eng ineland
Ġres olution
dep uty
my mother
Ġact ress
high way
read s
more land
vid ia
uff y
nasdaq goo
vers ion
tal ent
search engineland
Ġrel ax
Ġph ase
An thony
Ġsub sequ
aught ers
mit ting
ĠTr ans
plan et
ett i
clos es
sy ria
hur t
Ġmoment um
Ġrecogn ition
keep ing
ĠKing dom
wire Story
nys es
vot ing
predict ion
tem per
Min ister
ĠJapan ese
Ġaccept ed
obit uaries
sav ed
Cal ifornia
cha os
ĠNiger ians
Ġadvis ed
mau i
ĠFrancis co
Ġveter an
reduc es
Ġfal se
thereal news
mymother lode
5 307
6 149
6 267
6 340
6 470
6 443
7 146
7 209
7 239
7 237
7 193
7 390
7 252
7 264
7 242
7 451
8 123
8 180
8 168
8 249
8 269
8 347
8 569
8 243
8 599
9 179
9 165
9 286
9 396
9 568
B BC
E ver
G r
H aw
L ove
R on
S cott
d ry
f iance
k w
k ay
n ature
v ie
z im
10 108
10 367
10 262
10 588
10 576
10 373
10 493
10 785
10 775
10 703
12 345
14 115
13 120
15 283
in ers
17 573
18 574
18 892
24 596
24 062
25 271
27 901
35 392
st own
or i
57 39
57 85
57 72
22 169
47 84
58 54
58 72
58 51
59 49
59 50
59 65
50 26
56 77
66 23
66 47
66 89
78 66
78 87
79 37
79 48
79 88
79 55
79 05
69 18
69 25
69 36
69 79
60 30
60 62
60 61
68 38
68 32
88 37
88 02
88 81
88 91
is c
Ġs ending
77 23
77 24
98 38
80 16
80 37
80 89
80 85
99 65
99 91
Ġf ounder
89 38
89 51
76 55
103 19
Ġp atter
Ġto morrow
ent imes
86 11
87 20
97 20
97 50
97 54
97 42
75 32
Ġd ated
85 18
85 59
74 45
ac ies
ur ation
ut en
110 11
110 20
112 07
108 60
108 99
109 49
se par
Ġl ikes
âĢĻ ,
Ġg ross
Ġg ains
um ble
115 27
120 36
117 48
118 23
Ġn ations
Ġn umerous
124 50
oc ated
129 29
ĠA bu
125 44
qu ant
140 87
136 19
150 35
137 67
ĠP oint
148 90
ee th
158 13
158 58
Ġcon ven
217 68
180 18
180 78
100 16
ĠT ransport
ell ite
178 77
169 60
167 25
170 24
ĠL abor
212 99
pro posal
236 50
ens ity
1490 5
pr im
land o
ang els
ang ana
548 5
548 7
638 1
ew an
ib an
ult ra
769 7
769 8
968 8
Ġ20 12
768 0
ĠK y
750 3
766 1
679 7
748 1
748 2
758 2
657 2
979 4
979 5
870 9
ĠCh ampion
890 9
849 1
channel stv
tri ple
me ans
967 4
Ġte chnical
998 1
998 3
Ġpr ay
Ġro of
trans gender
alk er
head ed
And rew
vide os
Ġcar bon
Ġcour ts
rel ief
ĠSe pt
Ġint ended
lim erick
pen n
don alds
brid g
nov a
Ġext end
cond itions
financial express
great est
ĠRuss ell
mb ol
ĠSte ve
ĠRes erve
Ġtax es
success ion
ĠAnd erson
reng then
Can adian
stat us
atimes gy
Ġbase ball
ĠPe ople
Ġwal ks
mort gage
answ ers
Sec ond
ĠMus k
lad im
guyan atimesgy
pregn ant
pregn ancy
opportun ities
Ġassess ment
ĠFed eration
ĠSher iff
brun swick
5 204
5 290
5 397
6 193
7 120
7 149
7 155
7 240
7 161
7 204
7 259
7 246
7 366
7 332
8 102
8 129
8 184
8 274
8 262
8 588
9 117
9 144
9 260
9 300
9 298
9 358
9 369
9 381
K im
L ive
R el
R aj
S and
Y ork
d iff
i w
m ichigan
r ine
t ank
v ar
10 127
10 143
10 184
10 204
10 237
10 500
10 350
10 697
10 964
10 091
12 111
12 152
12 347
12 452
12 706
12 901
14 112
14 751
11 184
11 309
11 500
11 507
13 110
15 299
17 985
24 116
24 140
24 158
25 257
26 419
57 73
58 23
58 43
59 64
56 30
56 34
66 26
66 34
66 88
66 84
79 47
79 78
70 96
69 03
69 82
it as
it ement
90 10
90 05
90 73
90 81
88 48
88 93
ic ient
Ġs ky
Ġs ounds
77 10
77 14
77 13
77 46
98 91
55 31
67 69
80 76
80 96
80 84
80 52
99 12
99 29
32 175
Ġf aster
104 15
54 49
89 18
89 39
89 68
76 18
76 30
76 21
103 35
86 18
86 40
86 70
87 14
87 52
96 57
Ġm anner
75 30
75 37
Ġd iverse
65 46
85 48
Ġc ro
95 16
74 38
64 23
64 28
64 33
94 34
112 08
83 10
107 59
107 55
73 36
109 12
114 17
114 39
114 53
ver dict
to dd
ri ft
Ġbe ating
ĠS anta
op ard
ĠC B
117 18
117 49
sp ac
sp ots
Ġn arrative
129 30
ĠM iller
ap el
sh irt
end erson
138 60
138 43
Ġat mosphere
ĠP M
148 23
157 28
157 34
158 21
ex it
pre d
153 14
100 50
100 79
100 80
ĠD ur
ĠR ose
over e
200 15
ph armaceuticals
177 20
ĠF ield
ĠG ard
198 21
214 36
ber news
wor n
ĠW ork
213 40
247 10
205 35
pro p
249 44
ĠJ udge
Ġpl ane
ach e
Ġor ders
546 0
pr newswire
426 54
659 9
547 2
638 3
412 15
534 3
966 4
966 5
670 9
we ird
fl ower
629 4
ĠO p
778 2
735 3
766 8
728 1
736 1
840 1
979 6
838 3
834 1
958 1
959 1
947 5
869 9
Ġap ps
comp an
lead ed
den ies
lo be
Ġown ership
bar a
Ġsur viv
Ġph il
lif t
pay ment
start ed
plic ated
Ġdet ailed
minist ers
Ġland scape
london loves
fact s
Ġcut ting
Ġcommun ication
Ġwatch ed
Ġinst ance
Ġsus pended
gi ant
rep air
Ġvot ing
Ġdiscuss ions
ĠAll en
AT O
Ġpain t
Ġparticip ants
Ġtem porary
Ġdep end
Ġentire ly
irish central
information ng
poll ution
Russ ia
Ġtour ism
Ġexpand ed
Ġbo at
zel da
certain ty
rod gers
weap on
chand igarh
Ġtrail er
Ġimag ine
alask apublic
Ġtribut e
londonloves business
6 143
6 158
6 331
7 151
7 377
7 232
7 273
7 543
8 119
8 148
8 190
8 166
8 288
8 467
8 480
9 240
9 192
9 379
9 980
9 303
B o
B ill
C E
D I
E X
E ll
F O
G E
G iven
L S
L ewis
M oh
N ever
R yan
S her
e lebr
g t
g oth
l ar
m ale
p irates
p ilot
u y
u er
u ther
10 159
10 290
10 299
10 560
10 498
10 599
10 694
10 006
12 161
12 570
12 252
12 303
14 795
14 663
11 163
11 161
11 343
11 975
13 497
13 785
13 775
13 896
13 004
23 279
15 441
16 581
16 606
16 071
17 600
18 106
18 120
18 193
th ur
24 105
24 708
27 116
28 122
on er
re actions
35 258
57 25
57 31
57 01
22 115
22 176
47 23
58 50
58 63
50 52
56 40
56 79
es a
66 39
66 68
66 90
66 99
66 93
78 25
79 90
79 87
79 51
70 37
70 83
70 72
69 53
60 90
68 14
68 19
68 96
it is
90 53
90 72
88 19
88 40
88 49
88 77
88 32
Ġt ies
Ġt weet
is ers
is free
77 18
77 61
98 63
and style
67 20
67 56
67 33
80 20
80 28
80 34
80 21
ne g
Ġf ill
Ġh al
102 28
Ġb ull
89 35
89 74
89 52
76 12
76 31
Ġp odcast
Ġin nings
86 22
86 58
86 79
86 33
86 45
87 30
87 34
97 29
97 38
97 78
Ġm ap
Ġm arch
75 28
Ġd uty
Ġd rove
64 13
64 38
ur g
94 14
94 13
110 98
112 78
112 52
63 14
63 16
108 45
109 43
114 80
93 23
93 26
92 10
119 48
119 67
116 25
117 14
118 18
118 30
Ġwh om
ĠM ill
125 24
ess el
127 27
127 37
127 54
ity sports
de er
139 44
136 15
150 19
150 56
149 88
149 32
135 11
146 10
160 80
Ġco operation
228 13
223 29
164 32
Ġv ent
152 13
187 69
240 11
240 13
209 43
334 97
215 05
238 38
338 65
ass ets
266 42
Ġde grees
ach s
449 2
ree press
549 5
536 46
ty re
658 2
ball oon
Ġ20 00
768 5
ĠO s
ĠO per
iss ance
778 3
757 7
649 2
Ġac quisition
736 2
756 5
866 5
ĠCh ase
913 22
ise ases
967 2
767 5
Ġdis cipl
life andstyle
Ġquarter ly
bre ast
Ġsupport s
law yer
Al ong
Ġmem ories
county times
Ġfind s
pen alty
Ġprom ised
dec ade
count ies
ĠRo berts
ĠMc Carthy
Ġfact or
Ġimpact s
rum or
ateg ories
vill a
buzzfeed news
valley news
ĠRes cue
ĠRes ources
ĠEn vironment
Ġreve al
rob bery
Ġemer ged
ĠAnd rew
die go
walk er
Ġenter ing
Ġassist ant
dist ribut
rece ive
link ed
Ġdeep ly
scri pt
flood ing
Ġaward ed
Ġbehav iour
div orce
francis co
Ġtro ops
Ġvolunte ers
gran itec
jok ovic
derbyshire times
ladim ir
granitec itysports
5 240
5 230
6 378
6 386
6 488
6 466
6 442
7 176
7 195
7 268
7 309
7 469
7 443
7 542
8 107
8 114
8 266
8 399
8 387
8 466
8 241
8 253
8 251
8 453
9 143
9 186
9 152
9 175
9 163
9 208
9 308
9 370
9 301
B al
B rad
C y
C all
F i
G reg
H am
O W
R am
S cottish
T en
T al
T ube
b ans
c reek
d up
e lev
g ig
h undred
k am
k aren
l uton
p ages
t elling
v r
v ice
w ells
z i
Ã ³
Ġ 44
Ġ 43
Ġ et
10 151
10 177
10 383
10 563
10 782
10 763
10 741
12 179
12 186
12 286
12 275
12 359
12 504
14 220
11 349
11 560
11 709
11 602
11 882
13 129
13 408
13 241
13 585
23 337
23 244
15 470
15 783
16 141
16 503
16 464
17 135
17 706
17 694
18 124
18 490
18 473
24 262
27 472
27 963
29 188
29 333
on ic
36 156
36 536
38 466
ar as
58 70
58 67
58 93
56 57
56 88
66 17
66 63
78 22
78 56
79 95
79 62
70 57
70 21
70 66
70 44
70 52
69 57
69 99
60 45
68 47
68 74
68 52
68 91
90 15
90 19
90 06
88 12
88 36
88 68
88 55
88 94
ic are
Ġt ack
Ġt ank
77 49
77 65
55 27
67 26
80 11
80 93
80 61
99 50
ne x
Ġf ile
104 49
89 15
76 26
76 53
105 20
105 27
86 50
87 40
Ġm agic
id ation
75 23
85 31
74 57
un i
ac a
84 24
84 25
84 32
94 26
94 30
110 45
53 35
112 06
all iance
83 37
73 10
73 29
73 39
63 29
63 36
109 70
114 50
Ġre ly
93 22
92 20
92 24
82 26
us c
ul ating
op ened
120 59
120 99
117 42
118 13
118 76
Ġn arrow
ĠM att
ĠA h
ĠA mb
oo sing
sh ift
140 27
ĠB as
ĠB ul
137 66
Ġan aly
ĠP utin
132 15
146 43
144 47
157 50
180 59
216 15
100 39
100 78
100 54
218 22
te chn
178 76
167 26
ĠH or
166 15
166 56
176 54
Ġch oices
240 32
ide a
209 24
325 07
213 73
og un
306 36
319 28
Ġun known
356 15
970 0
670 0
747 3
ild ing
Ġcan nabis
969 7
Ġ20 08
640 5
630 1
766 6
ath am
728 3
757 4
748 5
748 6
860 2
839 5
978 5
inc y
868 6
740 1
836 5
958 5
946 2
946 5
990 6
leg islature
af reepress
Ġap artment
ok er
fore ver
urn iture
app y
min utes
Ġdes ire
sw im
vol leyball
Ġshould n
raw l
del ay
rand on
celebr ating
Ġsub stant
Ġhead ed
Ġappro priate
Ġlaw makers
fr ust
quir y
ext ension
pat ient
ĠSp ain
Ġsol ar
ĠCon stitution
Ġhost s
conf idence
kn ights
got ten
pan el
mus lim
comment isfree
Ġimprove ments
Ġdead line
Ġmot ion
Ġcontribut ed
Ġpers ons
sec ution
peter bor
Ġhor ror
Ġencour aged
ĠAs ian
pict ure
august afreepress
Dep artment
crimin ation
Ġconsist ent
dynam ite
Ġconstant ly
Ġsav ings
decre ases
Ġheav ily
insidethe games
ardrossan herald
5 190
5 242
6 101
6 187
6 789
7 183
7 202
7 368
7 276
8 152
8 199
8 247
8 270
8 398
8 385
9 174
9 376
9 589
9 385
9 293
9 302
9 555
C up
D id
G ar
P ost
S I
S O
d al
d ocuments
m achine
n gr
p roud
t ol
t rent
u ity
w arts
Ġ entertain
Ġ escape
10 116
10 193
10 192
10 289
10 252
10 800
10 587
10 705
12 170
12 377
12 707
12 606
12 741
14 109
11 132
11 179
11 175
11 367
11 576
11 566
11 902
20 382
13 908
13 741
23 871
15 124
15 185
15 286
15 578
15 781
16 342
16 363
16 888
16 666
17 995
18 299
19 278
th row
an ia
27 000
27 888
28 994
re b
37 697
38 199
38 609
st a
st unning
57 17
57 03
49 84
49 490
59 46
56 68
56 62
66 35
66 01
66 82
78 17
78 37
78 68
78 64
78 92
79 57
79 77
79 97
69 44
69 81
60 20
68 23
68 06
90 25
90 03
88 54
ic iary
Ġs pr
77 48
98 78
98 43
67 70
80 88
99 60
104 30
89 46
89 72
89 61
76 24
76 33
76 43
103 25
105 11
105 13
105 48
105 50
105 45
106 24
87 44
87 54
96 47
96 79
97 14
Ġm useum
75 20
Ġd ating
65 31
85 10
85 30
Ġc ul
95 47
ol i
74 12
64 20
64 45
84 20
84 38
84 56
ow ell
94 28
110 14
110 78
112 58
107 40
107 48
73 37
63 15
108 31
109 16
114 64
Ġl oyal
72 16
82 27
Ġg olf
ri zz
op hom
113 36
ak ota
119 22
115 36
Ġst ations
118 99
ĠM iami
126 55
126 54
de ar
139 30
136 50
ĠI N
ĠI owa
148 22
148 43
133 18
132 23
ack er
160 95
ec king
ml in
100 14
100 30
100 46
ell ar
227 81
ĠR ey
ind ictment
179 18
179 90
te ens
Ġr ide
ĠF our
con dem
ĠL yn
189 36
ĠN ick
ĠN SW
198 12
av ier
213 72
335 72
215 79
204 56
239 76
ob serv
210 78
ĠJ ournal
360 32
1490 2
297 48
256 35
ric ks
317 68
367 67
550 9
cre ated
659 8
Ġse ats
Ġse lected
bl ank
bl aze
658 1
res ign
747 6
639 5
969 9
734 3
ĠK elly
640 2
739 1
739 2
649 6
gr ace
860 1
648 97
957 2
Ġper manent
Ġen able
ca uses
848 4
ier ce
ik i
998 4
oth ian
fin ed
Ġro bust
Ġplay off
Ġsup plies
miss es
alk eeper
sl ide
Ġknow ing
set ting
ient ist
Ġworld wide
Ġdel ays
food s
Ġint ention
ĠCoun try
fund raiser
ĠUS A
ĠAn thony
Ġtrain ed
vi ation
Ġtest s
Ġclass es
secur ities
kn ife
Ġcoach ing
exp ensive
Ġsus pected
Ġenjoy ing
ĠGu y
Ġrespect ively
Ġspot ted
level s
rif ice
Ġinvestig ating
tot al
bull s
Ġperform ing
Ġpack age
kf yo
Ġgovern ments
Ġmus ical
Coun ty
vanguard ngr
recomm end
ancell or
5 135
6 106
7 173
7 340
7 369
7 578
7 253
7 551
8 206
8 260
8 171
8 192
8 409
8 332
8 552
9 104
9 112
9 111
9 156
9 250
9 248
9 236
9 234
9 306
9 368
9 340
9 296
9 579
9 261
9 355
B ased
G al
M T
W or
b ours
d ose
g ust
h ob
k iss
m ixed
o it
p il
p ine
p ays
s ir
t ie
t ask
v ows
10 308
10 460
10 580
10 233
10 346
10 409
10 499
10 242
10 786
10 682
10 793
10 672
10 663
10 885
10 005
12 174
12 172
12 288
12 233
12 396
12 576
12 441
12 494
12 764
12 681
12 751
12 852
14 788
14 461
14 893
14 895
11 393
11 671
11 701
11 702
11 763
11 991
20 123
20 193
13 160
13 356
13 704
13 993
23 110
23 207
23 669
15 308
15 346
16 147
16 669
17 157
17 591
18 108
18 579
18 852
19 205
19 596
24 379
26 000
re ens
37 220
38 132
38 210
at ile
57 38
co oper
46 590
46 394
22 168
49 70
48 517
58 64
56 96
66 32
78 14
78 40
79 58
79 50
79 69
79 32
69 42
69 85
69 61
60 10
68 60
68 75
it ically
90 37
90 40
90 47
90 60
90 62
88 69
88 86
Ġs kill
77 21
77 79
98 70
98 05
98 03
and hi
80 90
80 04
99 44
99 95
89 11
89 23
89 29
76 40
76 77
76 32
76 788
103 10
103 26
103 27
ro e
106 38
106 77
Ġin fect
86 13
87 49
96 44
97 49
Ġm ach
75 27
75 40
75 47
Ġd anger
65 36
65 58
ay r
74 14
74 35
74 40
64 47
84 27
84 34
84 37
ow ski
94 21
110 12
110 37
110 68
112 95
112 63
ot ive
73 28
73 22
108 23
114 00
114 74
Ġre called
Ġre cruit
93 28
ver ted
92 23
92 29
82 15
82 18
82 24
ĠS l
em ia
Ġfor mal
the journal
119 46
119 78
115 49
Ġn avig
ĠM ot
126 15
126 57
125 40
123 18
123 30
123 39
ist rates
138 49
137 59
146 30
ign ment
159 23
os cars
180 70
219 72
Ġhe ight
167 11
167 20
164 30
ĠH el
ĠL P
ĠL ive
ĠG reg
198 29
214 38
wor se
328 01
213 69
212 83
pro grams
207 57
237 16
ass ociates
ous af
323 43
549 0
317 93
559 5
559 8
537 3
press enterprise
429 28
bl ings
ib ilities
670 6
ton s
968 6
770 5
969 4
730 2
iss ued
766 2
766 7
679 4
757 5
757 88
650 5
ĠCh elsea
890 5
946 4
ident ity
856 4
677 4
677 6
767 4
ĠV ice
Ġro t
trans ition
bre w
Ġatt ending
bor o
bers ecurity
Ġinvest ing
cript ion
aff airs
prof essor
Ġput s
ĠAl ph
Un ion
Ġprom ote
Ġresearch ers
Ġplan et
Ġsix th
Ġsco res
sus p
Ad am
Ġhost ing
pan ic
bat man
Ġhope fully
rob inson
Ġpercent age
threat s
Ġaud iences
ĠEl izabeth
Ġdest royed
Ã¡ n
Ġexplain s
Any one
mean ing
pow ys
Ġhighlight ed
Ġli brary
Ġeffic ient
Ġstruct ure
Ġfavour ite
ĠCont rol
Ġarch itect
Ġunderst ood
aik en
onen ewsp
Ġnov el
pho enix
overe ign
onenewsp age
5 147
6 183
6 222
7 186
7 184
7 245
7 598
8 120
8 125
8 134
8 156
8 178
8 170
8 176
8 204
8 267
8 295
8 570
8 376
8 271
8 498
8 294
8 764
9 119
9 124
9 150
9 187
9 238
9 258
9 245
9 441
D own
L y
P acific
R od
S ing
b ik
b ars
e ating
f y
g raph
h ag
k night
m ack
n ad
n umbers
p f
s kills
t ex
u ates
w ex
Ġ âĤ¬
10 123
10 475
10 362
10 391
10 477
10 541
10 504
10 764
10 905
12 222
12 454
12 874
12 653
12 997
14 589
14 403
14 787
14 887
14 987
11 102
11 130
11 790
11 305
11 777
11 682
13 117
13 508
13 686
15 250
15 256
15 499
15 376
15 788
15 343
16 105
16 344
17 576
17 272
17 471
17 693
18 180
18 141
18 336
18 259
19 347
19 355
th under
th eless
24 121
24 138
24 394
26 184
27 457
27 906
28 680
29 693
on der
re quest
30 101
30 965
34 470
34 775
39 964
Ġth rew
st ores
22 246
ar ia
49 77
47 471
58 69
59 11
66 65
78 29
79 80
79 65
70 11
70 28
70 88
70 65
69 51
60 66
68 77
68 97
68 84
68 63
90 24
90 26
90 30
90 80
90 63
90 61
88 23
88 26
88 21
com bat
com mercial
77 16
77 59
77 55
77 41
98 58
98 61
and roid
80 25
80 57
80 69
80 98
80 06
80 91
99 14
Ġf ixed
102 29
Ġb ike
104 37
89 26
89 49
89 78
89 42
76 49
76 56
76 70
Ġp ilot
105 26
105 49
86 41
87 78
87 67
Ġm ut
75 48
Ġd ivision
65 33
85 35
85 36
et imes
95 44
74 34
ac er
ut ing
110 16
110 22
110 50
110 77
112 80
112 41
107 16
107 56
ot er
ir us
ce eds
114 15
114 06
114 51
114 81
Ġre duction
93 24
se lect
ag her
ill on
the conversation
120 18
117 25
117 44
118 69
sp end
124 45
129 77
ĠM u
128 15
128 46
125 59
sh adow
are z
ere e
140 45
139 27
ĠB on
137 27
149 14
146 13
146 35
146 79
144 35
157 66
ine z
Ġcon cluded
Ġcon secutive
pre c
pre par
100 12
100 77
100 99
219 99
224 80
218 27
ĠR aj
Ġsa ved
225 28
over weight
200 27
178 16
178 68
Ġr uled
164 26
164 31
ĠF ilm
ĠH ay
ĠL ittle
176 33
173 28
214 71
208 30
ĠW in
334 28
334 95
206 57
206 32
205 50
br uce
br uins
326 93
pro of
249 21
ass ess
266 31
wh it
211 92
ren der
310 09
bl ast
658 5
we ed
769 2
969 5
az ard
az ette
760 5
749 4
779 1
750 6
750 20
978 1
956 1
756 2
inc ent
305 31
Ġcl othes
738 1
947 6
869 5
950 4
ik u
me ga
me ghan
977 6
Ġnew ly
867 1
pos als
way ne
ev idence
li est
read ers
sw iss
dr one
jo int
west moreland
ope z
Ġsm ooth
umber land
aren cy
Ġpublic ly
Ġfound ation
Ġbre aking
fall ing
Ġrest aurants
ĠMin nesota
don caster
Ġext ension
Ġdet ail
ups et
Ġstrong ly
yan kees
ker ry
iet nam
Ġca uses
mob il
Ġins ider
Ġrepresent ed
sil ence
Ind ia
pc world
stab bed
Ġrepl aced
custom er
tit an
Pl us
Ġprem ium
Ġfeat uring
Ġregul ations
clin ton
Ġtit les
Ġpregn ancy
Ġhistor ical
queer ty
ĠHot el
usal em
Ġrepeated ly
yout ube
syd ney
1 1061
6 469
6 480
7 124
7 127
7 136
7 132
7 190
7 560
7 466
8 103
8 130
8 122
8 153
8 366
8 389
8 471
9 130
9 153
9 196
9 247
9 290
9 367
9 356
9 590
9 790
9 332
9 444
B R
C ard
D un
F T
F ans
F amily
G erman
H ope
L ocal
M a
M en
W ood
W omen
d read
d allas
d airy
e h
e ach
f aced
f lying
h anna
k it
n av
o ons
p n
p ric
p ink
p ump
r ust
t act
t win
t argets
u w
v it
10 101
10 133
10 182
10 468
10 395
10 807
10 804
10 003
12 176
12 665
14 699
14 552
14 964
11 133
11 357
11 782
11 987
11 692
11 862
20 383
20 773
13 180
13 377
13 262
13 478
13 365
13 501
13 442
13 594
13 552
13 906
13 641
23 223
23 235
15 708
15 784
15 887
15 894
16 162
16 602
17 129
17 257
17 475
17 472
17 873
18 290
18 390
18 507
18 071
an u
25 136
25 782
25 808
25 996
28 489
28 403
re pe
30 585
35 697
34 360
34 091
38 155
38 386
22 166
58 12
59 96
59 71
66 87
79 81
70 86
70 08
70 06
69 45
69 67
60 89
60 41
60 414
68 08
33 336
90 44
90 74
90 94
90 93
88 84
88 03
88 71
ic ut
Ġs or
77 29
77 64
98 12
98 47
98 77
55 11
67 79
80 66
80 150
99 63
99 61
ne th
Ġf ake
Ġb ow
Ġb att
Ġb omb
54 39
89 48
89 70
89 88
89 98
89 55
89 67
89 43
103 12
Ġp unch
Ġp rize
105 30
106 33
106 32
86 15
86 54
87 10
87 11
87 47
96 24
97 23
97 17
97 58
97 68
97 43
97 357
Ġm outh
75 35
75 57
65 14
65 38
ay ette
ig ua
74 30
74 37
74 59
74 56
un it
ac qu
84 17
84 26
94 39
im bled
110 08
112 35
112 66
83 14
107 69
107 44
73 20
108 54
109 11
109 17
109 19
109 90
114 08
114 04
114 93
Ġre pair
Ġre jected
93 17
93 391
Ġl it
82 12
82 23
ul s
ort on
the west
ter min
119 58
120 77
120 44
116 26
116 47
118 38
uk i
124 46
129 59
128 68
125 33
127 11
127 47
ap le
sh ots
140 89
139 12
138 20
138 48
ld ogs
149 29
135 36
133 16
pl ate
ust er
144 39
157 20
220 21
155 10
217 40
100 26
100 40
219 31
219 64
223 55
ĠR em
178 12
169 20
169 66
Ġr id
170 45
177 35
fe es
fe ats
con nection
185 28
ĠH istory
ĠH enry
Ġpro ven
Ġpro ced
187 33
336 66
198 76
ĠW y
195 49
195 59
206 58
213 14
213 47
238 48
183 29
205 19
212 98
ob ject
250 26
300 10
287 54
359 43
324 33
Th omas
323 88
Ġne ck
320 55
315 18
349 32
Ġun less
550 7
ty pe
406 18
389 26
489 39
311 38
fl ow
769 0
Ġcomp on
768 6
766 4
746 4
ath letic
748 3
960 2
835 2
Ġcl ar
866 7
612 19
678 5
898 4
912 07
878 1
coun ted
988 5
ier ra
can ad
767 1
app en
fin ish
war a
war n
Ġam bul
part ies
head ing
lear ned
Ġsign ing
today s
vict or
ĠHe art
pay ing
Ġoper ate
dec ades
Ġhand ed
clos er
Ġclos ure
cost a
sus pended
ateg or
tim eline
Ġtest ed
social ist
hur st
haw ai
bec ca
mill er
Ġdam aged
Ġhon our
Ġprov inc
jun gle
ho enix
Ap p
decl ares
Ġgr ass
Ġprotest s
sud bury
Ġill ness
ĠII I
loom s
ĠRob inson
pakistan today
mist akes
hart lepool
Israel i
aware ness
ĠBra zil
salisbury post
Ġprim arily
Ġapol og
lima ohio
diff ic
6 231
7 107
7 122
7 170
7 279
7 297
7 454
8 143
8 390
8 780
8 555
9 167
9 198
9 307
9 348
9 362
9 443
9 762
? "
A v
D F
F ederal
H C
H L
H a
L os
P an
P et
P ay
S er
S ometimes
V is
b ands
c ies
c lyde
d j
d ining
j m
j ew
l ion
m ps
n at
s ized
u fc
v at
w il
Ġ 54
Ġ arts
10 149
10 209
10 161
10 239
10 268
10 248
10 245
10 306
10 378
10 349
10 480
10 363
10 471
10 596
10 676
10 402
10 776
10 665
10 783
10 802
10 953
10 052
10 081
12 112
12 354
12 496
12 686
12 808
12 064
14 134
14 176
14 251
14 505
11 188
11 165
11 306
11 554
11 704
11 808
20 101
20 128
20 580
20 272
13 144
13 208
13 490
13 880
13 483
13 806
23 387
23 389
23 481
23 964
15 112
15 190
15 183
15 242
15 799
15 567
15 787
15 773
15 872
15 981
16 347
16 803
16 081
in ubu
17 108
17 121
17 164
17 176
17 660
17 875
18 215
18 370
18 233
19 604
th inking
er ts
24 667
25 662
26 392
27 133
27 553
28 700
re ts
30 347
37 155
38 180
40 991
22 110
22 295
59 98
59 99
59 93
59 82
21 148
66 20
78 50
78 33
78 65
78 84
79 11
79 33
79 89
79 85
79 72
70 26
70 39
69 34
68 02
33 112
90 89
90 76
90 87
90 75
88 85
77 32
77 72
77 316
le af
44 261
98 11
98 32
98 95
and le
80 15
80 43
80 75
80 05
99 48
99 59
il st
as ant
Ġh yd
104 16
54 36
76 58
105 38
105 40
105 33
106 11
Ġin dex
86 12
86 36
87 24
87 42
96 34
96 38
96 58
96 21
am o
97 45
97 32
Ġm ir
75 36
Ġd ivid
65 37
ad ministration
ol o
ol ive
74 11
74 19
ac ht
84 31
94 17
110 21
110 31
110 04
53 292
107 20
107 54
he arts
73 19
108 47
108 58
109 38
114 18
93 29
ĠS pr
ĠC ivil
em irates
115 23
115 40
Ġst uck
Ġst ability
120 47
117 40
124 12
up grade
130 68
128 58
128 90
126 24
126 56
ĠA M
125 15
125 32
139 14
137 15
ĠI r
149 28
ĠP ass
134 25
146 59
160 70
159 54
158 28
155 14
155 37
156 18
153 34
100 85
ĠT ro
219 66
227 14
ĠD er
ĠD rive
223 49
178 56
169 49
167 27
167 38
167 42
165 11
165 31
cl ude
ĠF ree
187 67
336 87
336 04
173 11
163 11
197 33
ĠW ind
av in
196 39
335 23
215 89
215 97
194 49
238 30
327 58
205 18
pro tection
337 35
249 40
248 47
257 58
ĠJ oseph
300 38
358 59
244 16
297 42
per ry
269 24
ach ing
ach ronicle
370 13
318 94
288 12
276 33
367 60
313 38
cre ating
ang s
bl ues
747 5
770 3
969 2
969 74
Ġ20 07
778 7
760 7
779 6
748 4
960 9
649 3
979 3
979 7
868 3
tain s
834 2
937 3
mail community
898 6
898 7
Ġag ents
eek ly
950 5
atch ewan
Ġover night
ep isodes
977 7
ret ire
Ġdis aster
vis ions
vent ures
trans formation
li qu
Ġdec or
Ġdec ent
olog ists
ather ine
ger many
Ġear n
Ġbl ocked
lo e
lif ted
Ġsc enes
dem ands
bed room
Ġdel ighted
long er
tren d
rup ted
pass ed
Ġorgan isation
chronicle journal
Ġequ ities
Ġacc eler
Ġeng age
wal mart
sch olar
bec ame
Ġrecogn ize
hun ting
Ġnecess arily
rac ism
Every one
Ġgen u
ĠReg ional
jon athan
wr ite
thr iller
Ġemp ower
guyan achronicle
Ins ide
Ġmanufact uring
chin as
clar ion
Ġadvert ising
ĠEv ans
Ġrough ly
Ġwid ely
ĠSud an
preced ented
nair a
stokes entinel
2 1053
6 180
6 359
6 487
7 133
7 166
7 238
7 181
7 290
7 285
7 357
7 488
7 243
7 453
7 441
8 101
8 109
8 155
8 189
8 245
8 278
8 233
8 469
8 221
8 302
9 107
9 178
9 190
9 185
9 209
9 268
9 287
9 233
B as
D ev
E P
H y
H amas
M M
N N
P ower
a an
b irds
e en
g ain
g ather
h bo
k itch
m our
n ag
p articip
s ends
u ating
10 102
10 111
10 118
10 148
10 185
10 244
10 386
10 467
10 700
10 486
10 554
10 565
10 684
10 701
10 894
10 841
10 093
10 083
12 133
12 476
12 604
12 872
12 094
14 268
14 578
14 497
14 791
11 137
11 153
11 584
11 791
11 897
20 598
13 145
13 185
13 396
13 294
13 709
13 872
23 590
23 501
15 110
15 275
15 409
15 771
15 751
15 081
16 117
16 268
16 554
16 704
in ction
17 263
17 385
17 886
17 872
18 176
18 674
18 896
19 690
19 980
19 554
24 500
25 152
25 260
25 249
25 386
25 983
26 169
26 480
27 175
28 123
28 436
28 706
30 510
35 127
35 707
35 685
34 295
at ra
at ility
57 96
al bert
46 690
47 482
58 19
59 670
es co
66 28
66 48
66 71
78 35
78 57
78 77
78 07
78 52
78 93
78 204
79 19
79 43
79 41
79 136
70 63
70 93
69 20
69 87
60 13
68 42
68 83
68 73
33 130
90 29
90 71
88 18
88 38
88 88
88 65
Ġt act
77 28
le p
98 37
98 79
98 90
and over
67 27
80 13
80 62
99 57
99 46
99 69
99 99
102 25
Ġb or
89 40
89 90
89 44
76 36
76 48
105 15
Ġin deed
86 21
87 28
87 35
97 15
97 47
97 53
el ong
75 39
75 50
ay an
ad ows
ol an
74 15
74 31
84 49
94 48
news day
112 42
112 09
107 66
52 195
ir ts
114 34
114 59
114 95
114 05
93 19
72 14
72 24
Ġe ighth
ĠS co
the will
ter ed
120 23
120 28
117 58
118 27
118 33
sp arks
124 27
oc cup
130 70
128 20
126 22
126 42
125 21
123 12
127 10
127 30
Ġwith draw
140 24
ĠB y
ĠB eng
150 96
149 25
ĠP S
148 67
148 76
133 14
146 47
146 33
144 38
154 28
ost alg
153 35
100 11
100 20
219 84
218 53
ud y
ĠD ub
223 26
223 28
ĠR adio
226 24
tr ansp
179 26
179 38
te in
178 36
190 25
ĠF il
ĠH an
166 31
189 29
der abad
173 34
pe pper
199 69
184 16
184 36
184 59
av ed
195 56
209 10
209 77
325 25
213 19
213 37
213 98
215 18
238 22
med icine
pro vide
207 46
270 67
236 10
236 27
ĠJ un
298 32
1490 4
234 13
234 36
275 48
359 17
318 04
Ġne ither
296 14
296 38
315 67
540 2
Ġab s
ren ds
467 10
659 3
548 8
537 5
547 37
Ġk eeps
413 92
Ġ20 25
ĠO b
760 4
ond o
766 3
766 5
960 1
oy a
649 29
gr ass
860 5
978 3
648 5
840 28
979 2
835 1
835 5
511 17
866 1
836 4
957 7
937 1
678 3
678 6
890 2
890 3
878 5
857 7
940 2
940 4
Ġper formances
950 3
ĠSt ory
899 1
848 5
col og
Ġpr int
Ġcont rast
vis ed
Ch elsea
part ial
ounc es
ounc ing
Ġ19 90
atur ally
bur ning
Ġgu est
Ġgu arant
duc es
dev ices
rop ical
ĠIs lands
rat ors
sign ing
mur ders
gle aner
ĠZ ealand
tor n
sub sid
fund ed
ĠSp anish
sing h
Ġhouse holds
Ġmet al
sand ers
Ġide al
foot age
Ġreve als
wild fires
pri ze
liverpool world
secre ts
sil icon
tin y
Ġrout ine
Ġfair ly
Ġmaintain ing
ĠPhil ippines
cel ona
discuss es
ĠMus lim
ĠMarket Beat
sever al
Ġeffic iency
coup les
Ġcomed y
chart attack
Ġreb ounds
Ġdeput y
oca ust
thero ar
ĠOnt ario
imbled on
thewill news
! "
6 298
6 272
7 359
7 349
7 568
7 579
7 251
7 272
7 292
8 116
8 133
8 145
8 197
8 182
8 307
8 400
8 377
8 388
8 356
8 580
8 231
8 499
8 263
8 478
8 566
8 272
8 689
8 293
8 455
9 146
9 399
9 408
9 272
9 543
B est
G oogle
H el
L P
P remier
S ix
U s
W ashington
f urther
f irms
f ranchise
g ul
h et
j ennifer
l c
p i
p arenting
s ure
s ue
s aints
t ure
t ub
10 121
10 360
10 222
10 272
10 261
10 331
10 364
10 381
10 476
10 371
10 699
10 552
10 604
10 671
10 808
10 983
10 974
10 094
12 160
12 159
12 153
12 407
12 385
12 344
12 571
12 705
12 806
12 995
14 262
14 455
14 662
11 134
11 166
11 980
11 303
11 585
11 652
11 904
20 218
20 188
20 245
20 358
13 126
13 146
13 157
13 368
13 372
13 652
23 135
23 336
23 163
15 366
15 304
15 364
15 443
15 752
16 144
16 131
16 379
16 578
16 653
17 144
17 247
17 477
17 772
18 144
18 792
19 269
19 344
19 505
19 797
25 147
25 332
25 302
25 374
26 378
26 583
28 260
29 182
29 373
re cipe
30 541
30 873
36 543
37 809
38 861
39 333
st ones
st appen
57 782
40 377
22 254
48 672
47 193
47 296
58 78
58 09
58 141
59 162
21 145
66 40
78 34
78 60
78 54
78 01
78 62
78 91
79 10
79 26
79 73
70 97
69 13
33 356
90 70
90 33
90 99
90 91
90 963
88 74
88 82
com er
le a
le isure
98 56
98 68
80 12
80 14
80 86
80 07
99 68
as gow
Ġf ab
104 48
89 25
76 50
103 20
Ġp overty
105 46
ent ic
106 35
Ġin f
Ġin struct
Ġin noc
96 20
96 46
96 42
96 308
97 18
97 55
Ġm al
85 47
85 21
95 11
95 59
95 50
95 118
74 27
74 29
64 11
ac ad
94 18
ut iny
110 84
110 71
53 255
112 00
all hiphop
83 16
107 46
114 75
Ġre form
Ġre ference
93 12
93 21
82 25
om y
us k
Ġe ase
ill inois
ra it
ĠC ore
ak y
ak in
119 39
115 15
Ġis ol
116 58
117 54
124 16
130 46
128 36
128 50
128 99
125 20
ess ide
127 49
122 16
139 59
139 78
136 59
ĠB JP
137 17
137 43
135 26
145 57
157 59
ge org
180 40
216 33
216 08
153 11
153 13
100 19
100 32
219 34
226 22
226 70
225 17
168 16
200 34
200 49
169 33
167 49
188 98
164 15
con victed
ĠH art
ĠL as
ĠL ev
189 12
176 50
174 12
174 57
214 81
240 28
197 26
195 57
328 44
209 67
194 35
238 50
205 10
326 39
249 18
270 45
278 78
1490 6
234 20
234 45
358 48
244 26
244 31
269 21
299 68
299 98
267 15
324 58
306 20
317 71
307 46
285 56
420 54
377 36
659 5
638 7
530 42
520 77
fl ights
576 40
968 7
647 1
az er
656 1
758 5
636 3
arg ent
740 5
834 3
ĠCh ildren
898 2
646 2
946 1
878 7
935 13
837 2
int el
849 2
857 1
ital y
926 86
867 4
867 5
322 25
ev al
ual ity
Ġmin i
bur gl
eg g
Ġsc en
dem ol
Sh ares
An n
Ġcol lected
ones ia
ĠAl abama
bel ieve
On ly
ĠInd igenous
Ġprom ises
mem ories
che ap
pass engers
Ġlist ening
Ġhouse hold
Com p
Ġseven th
Ġcoll ision
Ġstay ing
Ġexperi encing
lanc aster
Ġvers us
brand on
Ġhor se
traffic king
Ġflow ers
prep are
Ġcy cl
cra ig
suspect s
rupt cy
champion ships
Ġtransport ation
Ġlov es
Ġtemper ature
intend ent
Ġanticip ate
viol ent
Ġpregn ant
councill or
Ġath letes
patriot post
GBT Q
ophom ore
7 206
7 308
7 399
7 499
7 387
7 271
7 389
7 291
7 293
7 553
8 127
8 139
8 290
8 202
8 222
9 106
9 171
9 278
9 360
9 267
9 349
9 386
9 201
9 254
9 398
9 469
9 480
9 281
9 384
9 542
C ost
D et
E U
G H
H A
H ard
K evin
N ick
O C
T aylor
W ork
a ide
a ism
b oulder
c ad
f ee
f bi
h annah
j ump
s ar
s of
t ory
t aste
w ab
w ib
z ed
10 117
10 189
10 508
10 495
10 481
10 591
10 989
10 662
10 001
12 306
12 475
12 608
12 908
12 684
12 861
14 504
14 981
14 082
14 009
11 108
11 120
11 186
11 577
11 775
11 986
11 982
20 256
20 501
20 888
13 158
13 153
13 174
13 239
13 306
13 676
13 705
13 874
13 971
23 247
23 496
23 502
23 763
23 063
15 198
15 239
15 300
15 276
15 264
15 471
15 501
15 697
16 107
16 460
16 597
16 555
in dependence
17 336
17 214
17 300
17 594
17 908
17 783
18 148
18 168
18 307
18 253
18 605
19 226
19 328
19 340
19 563
19 591
24 120
25 116
25 143
25 364
27 971
28 588
28 798
29 965
on ian
35 676
35 989
36 299
34 459
37 902
38 103
38 245
38 287
39 405
st uff
or neys
57 10
40 471
22 210
22 291
48 215
58 91
58 266
59 725
59 708
ed en
66 83
78 08
79 84
79 94
79 52
69 74
69 04
60 02
68 15
68 24
33 327
33 262
it em
90 83
Ġs occer
Ġs essions
77 35
77 58
98 46
98 22
80 60
80 08
99 98
Ġf ears
Ġb at
89 194
76 46
Ġp ension
105 32
106 57
106 49
106 58
106 51
86 14
86 24
86 78
87 26
87 37
87 39
87 45
87 51
96 56
97 70
97 31
65 21
85 13
Ġc ry
Ġc raft
95 20
95 38
ol u
74 58
64 19
64 40
64 46
94 19
94 37
94 40
110 38
110 56
112 23
112 49
83 35
107 14
he ar
73 38
73 123
63 24
108 77
108 42
109 59
109 60
109 76
114 27
114 47
93 20
Ġl unch
Ġl ucky
Ġbe er
Ġfor th
Ġfor ms
113 12
115 17
115 38
115 46
115 32
120 54
116 28
117 23
117 45
118 15
ab i
124 10
124 24
129 56
129 79
ĠM ir
123 10
123 11
127 15
127 38
sh o
122 29
ere k
140 25
140 78
140 67
139 57
end ors
136 23
ĠB i
ĠB ond
150 17
150 77
137 26
149 23
147 10
134 32
148 15
132 14
146 15
146 49
160 56
160 87
Ġco ok
Ġco oking
154 47
220 84
Ġcon cept
216 86
153 37
100 35
229 38
228 33
219 18
224 87
ĠR ivers
226 90
179 35
178 34
190 45
man uel
ĠG ov
ĠG OP
187 32
199 19
184 11
184 13
184 21
240 19
240 48
ber wick
208 40
208 98
208 76
ĠW atch
195 13
260 45
213 60
213 92
215 92
br ady
326 34
204 46
210 84
258 59
248 13
248 36
339 21
259 33
279 57
od ge
298 68
266 11
358 32
299 45
211 51
275 39
275 46
457 68
324 03
549 7
319 41
ays ia
349 28
538 54
530 50
423 51
529 97
413 70
759 3
Ġ20 10
768 1
514 50
778 9
640 4
630 43
746 1
ath ed
Ġac ademic
616 33
650 6
net anyahu
445 21
868 2
737 4
Ġcl ash
Ġcl othing
838 2
957 4
678 1
646 57
bu hari
869 2
858 5
929 37
national observer
567 45
918 91
red it
Ġro ster
867 33
322 14
vis a
ban bury
Ġwork er
rid ges
Ch ar
mar athon
ey er
ple a
bro s
dr g
Ġind icated
serv ing
Ġcur rency
Sh are
central western
ett ers
uel a
Re al
ĠSp ecial
Ġmain ly
dog an
sing apore
ott awa
ete cho
incre asing
Ġlow est
kn ock
Ġeng agement
Ġresult ed
pan thers
hur ricane
wild life
bell an
clud es
wind ow
brit ain
niger ias
Ġstep ped
move ment
Ġhol idays
rif ied
alex ander
decl ine
Ġtouch down
ĠChief s
bot tom
Ġgr ade
Ġcomb ination
Ġcivil ians
strug gles
Ġtren ds
Ġviol ent
ĠMur phy
Ġpet ition
Ġemp ty
Ġconsist ently
Ġcomplain t
Cont ent
cow boys
comfort able
affect ed
shropshire star
Ġmort gage
Ġreli able
Ġroy al
Ġorganis ations
dors etecho
centralwestern daily
1 1043
2 1043
2 1091
6 147
6 203
7 114
7 244
7 490
7 498
8 183
8 287
8 275
8 301
9 182
9 309
9 598
9 900
9 451
A h
C T
C arl
F ree
H all
L o
L ittle
R en
S us
S ydney
T ake
a ults
b aker
c av
c anyon
g em
h ing
h ed
j amie
l ists
l uke
n xt
p d
p une
p izza
s v
s we
s erve
t am
w rap
y u
z h
z es
10 130
10 275
10 347
10 589
10 273
10 452
10 502
10 667
10 575
10 551
10 886
10 965
12 247
12 272
12 364
12 383
12 462
12 601
12 891
12 892
12 864
12 862
14 218
14 178
14 469
14 702
14 601
14 953
14 941
11 119
11 146
11 144
11 155
11 181
11 798
11 341
11 601
11 996
20 127
20 229
20 320
20 462
20 581
20 493
20 777
13 112
13 179
13 589
13 503
13 495
13 751
13 952
13 981
23 217
23 212
23 367
23 464
15 254
15 908
15 665
15 791
16 119
16 151
16 275
16 498
16 442
17 110
17 143
17 287
17 394
17 807
17 801
18 105
18 132
18 187
18 175
18 214
18 508
18 577
18 072
19 223
19 375
19 565
19 667
19 493
24 369
24 660
24 332
25 460
25 294
25 003
26 271
26 093
27 570
27 581
28 245
28 191
28 896
29 385
29 506
30 417
35 181
35 497
35 907
35 881
35 895
36 292
36 083
34 255
37 251
38 323
38 487
38 418
38 774
at oes
57 11
57 383
al b
46 600
46 799
22 175
22 257
22 289
59 12
59 43
50 382
ed wards
66 70
Ġthe ft
78 59
78 03
78 205
79 86
79 42
79 91
70 04
70 133
70 330
70 560
69 86
69 43
60 300
68 16
90 79
90 69
90 45
90 98
90 67
90 04
90 51
88 14
88 17
88 27
88 75
88 062
Ġw ore
is ons
44 241
98 25
98 28
98 04
55 478
67 43
67 490
67 628
80 81
99 32
32 147
32 271
Ġf led
Ġf lying
104 39
104 32
54 14
89 12
89 58
89 66
76 38
103 14
ch op
105 17
105 47
106 46
87 23
87 32
87 43
96 441
96 593
97 21
42 166
Ġc ameras
95 37
95 21
un ting
ac quisition
ur gent
94 22
94 256
ut ures
110 74
112 26
112 51
107 70
52 190
108 12
108 11
109 37
109 66
114 49
114 52
Ġl aid
Ġl atter
72 11
92 16
to ol
ra ps
113 16
the week
120 17
120 25
120 31
120 97
116 78
117 15
118 36
124 11
124 59
124 33
ĠM ail
130 28
128 11
128 70
126 23
126 47
125 34
125 48
qu otes
ast ro
140 48
ĠB ow
ĠB TC
ard ian
150 88
150 86
137 22
rom antic
149 20
149 66
147 20
147 58
133 15
pl ing
157 35
Ġco py
158 17
217 44
ex ercise
180 68
Ġsh arp
216 25
216 98
100 60
100 68
ĠD own
226 11
226 27
225 95
167 35
188 29
190 39
190 66
177 10
177 17
177 57
164 18
ĠH ard
ĠH ouston
ĠL uke
ĠL agos
336 63
Ġex ec
175 15
163 10
240 14
208 26
328 84
238 42
230 35
327 04
205 46
239 70
337 03
237 47
249 46
210 11
210 04
258 10
259 13
259 78
236 23
380 58
ĠE ver
ĠE astern
298 69
359 24
288 76
439 95
368 69
317 74
296 79
369 25
369 45
285 13
357 44
pr ises
390 67
399 10
659 54
424 50
397 70
430 43
anc ies
499 69
556 27
bl er
423 66
423 70
670 5
747 4
639 94
969 1
Ġcomp uter
768 8
768 18
734 1
749 43
779 88
766 9
746 3
Ġher oes
nd rome
978 74
650 3
800 76
756 4
738 4
626 19
898 1
959 6
890 1
890 4
890 8
859 1
846 2
846 02
545 12
940 5
850 4
af ro
949 4
967 1
877 7
ug gling
rain ing
Ġcoun ts
Ġsec ured
Ch icago
cap itol
654 31
Ġcons ervative
843 14
Ġbel oved
Ġfollow ers
test ing
del ivery
Ġexpect s
put ation
watch ing
Ġter min
ico le
sen iors
Ġdem ands
ĠCo le
nov el
ben ch
Ġfac ilit
Ġext ent
spe ction
ĠAn n
advis or
hit ting
Ġclaim ing
inj ection
rang er
tw inc
ograph er
Ġspecial ist
ĠCor poration
Man chester
mot oring
Ġins isted
teen age
appro ved
voice of
Ġsaf ely
grad uate
Ġprotect ing
Ġlower ed
etro it
strate gic
Ġsett led
activ ists
thel aw
thet ic
oxford mail
ĠDef ense
above thelaw
Ġconvers ations
sb nation
Ġremark able
Ġcra zy
wib x
drg news
bellan aija
1 1062
2 1073
6 133
7 101
7 113
7 158
7 174
7 270
7 467
7 348
7 333
8 105
8 138
8 158
8 239
8 234
8 350
8 578
8 232
8 765
9 149
9 176
9 199
9 257
9 279
9 255
9 269
9 274
9 498
9 251
9 341
B E
B rit
B rown
D ar
S k
Y oung
b ts
f j
f ij
g rown
j as
k om
m org
m iles
p overty
r uling
t agon
v as
w yn
Ġ 55
Ġ 85
10 134
10 154
10 131
10 180
10 507
10 251
10 501
10 505
10 485
10 704
10 784
10 771
10 904
10 892
10 041
12 149
12 180
12 205
12 409
12 221
12 253
12 880
12 597
12 353
14 260
14 346
14 676
14 583
14 707
14 794
14 874
14 053
11 124
11 129
11 197
11 191
11 342
11 506
11 575
11 595
11 606
11 865
20 388
20 351
20 585
20 668
13 119
13 169
13 206
13 162
13 289
13 366
13 498
13 576
13 343
13 471
13 502
13 753
13 882
13 861
23 103
23 204
23 296
23 316
23 333
23 355
23 666
23 765
23 674
23 693
15 881
16 110
16 115
16 133
16 501
16 809
16 674
16 802
16 992
16 052
in depth
17 187
17 454
18 151
18 500
18 387
18 576
18 385
19 247
19 397
19 468
19 674
19 791
19 691
19 806
19 885
24 151
24 267
24 349
24 386
an mar
25 106
25 158
25 309
26 134
26 390
26 305
26 465
26 674
27 449
29 122
29 347
29 554
29 884
re acts
30 889
35 603
35 763
36 362
36 555
36 904
37 000
38 187
38 494
39 893
57 790
40 384
40 983
22 241
ar ation
49 250
58 33
58 507
59 00
59 189
59 499
56 342
56 567
56 094
66 69
78 58
78 42
78 41
79 17
79 44
79 684
70 000
Ġa ver
60 901
33 342
88 30
88 595
Ġw et
Ġw age
45 227
Ġt ail
Ġs cre
Ġs cript
77 37
77 70
44 128
98 23
98 30
98 75
55 113
and om
67 51
67 381
80 26
80 537
99 33
99 90
99 659
102 11
89 50
89 63
89 293
76 16
76 462
103 36
Ġp ounds
ch amber
105 16
105 19
105 58
106 18
Ġin tense
86 32
86 42
96 25
96 55
97 24
97 52
42 109
75 354
65 279
85 37
85 32
85 352
Ġc rews
et ch
ol ks
74 16
74 32
84 22
94 15
94 16
94 47
94 58
110 32
110 73
112 11
112 91
83 27
107 50
73 23
114 67
62 232
93 18
93 206
se ct
se mi
92 11
82 28
ra h
em pl
113 15
113 17
119 21
119 66
Ġst adium
120 66
120 65
116 24
117 35
117 38
117 69
118 19
118 60
ab andoned
Ġn obody
oc ide
129 88
ĠM en
ĠM ore
126 58
ĠA ction
ĠA ustin
125 18
127 24
127 21
sh ake
Ġy es
Ġy ellow
out door
140 58
140 95
138 46
136 25
ĠB ureau
149 19
147 17
147 39
147 48
135 38
148 44
133 36
132 24
132 26
143 17
160 23
160 54
159 28
158 29
158 66
220 37
220 81
Ġcon stitu
217 49
217 81
100 34
100 45
100 75
229 49
227 96
224 90
224 84
ind ias
168 13
178 46
165 18
170 25
190 16
190 49
ĠF re
ĠF ord
man gal
185 12
185 34
185 38
ĠL ord
166 16
187 66
336 23
336 21
au ction
214 87
ip ed
208 23
ĠW ars
act ually
195 40
328 16
196 12
196 18
335 62
230 49
247 25
212 94
326 50
204 37
237 22
339 30
339 68
259 59
270 34
245 12
245 56
279 69
286 29
286 45
ass ed
266 57
308 11
255 35
255 32
269 37
211 11
450 49
359 15
440 26
434 47
265 47
265 44
317 78
369 11
285 38
500 55
435 43
pr ag
313 22
560 66
409 90
499 50
412 62
423 45
790 57
489 20
523 00
730 1
Ġoff ices
749 2
746 84
739 3
736 37
615 20
615 71
979 38
723 58
723 67
Ġcl ock
870 1
Ġme at
678 98
614 13
898 9
869 8
859 4
857 69
cr ush
816 05
off ense
879 7
850 2
848 68
677 3
ok i
919 32
877 2
483 22
977 2
Ġar c
car n
rain ians
Ġcoun sel
Ġwork force
ev a
rid es
ull ivan
tra vis
get ic
945 17
854 16
eep ing
Ġreg istration
har rogate
ought oday
Ġsur face
que bec
south wales
Ġsc ientists
del ta
di pl
aur a
then or
Ġob vious
acc uses
ĠSun ak
Ġfeel ings
hy th
ray ed
ĠCo oper
ĠMc Donald
mem or
Ġmain tenance
Ġhard er
asy lum
Ġrem ote
fact or
empt ion
hon ors
Ġemploy ee
Ġbas ically
Ġemer ging
ĠPal estinians
iber ty
bn b
Ġcontribut e
Ġinv asion
asp entimes
employ ee
hab ilit
dar lington
abet es
Ġcal m
Ġune xpected
note book
Ġvir al
Ġups et
Ġleng th
Ġdevast ating
milehigh report
blackpool gazette
Ġcha os
middles brough
grizz ly
grims by
peterbor oughtoday
southwales argus
1 1063
7 130
7 143
7 144
7 156
7 400
7 507
7 660
8 111
8 142
8 165
8 185
8 198
8 195
8 268
8 280
8 980
8 444
9 122
9 134
9 173
9 569
9 345
B re
C op
F ive
F air
H I
J en
L ife
P O
R I
S har
T O
U P
V ir
a es
b icester
c ks
f el
f ell
h l
l unch
m atter
m ode
m atters
n om
n ity
p leads
s oul
v ari
x box
Ñ Ģ
Ġ 46
10 105
10 107
10 380
10 285
10 348
10 900
10 880
10 365
10 908
10 693
10 661
10 981
10 861
10 051
12 105
12 134
12 146
12 185
12 406
12 489
12 588
12 780
12 660
12 282
12 602
12 683
14 283
14 454
14 885
14 062
14 008
11 599
11 561
11 593
11 604
11 901
11 903
20 114
20 084
20 005
13 207
13 347
13 251
13 273
13 900
13 799
13 465
13 699
13 909
13 884
13 974
23 597
23 905
23 997
23 961
15 117
15 150
15 143
15 206
15 353
15 561
15 575
15 696
15 782
16 139
16 135
16 299
16 276
16 252
16 264
16 477
16 471
16 462
16 893
17 115
17 124
17 185
17 346
17 231
17 689
17 301
17 575
17 673
17 874
18 478
18 000
18 283
18 553
18 602
18 771
19 465
19 474
19 692
th a
24 187
24 666
24 985
24 853
25 160
25 234
25 333
25 774
25 651
26 324
26 573
27 708
27 995
28 569
28 363
28 464
28 591
29 908
re in
30 128
30 218
30 302
35 369
35 441
35 667
35 864
36 667
34 951
37 423
38 122
38 211
38 762
39 690
39 472
39 676
39 064
or ie
57 92
co al
co vers
40 362
22 103
22 252
49 450
49 274
49 430
48 386
48 941
47 479
47 671
59 538
56 25
56 150
66 446
66 528
78 02
79 587
70 27
70 549
69 40
69 96
69 84
60 26
60 505
60 668
68 31
68 798
33 390
it coin
90 08
88 63
88 92
88 298
Ġw ake
77 15
77 36
77 52
77 73
77 263
77 345
le asing
98 57
55 291
55 301
55 392
80 79
99 34
99 43
il ateral
32 133
ne cho
Ġf ields
Ġh am
Ġb oot
Ġb ars
Ġb ridge
104 17
54 304
89 28
89 71
76 47
Ġp m
ent ers
106 14
106 13
106 31
Ġin vent
86 47
86 183
87 25
87 41
87 669
96 36
96 186
97 40
Ġm oon
42 105
42 150
Ġd iss
85 15
95 26
95 57
95 48
74 145
64 307
84 11
84 29
84 45
94 10
94 35
94 33
94 246
110 90
53 341
112 18
112 27
112 99
112 83
107 35
73 13
73 21
73 168
73 183
73 292
108 16
108 79
109 78
109 31
114 71
Ġre venues
93 34
93 364
92 25
to ols
ag ger
Ġg raph
ul um
ill ness
ĠC ode
113 19
113 28
113 21
116 49
116 44
116 31
117 24
129 11
129 15
ĠM ain
ĠM aster
ĠM itchell
130 15
128 19
128 57
128 78
126 11
126 35
123 25
127 39
127 56
127 78
127 33
127 42
ap l
ap art
are na
de an
140 70
139 21
138 39
136 11
136 77
136 42
ĠB ern
137 78
137 69
149 42
147 24
135 56
134 19
132 20
132 25
160 68
160 97
157 48
ml ine
159 17
ther necho
154 16
220 40
155 56
180 10
180 21
216 22
100 49
100 69
ĠT inubu
228 10
228 01
219 19
218 50
ĠR ay
ĠR oman
226 82
179 68
178 33
ke ley
165 21
170 49
177 46
164 35
185 45
186 17
ĠH is
ĠG ordon
daily liberal
336 32
184 34
Ġex clusive
175 23
214 14
214 92
208 42
196 32
334 57
213 27
213 28
215 35
215 99
194 11
194 18
238 58
238 56
247 19
239 10
270 50
270 33
236 47
235 35
235 33
246 49
380 26
380 75
287 47
ass in
358 66
aw s
per manent
269 19
299 77
370 16
447 07
438 08
368 37
549 59
307 45
315 80
400 79
400 98
357 56
420 10
ren ov
313 64
356 13
460 48
314 97
254 12
659 22
659 79
anc ers
ru de
487 16
bl u
508 19
423 38
670 4
ile t
968 0
968 9
517 68
az ers
660 17
735 2
760 3
760 86
760 92
630 04
728 52
757 1
oy le
513 10
956 46
657 3
657 62
with draw
Ġdo zens
air lines
979 42
716 31
624 54
866 9
836 18
623 26
946 45
857 4
923 15
830 26
858 1
988 9
Ġop posite
899 9
ok o
ley s
me hr
Ġte chnologies
877 4
811 14
977 4
ft ime
ĠIn t
ĠIn formation
ev ada
755 24
745 59
ste am
ple x
Ġdon ations
fire fighters
under way
Ġsm oke
del ivers
dev il
bel t
ĠMan ager
Ġfind ings
ival ley
pen heimer
Ġprom inent
sy mptoms
Ġsol ve
Ġprovid ers
ĠYork shire
ĠSte phen
bal ance
emp ire
Ġcontract s
jun ior
program me
ipp ine
Ġpain ting
En ter
Ġwind ows
ĠInvest ments
Ġinstit ution
iqu es
lag rang
cra ven
Ġthrow ing
expect ations
sustain ability
Ġpromot ing
ĠMur ray
chick en
Ġlic ence
Pat rick
Ġed ition
Ġdistribut ion
Ġve get
fig ure
Ġcas ual
sem if
Ġcontrovers ial
Ġhab it
incred ible
goth am
thenor thernecho
ÑĢ Ð
mehr news
2 1061
7 125
7 148
7 163
7 248
7 278
7 255
7 397
8 160
8 340
8 470
8 508
8 790
8 261
8 1126
9 126
9 188
9 166
9 183
9 162
9 249
9 280
9 388
9 467
9 470
9 497
9 765
K n
L iverpool
M ake
M organ
P ad
R et
R iver
S chool
T exas
W ild
a ed
d rought
f red
f ails
h arm
l ass
n avy
s ag
s ussex
t ap
u ana
w ig
x y
10 139
10 250
10 469
10 680
10 382
10 472
10 577
10 553
10 555
10 797
10 492
10 765
10 889
12 131
12 188
12 204
12 566
12 333
12 471
12 491
12 887
12 001
14 149
14 500
14 254
14 490
14 332
14 373
14 605
14 551
14 607
14 962
14 091
11 122
11 379
11 788
11 597
11 564
11 772
11 675
11 741
11 891
11 892
11 801
20 333
13 127
13 173
13 193
13 182
13 305
13 364
13 375
13 609
13 441
13 773
13 064
23 104
23 278
23 314
23 708
23 852
15 111
15 127
15 133
15 145
15 204
15 268
15 244
15 469
15 389
15 598
15 700
15 302
15 473
15 809
15 996
16 102
16 171
16 201
16 588
16 685
16 892
17 140
17 223
17 238
17 298
17 244
17 470
17 480
17 485
17 574
17 905
17 885
17 804
18 149
18 192
18 366
18 509
18 471
18 593
18 706
18 796
19 147
19 239
19 388
19 579
19 904
19 064
19 053
19 083
24 126
24 147
24 287
24 996
25 551
26 120
26 302
27 130
27 386
27 480
27 777
28 115
28 449
28 342
29 118
re place
30 181
30 480
30 664
30 982
35 798
35 797
35 795
35 652
35 901
36 409
34 103
34 783
37 296
37 482
38 340
38 355
38 486
38 004
38 053
39 270
39 414
en am
al ready
40 592
46 375
22 272
49 500
49 496
49 592
49 783
58 490
58 769
58 272
58 709
59 604
56 892
66 67
66 92
66 205
66 449
66 829
78 15
78 49
78 360
79 67
79 06
79 376
79 751
70 866
70 584
69 89
69 324
69 719
60 475
68 90
68 123
68 052
33 128
33 274
90 39
90 58
90 92
88 44
88 07
88 334
88 338
88 866
88 918
Ġw ine
45 205
45 417
Ġt ur
Ġt ag
77 12
77 45
77 31
77 43
77 71
44 119
98 50
98 99
98 96
98 291
55 207
80 48
99 17
99 723
32 107
32 116
102 20
Ġb anned
104 20
89 36
89 600
89 680
76 25
76 103
103 29
Ġp raised
106 42
Ġin cent
86 57
86 52
87 57
87 59
87 66
87 379
96 354
97 10
97 44
el ite
Ġm ine
Ġm ixed
75 113
Ġd uties
Ġc abinet
95 18
95 24
95 30
95 46
ad venture
74 112
74 485
un l
un ite
64 119
84 134
84 238
ur ry
94 57
94 141
im m
110 26
ss on
112 38
83 275
83 355
107 39
52 131
63 271
109 15
109 50
ir ls
114 60
Ġre in
Ġre cording
Ġre levant
Ġl ocked
72 190
om o
op ost
em ed
em porary
113 22
the borne
119 30
115 12
115 57
115 22
120 13
116 35
116 70
117 29
118 90
Ġn orm
124 14
124 25
oc register
129 55
129 67
up per
if i
if ier
130 36
130 37
130 65
ĠA re
127 40
de ck
122 14
ast ics
140 59
140 42
139 42
ĠB ook
137 56
149 30
149 47
147 12
147 36
147 50
ĠP re
134 48
148 18
148 35
133 11
144 34
160 28
160 67
157 46
157 68
159 32
158 68
220 31
220 01
155 20
155 22
180 19
180 58
153 39
100 29
100 59
229 79
ell ation
port ed
218 25
218 40
218 94
218 73
223 27
Ġsa ving
ind ore
ind ustries
226 75
168 31
169 78
167 24
167 30
ke el
185 18
ĠL ab
166 18
166 58
199 18
199 88
198 14
Ġex it
Ġex posure
174 45
214 39
240 18
240 47
240 69
208 13
208 33
ĠW isconsin
195 48
196 36
213 20
335 09
335 84
iz ers
215 77
194 16
194 19
194 31
238 46
230 98
183 15
183 27
ov es
205 58
212 14
212 43
204 18
337 23
237 69
210 31
258 49
245 28
245 35
257 56
ĠJ ason
235 18
380 67
278 46
ass ion
360 11
360 22
266 39
234 33
358 68
Ġde pos
290 22
277 55
211 35
370 42
446 48
267 37
447 93
449 28
324 57
324 55
318 12
317 38
316 81
285 26
378 90
312 76
366 29
366 47
366 33
367 15
367 78
540 07
377 59
356 17
460 13
659 41
397 13
429 80
670 95
509 30
411 50
759 31
770 4
730 3
514 45
514 05
589 38
735 28
640 66
640 00
746 71
739 77
656 38
613 33
860 8
956 7
445 24
880 40
740 3
740 29
870 25
ĠCh atGPT
935 3
857 2
858 7
486 42
850 5
ok u
928 22
585 33
918 06
485 21
938 57
app ears
Wh ich
809 55
Ġres c
Ġany more
Ġback ed
sc ientists
my broadband
my anmar
645 21
gy m
Ġno ise
Ġfin ance
Ġevery where
ran kings
american press
ten nessee
bro oks
Ġweek ly
843 18
you re
Ġrel igious
ersh ips
jo am
Ġmed ium
run ner
stud ios
dem ocratic
Ġcol our
Ġgot ten
ĠLe ader
sol o
sol ution
cut ting
Ġtri es
ext rem
Ġfun eral
Ġfew er
ĠPro tection
bb ie
stri p
emic als
Ġnews paper
enn ai
amb assador
fun ction
bud s
ĠTe ch
tw ins
vill ains
IN C
pers pective
prom ise
ĠSte wart
Ġbreak s
Ġpresent ation
fra id
Ġinst rum
pot ter
Ġbr illiant
ĠFor ces
strong est
Ġrepresent ative
ĠAll iance
Ġthreat ened
Ġactiv ists
Ste ve
Ġcomment ed
broad cast
tem ple
Ġansw ers
loc ations
Ġche ap
aze era
Gl obal
bust er
Ġattract ive
ĠCr ime
announce ments
wol ver
Ġlov ing
Ġsum mit
rec ipes
Ġlic ense
Ġgovern ance
Ġjournal ists
politic ians
Ġpriv acy
Ġrecommend ations
ĠVict oria
reflect s
ĠWor ks
resc ued
capolitical review
Ġdestin ation
ĠBron cos
illeg ally
kot aku
ayr shire
twinc ities
lagrang enews
theborne opost
6 237
6 406
7 380
7 370
7 378
7 350
7 254
7 407
7 385
7 541
8 200
8 167
8 186
8 255
8 306
8 367
8 488
8 407
8 568
8 700
8 479
8 680
8 551
9 108
9 129
9 127
9 180
9 172
9 266
9 202
9 346
9 231
9 489
9 454
9 541
A y
E qu
J ones
L O
M etro
O per
R ight
S N
W atch
b ren
c j
c ull
d ave
d olphins
f athers
g ie
g ave
g ement
g ulf
h ails
l b
l ithium
m ix
n ato
r in
u art
w d
w es
w aters
Ġ 64
Ġ ingredients
10 137
10 144
10 165
10 195
10 183
10 258
10 236
10 254
10 487
10 232
10 241
10 404
10 592
10 706
10 669
10 888
10 982
10 064
12 163
12 258
12 309
12 368
12 560
12 487
12 271
12 798
12 332
12 331
12 564
12 685
12 687
12 794
12 875
12 807
12 971
12 092
14 125
14 164
14 406
14 282
14 880
14 586
14 501
14 481
14 661
11 118
11 131
11 164
11 368
11 353
11 555
11 607
11 875
11 641
11 971
20 191
20 409
20 551
20 761
20 807
13 140
13 136
13 249
13 245
13 386
13 488
13 281
13 482
13 362
13 592
13 986
23 399
23 348
23 469
23 480
23 271
23 783
23 904
15 103
15 236
15 367
15 579
15 363
15 361
15 594
15 703
15 806
16 114
16 128
16 480
16 700
16 589
16 291
16 676
16 688
16 683
16 962
16 051
16 006
16 053
16 083
17 131
17 308
17 680
17 799
17 384
17 786
17 674
17 994
17 871
18 101
18 189
18 499
18 291
18 900
18 672
18 897
18 004
18 092
19 336
19 181
19 255
19 561
19 795
19 997
19 872
19 802
19 993
19 961
th ailand
24 229
24 237
24 324
24 489
24 474
24 605
24 961
an as
an aly
25 144
25 325
25 191
25 407
25 385
25 880
25 563
25 809
25 909
25 886
26 279
26 784
26 693
27 798
27 666
27 841
28 346
28 853
29 141
29 386
29 900
29 586
29 403
re cession
30 150
30 475
30 696
30 985
30 851
35 275
35 537
35 558
35 689
35 796
35 906
36 665
36 765
36 882
34 226
34 259
34 697
37 213
37 250
37 609
37 483
38 154
38 216
38 259
38 172
38 192
38 447
38 242
38 987
39 329
39 963
57 391
al ore
40 161
40 303
46 513
22 118
22 158
22 290
ar son
ar ante
49 647
49 882
48 343
47 297
47 980
47 565
47 664
47 975
47 862
47 063
58 350
59 996
50 852
56 371
es c
21 121
21 144
101 10
66 980
66 477
78 38
78 453
78 451
78 987
78 882
79 68
79 53
70 74
70 711
69 46
69 159
60 529
60 000
60 584
68 355
68 444
68 608
33 340
33 355
90 02
88 15
88 04
Ġw inds
45 210
45 469
45 376
44 583
98 13
98 17
98 44
98 67
98 193
55 176
55 255
55 450
55 404
and erson
67 448
67 324
80 10
80 47
80 104
80 387
99 30
99 58
99 64
99 53
Ġh ole
102 26
104 19
104 26
104 34
54 238
89 13
89 325
89 301
89 482
76 247
76 465
106 30
106 36
106 40
86 27
86 46
87 38
96 14
96 16
96 316
96 706
42 102
42 100
75 25
Ġd eeper
Ġd reams
65 230
65 477
85 133
85 165
Ġc row
et ty
95 15
95 36
95 33
ad age
ig ital
84 35
84 260
94 49
94 32
94 271
im pe
im ony
110 97
112 21
112 61
83 382
107 34
107 38
107 42
52 134
52 192
73 245
108 18
93 14
93 13
72 169
92 17
Ġg ear
Ġe ager
ri b
ri co
ul pt
ĠS u
um ing
ak ist
est y
119 17
119 68
120 56
116 17
116 40
116 46
117 13
118 70
118 77
118 42
uk h
sp ent
124 17
130 21
128 27
128 56
128 21
126 30
126 33
125 58
138 21
ĠB ad
ĠB uff
ĠB ears
ĠB irmingham
150 75
137 30
Ġan g
147 16
147 70
135 12
135 14
ĠP C
148 98
133 35
133 37
146 11
146 48
160 24
160 26
159 21
154 46
158 76
os i
220 24
156 19
Ġcon cent
Ġcon clusion
217 79
217 80
217 09
Ġsh ops
100 10
100 17
100 47
100 56
100 33
229 28
229 34
219 54
223 11
223 08
223 05
223 04
ĠR en
225 50
168 19
168 42
179 49
179 98
te es
169 15
188 24
165 28
170 96
190 10
177 45
con cil
185 56
186 47
ĠH amilton
176 32
336 58
au th
199 57
175 33
163 20
Ġch ampions
214 56
330 28
330 91
240 36
197 44
328 97
328 43
209 13
209 42
334 31
325 14
335 78
335 86
215 60
194 15
194 25
194 33
238 27
247 42
327 97
327 71
br ought
326 36
326 41
239 66
337 70
337 07
237 58
237 79
259 16
257 79
257 33
236 29
286 40
380 46
278 22
ĠE ric
298 57
298 22
358 79
308 77
255 31
256 50
290 67
277 79
ach er
211 15
211 62
459 88
370 40
275 15
447 65
458 81
436 43
324 62
318 89
318 86
265 15
549 03
307 32
316 46
316 08
315 64
378 29
400 95
366 16
557 51
546 03
420 11
Ġj u
Ġun likely
356 10
559 43
659 65
ang le
560 24
anc ient
530 52
429 75
469 18
418 66
406 43
417 61
419 47
415 68
408 50
528 10
489 30
311 80
769 18
769 78
968 3
517 53
Ġ20 13
ick ed
768 94
ĠK ar
640 48
Ġall ies
620 67
689 40
757 28
757 37
739 5
515 65
Ġqu ant
729 03
737 1
723 24
740 4
617 15
ins ula
866 6
957 01
625 51
958 2
958 54
959 31
878 2
869 1
856 7
990 8
Ġim migration
849 18
828 58
Ġpe ak
899 3
Ġap plied
914 06
917 97
926 81
938 97
977 1
ug ly
oh an
889 32
ox y
cour age
Ġpol ls
dis covery
645 32
cap e
644 25
944 31
elf ast
654 50
journal ist
lat in
lin ks
Ġass igned
Ġreg ime
riend s
bur st
gen ews
Ġexpect ing
Ġsub mitted
Ġlaw yers
Ġpass enger
ival ent
Ġdevelop ers
water ford
ĠInd iana
elect ed
Ġreal ized
Ġcre ation
Ġcre ates
mem ory
oper ations
Ar senal
inj uries
Ġtrad ition
ĠMr s
Ġsit uations
charg ing
support ing
ĠEx press
Ġpar ade
ograph ic
say ing
crash es
prom pt
Ġeng aging
equ ality
mot ion
je an
ĠWh at
sold ier
coach ing
Ġrepresent atives
atal ie
CA A
wind ows
sequ el
expl oring
Ġcontribut ion
ii i
fish er
rav ens
Ġproper ly
tit les
fac ility
ĠDel hi
effect ive
Ġmeaning ful
Ġpurs ue
brief ing
Ġanticip ated
ĠItal ian
Invest ors
agg ie
Ġmonitor ing
councill ors
Ġliter ally
Mem bers
Ġprepar ing
Ġprofession als
ĠEconom ic
Ġpric ing
ÑĤÐĲÐ© s
eves ham
Ġkil omet
ondu ctor
nasdaqam zn
bridg water
Ġsurviv ors
diffic ult
arante ed
7 167
7 199
7 192
7 398
7 376
8 113
8 136
8 135
8 187
8 358
8 690
8 454
8 763
9 109
9 259
9 390
9 570
9 499
9 406
9 387
9 271
9 479
9 676
B ook
B IT
E A
E M
H P
J er
N iger
S ign
S erv
b ats
c end
c ass
c ultural
d iversity
f ights
f iction
f ocused
k rist
l othian
m d
m ood
p unk
p ioneer
s aint
t ip
t ourist
v on
v oc
x ford
10 119
10 129
10 156
10 167
10 199
10 197
10 196
10 249
10 286
10 297
10 390
10 203
10 389
10 568
10 282
10 605
10 795
10 753
10 994
10 952
12 122
12 138
12 142
12 270
12 244
12 265
12 276
12 274
12 490
12 305
12 384
12 609
12 585
12 495
12 505
12 572
12 582
12 989
12 999
12 873
14 266
14 280
14 276
14 790
14 588
14 696
14 784
14 666
14 762
11 104
11 136
11 176
11 196
11 589
11 541
11 765
11 889
20 124
20 220
20 225
20 164
20 162
20 211
20 281
20 474
20 582
20 795
20 771
20 008
13 121
13 178
13 278
13 309
13 460
13 221
13 506
13 541
13 889
13 904
13 891
23 226
23 187
23 338
23 172
23 368
23 472
23 451
23 781
23 775
23 771
23 751
23 883
23 853
15 165
15 444
15 474
15 695
15 775
15 941
16 137
16 167
16 278
16 274
16 598
16 680
16 707
16 706
16 607
16 791
16 894
16 864
in ow
17 481
17 662
17 651
17 997
17 861
18 216
18 237
18 480
18 498
18 252
18 451
18 491
18 903
18 001
19 184
19 338
19 370
19 359
19 386
19 578
19 790
19 789
19 354
19 671
19 793
19 683
19 902
19 982
24 104
24 124
24 224
24 289
25 117
25 461
25 581
26 123
26 208
26 412
26 387
27 128
27 122
27 220
27 317
27 203
27 233
27 690
27 291
27 084
28 884
28 983
29 282
29 795
30 287
30 269
30 428
30 292
30 796
30 693
30 051
35 557
35 428
35 529
35 273
35 884
36 286
36 791
34 439
34 790
34 606
34 051
37 295
37 291
37 475
37 392
37 461
37 554
38 116
38 380
38 569
38 789
38 304
38 442
39 311
Ġth rown
st ands
or ous
57 177
57 407
40 261
40 799
40 852
46 420
46 516
46 393
46 542
22 157
22 205
22 253
22 284
22 292
49 546
49 252
48 874
47 448
47 595
47 883
58 314
58 347
58 410
58 626
58 701
59 195
59 194
59 305
59 983
50 887
50 805
56 598
21 146
ed ward
66 176
66 325
66 259
66 419
66 498
66 584
78 31
78 04
78 377
78 873
79 30
79 07
79 82
79 319
79 371
79 908
79 666
70 729
69 47
69 88
69 91
69 223
60 569
60 648
60 950
60 671
68 361
33 113
33 268
33 306
33 349
33 271
33 273
90 23
90 21
90 78
88 13
88 76
88 51
88 657
45 145
45 412
Ġt aste
Ġt asks
Ġs i
Ġs oul
Ġs ugar
77 260
77 265
77 284
98 34
55 224
67 246
80 46
80 31
80 97
80 798
80 615
99 70
99 175
99 403
99 661
32 103
Ġf atal
102 14
104 58
104 56
89 27
89 54
89 689
89 686
103 23
Ġp leaded
105 56
86 17
87 53
87 690
87 303
96 53
96 299
96 563
97 33
97 148
Ġm ood
42 235
42 255
75 231
Ġc up
95 12
95 17
95 35
ig oz
ol in
74 10
74 107
64 347
64 499
64 262
84 478
94 36
94 358
94 280
94 593
94 504
110 30
110 46
110 48
110 59
53 101
53 363
53 382
112 12
83 348
107 24
107 22
52 146
108 78
109 25
109 58
109 45
114 10
114 58
114 33
114 41
Ġre p
Ġre source
93 11
93 15
Ġl uxury
72 260
92 245
82 19
ĠC ru
ĠC irc
em iss
em eter
ak ar
119 50
119 98
120 87
116 39
116 48
117 37
117 67
118 11
124 13
129 78
if ting
130 75
128 49
128 60
128 98
126 37
125 27
ess ica
127 20
sh ocking
de o
de le
122 23
122 17
140 16
139 98
150 21
137 24
149 21
147 13
147 22
147 21
135 10
135 16
135 39
148 28
148 21
146 14
146 24
146 40
146 58
144 16
144 17
160 75
ure ports
159 27
ther apy
154 48
154 45
158 34
158 49
158 70
220 18
220 54
220 52
155 25
Ġcon dem
217 69
amp ire
100 95
229 29
ell on
219 21
219 68
219 96
219 08
227 85
ĠR un
179 28
179 30
te esside
169 27
188 23
188 66
165 50
170 48
190 18
ĠF orm
con n
con tribut
185 47
186 22
ĠH unt
daily leader
174 36
ber ger
197 14
197 20
197 39
ĠW WE
195 35
209 18
196 37
196 49
206 36
260 22
325 26
335 70
215 87
215 72
194 23
238 18
329 81
162 11
337 81
207 27
210 39
248 50
279 58
236 45
235 34
246 13
246 19
246 22
286 57
380 10
287 38
Ġpl ate
Ġpl astic
360 31
298 67
1490 0
308 29
aw k
297 39
280 68
255 27
255 21
Ġde feated
211 31
448 62
370 49
267 36
275 26
359 42
458 38
434 24
434 34
449 42
324 78
318 17
318 49
318 45
437 55
437 89
309 77
ref ugees
368 78
549 54
317 22
296 57
296 58
316 66
316 99
315 07
378 49
400 46
319 21
367 68
546 27
540 15
350 10
420 01
ren cies
313 43
390 27
Ġun ve
356 55
314 37
347 34
559 69
470 70
398 31
424 02
547 83
397 27
530 10
570 20
376 39
418 83
534 43
419 38
419 93
529 82
658 30
658 38
658 75
ib son
520 75
520 08
598 57
466 29
539 15
411 97
769 42
968 4
968 72
264 33
647 52
517 47
410 96
730 13
778 5
778 8
ĠK ings
640 22
750 2
526 17
679 2
656 74
978 37
956 2
956 3
956 61
445 14
524 11
729 65
840 33
ely n
870 82
738 95
826 55
829 31
Ġag es
947 3
813 36
712 26
724 29
824 28
824 61
ident ified
990 7
837 1
846 20
846 39
int age
939 3
950 6
384 33
858 74
850 3
374 22
899 7
899 24
818 34
709 15
ix on
917 98
927 32
711 69
Ġcont ext
685 33
und ers
ret urning
but ler
655 19
Ġact ively
show case
954 37
har assment
632 28
oci ated
eg a
oll ah
rel igious
celebr ations
ĠLe eds
Ġperson ally
esp n
aren ce
add iction
ifor n
roy als
Ġfun ny
bury times
comm and
Ġhand ling
Ġext ensive
ĠAn ton
US A
ĠCon nect
Ġconsider ation
Ġgener ations
jud icial
Ġball oon
Ġcelebr ating
prom ises
northern ireland
northern dailyleader
loss es
mac book
cross ing
threat ens
threat ening
Ġjud ges
Ġpopular ity
bourne mouth
gro vest
Ġteach ing
Ġdep ending
Am azon
Ġcontact ed
Ġencour aging
Ġtouch downs
Ġcross ing
ĠAdvis ory
rac ist
Ġbroad er
Ġgen re
prep ares
scot ia
stan ley
Ġfail ing
ĠBro ok
Ġrefer red
Ġded ication
dest royed
fal mouth
vinc ial
anim als
ĠKen nedy
urban milwaukee
Sim ilar
PM organ
reject s
Ġnegoti ations
ĠLouis iana
ĠCamp bell
Offic ers
phill ips
Ġoppon ents
northernireland world
7 164
7 588
7 589
8 298
8 308
8 788
8 441
9 136
9 204
9 277
9 288
9 377
9 347
A z
B on
B ob
F P
F un
H on
K at
P lease
S ad
S ub
S ocial
T ri
b ah
b ags
c umb
d at
d ish
h iring
i ot
j ohns
k new
k ov
k irk
n ob
p p
p raises
p ittsburgh
s arah
t igers
v ulner
w i
Ġ rivals
Ġ escal
10 115
10 152
10 162
10 298
10 191
10 243
10 302
10 354
10 361
10 482
10 372
10 403
10 593
10 573
10 698
10 601
10 985
10 984
10 872
10 061
12 139
12 148
12 158
12 141
12 169
12 167
12 230
12 580
12 509
12 352
12 375
12 594
12 573
12 562
12 493
12 987
12 884
12 996
12 801
14 170
14 187
14 407
14 700
14 363
14 463
14 402
14 543
14 667
14 797
14 888
14 796
14 673
14 952
11 147
11 598
11 365
11 394
11 573
11 605
11 697
11 705
11 698
11 695
11 907
11 703
11 662
11 691
11 803
11 952
20 177
20 278
20 274
20 389
20 243
20 282
20 293
20 799
20 666
20 786
20 652
20 884
20 061
20 001
13 274
13 346
13 480
13 282
13 454
13 555
13 593
13 607
13 684
13 772
13 794
13 885
23 101
23 106
23 188
23 206
23 308
23 356
23 578
23 494
23 605
23 672
15 274
15 560
15 497
15 689
15 394
15 577
15 591
15 504
15 794
15 673
15 864
16 306
16 357
16 254
16 407
16 608
16 975
in ating
17 120
17 116
17 193
17 235
17 360
17 234
17 269
17 396
17 705
17 687
17 887
17 762
18 104
18 115
18 219
18 207
18 357
18 376
18 600
18 242
18 585
18 802
18 094
19 224
19 262
19 475
19 374
19 585
19 669
19 662
19 741
19 871
24 323
24 320
24 311
24 476
24 477
24 481
24 706
25 285
25 387
25 864
26 189
26 205
26 204
26 319
26 349
26 479
27 378
27 578
27 671
27 907
27 753
28 425
28 761
28 752
28 803
29 297
29 435
29 428
29 490
29 702
29 987
29 093
30 289
30 535
30 576
35 327
35 440
35 500
35 473
35 874
35 894
35 801
36 358
36 364
36 888
36 783
36 774
36 871
36 962
34 538
34 491
37 202
37 340
37 688
38 338
38 267
38 497
38 291
38 363
38 341
38 373
39 191
39 202
39 307
39 295
57 285
57 746
57 485
40 440
40 324
40 538
40 594
40 608
46 377
46 395
22 286
22 256
22 203
49 875
49 953
49 006
48 180
48 327
48 488
48 385
48 363
48 391
48 667
47 188
47 343
58 215
58 565
59 506
50 119
50 284
50 283
56 102
56 523
56 452
56 864
21 101
101 14
66 22
66 194
66 524
78 27
78 53
78 61
78 163
79 38
79 64
79 450
70 71
70 307
70 751
69 77
69 336
69 580
69 476
69 094
Ġa spect
60 736
60 362
60 082
60 009
68 538
68 815
68 814
68 002
33 240
33 286
90 290
90 550
90 253
90 453
90 775
90 752
88 24
88 45
88 64
88 173
88 212
88 439
88 467
88 969
88 373
88 872
ic ians
45 169
45 487
Ġt ourists
is k
is co
is ive
77 103
77 115
77 142
77 417
77 416
98 21
98 54
98 09
98 345
55 133
55 258
55 469
67 67
67 199
67 589
67 331
80 457
80 583
99 16
99 62
99 930
99 774
as ide
ne ck
Ġf ossil
Ġf olks
102 16
104 10
54 205
54 275
89 73
89 287
89 445
89 486
89 592
76 34
76 37
76 200
Ġp ipeline
105 12
105 24
105 21
ro okie
106 29
106 53
106 41
Ġin novative
87 56
87 310
96 27
96 40
96 50
96 110
96 41
96 540
96 404
96 775
am ine
97 25
97 59
97 228
97 417
el derly
Ġm ilit
42 141
id y
Ġd iversity
65 211
Ġc ategories
et on
74 144
un ity
64 584
84 233
94 12
94 59
53 133
112 01
112 81
83 292
107 11
107 27
107 37
107 79
107 68
73 25
73 178
73 190
63 248
63 193
108 19
108 66
114 76
Ġre marks
93 35
Ġl ad
72 184
92 14
92 19
92 27
ag enda
ag riculture
om ed
ct mirror
51 101
ĠC all
um m
115 28
120 35
120 55
116 30
116 36
117 39
117 21
117 68
117 43
118 21
118 66
ab ol
ab ling
Ġn ut
124 18
124 26
124 39
oc co
129 17
ĠM eta
130 11
130 27
128 14
128 45
126 16
126 21
125 11
125 25
ess ential
123 15
123 22
127 70
ap artment
sh ar
de gree
140 85
ore t
139 37
end ra
136 70
ĠB ang
150 12
150 25
150 39
149 45
ĠP res
148 38
148 32
133 21
146 27
146 57
159 15
154 57
158 60
220 88
220 94
100 43
100 74
229 77
219 76
227 29
227 51
224 70
218 42
226 15
tr ouble
200 56
200 69
200 74
179 78
178 14
170 39
164 34
ĠF BI
166 27
166 79
166 70
ĠG rant
187 39
187 55
336 78
336 03
173 13
199 11
199 26
199 31
199 42
198 48
198 47
198 99
Ġex hibition
Ġch em
330 31
330 61
240 35
197 23
av o
195 44
328 33
334 75
334 41
206 54
325 63
213 21
335 98
335 73
335 91
215 44
238 10
238 40
230 17
230 57
247 27
327 66
212 22
212 97
212 85
326 46
326 83
239 58
239 69
239 42
237 70
249 19
250 96
268 26
268 48
268 21
210 17
258 67
248 16
339 48
259 34
259 68
279 40
279 60
236 56
300 15
246 23
246 25
278 32
ĠE gypt
360 49
298 47
358 50
255 34
290 59
277 70
456 98
456 65
299 29
299 38
299 54
211 16
211 98
459 80
446 01
267 68
457 12
457 76
436 05
449 89
437 19
437 60
437 97
368 49
276 31
340 15
340 65
320 09
549 07
549 53
378 30
312 42
435 21
435 60
400 67
319 19
319 46
540 91
420 08
313 61
460 44
426 23
426 33
559 19
254 29
ang o
Ġse ctors
537 98
430 46
233 11
530 72
409 40
499 12
412 51
556 43
387 30
970 12
419 00
790 88
408 58
488 16
413 25
600 15
516 01
966 1
966 72
966 81
518 12
968 5
968 14
Ġcomp ensation
768 95
700 85
ĠO k
660 67
734 28
ĠK ong
749 3
779 9
510 70
739 52
748 28
960 7
960 22
960 78
513 95
513 41
616 29
616 38
656 15
758 6
758 11
615 79
615 85
613 54
860 54
650 00
956 73
956 91
840 2
840 80
979 9
624 46
789 42
view ing
725 24
511 19
625 88
834 77
738 65
738 61
713 47
626 31
958 25
ĠCh ar
ĠCh annel
727 81
898 52
912 25
912 39
912 40
712 81
627 40
869 62
856 24
990 5
849 3
Ġtr agic
823 36
544 57
Ġsp in
950 34
830 31
879 2
Ġsome where
814 73
820 44
916 30
899 5
914 93
677 13
att ention
596 11
925 24
925 80
fer red
fer mline
918 44
919 28
919 95
me at
920 03
810 88
810 87
877 3
ug ger
322 17
let ed
war riors
tra v
high land
high lands
Ġass ociation
422 28
vol ume
Ġind ustries
law yers
que z
run k
char lot
ĠDe ad
Ġdel ay
Ġfl ights
mc donalds
aur ora
sen ator
mur daugh
hot els
take over
brid ges
ĠPr incess
Ġshort age
sent ence
inj a
ups c
aud io
Ġamong st
bon us
gree ce
card inals
Ġmen u
mand a
Pr ime
major ity
Col orado
Ġsuggest ing
rail way
Ġcover ing
Ġstrug gled
ĠPat riots
Ġelse where
Ġdraw n
lam ar
Ġiniti atives
tit ans
erg uson
Ġcapt ure
Ġkick ed
Ġlov ely
Ġinstall ed
tt awa
flag ler
Ġsil ver
Ġcritic ism
Ġpriv ile
ĠSy ria
ĠLim ited
Eng land
Ġapparent ly
Ġmax imum
dim ensional
nr l
Ġcle ared
emeter y
6 1041
7 406
7 555
8 141
8 246
8 360
8 472
9 102
9 139
9 147
9 148
9 270
9 460
9 253
9 333
9 496
9 764
9 1123
B at
C elebr
E lect
J ay
J un
K in
K ar
L and
M W
R P
V I
V iew
d itch
d udley
f ried
j azeera
l is
m ak
m ere
m ich
m ck
n vidia
p up
r ous
t ier
u cla
Ġ zero
10 171
10 307
10 399
10 488
10 253
10 345
10 351
10 709
10 405
10 571
10 673
10 752
10 902
10 941
10 082
12 127
12 249
12 367
12 374
12 555
12 563
12 696
12 897
12 004
14 128
14 467
14 780
14 680
14 789
14 472
14 465
14 585
14 581
14 698
14 761
14 052
11 128
11 173
11 192
11 396
[...]
