{"<s>":0,"<pad>":1,"</s>":2,"<unk>":3,"<mask>":4,"!":5,"\"":6,"#":7,"$":8,"%":9,"&":10,"'":11,"(":12,")":13,"*":14,"+":15,",":16,"-":17,".":18,"/":19,"0":20,"1":21,"2":22,"3":23,"4":24,"5":25,"6":26,"7":27,"8":28,"9":29,":":30,";":31,"<":32,"=":33,">":34,"?":35,"@":36,"A":37,"B":38,"C":39,"D":40,"E":41,"F":42,"G":43,"H":44,"I":45,"J":46,"K":47,"L":48,"M":49,"N":50,"O":51,"P":52,"Q":53,"R":54,"S":55,"T":56,"U":57,"V":58,"W":59,"X":60,"Y":61,"Z":62,"[":63,"\\":64,"]":65,"^":66,"_":67,"`":68,"a":69,"b":70,"c":71,"d":72,"e":73,"f":74,"g":75,"h":76,"i":77,"j":78,"k":79,"l":80,"m":81,"n":82,"o":83,"p":84,"q":85,"r":86,"s":87,"t":88,"u":89,"v":90,"w":91,"x":92,"y":93,"z":94,"{":95,"|":96,"}":97,"~":98,"¡":99,"¢":100,"£":101,"¤":102,"¥":103,"¦":104,"§":105,"¨":106,"©":107,"ª":108,"«":109,"¬":110,"®":111,"¯":112,"°":113,"±":114,"²":115,"³":116,"´":117,"µ":118,"¶":119,"·":120,"¸":121,"¹":122,"º":123,"»":124,"¼":125,"½":126,"¾":127,"¿":128,"À":129,"Á":130,"Â":131,"Ã":132,"Ä":133,"Å":134,"Æ":135,"Ç":136,"È":137,"É":138,"Ê":139,"Ë":140,"Ì":141,"Í":142,"Î":143,"Ï":144,"Ð":145,"Ñ":146,"Ò":147,"Ó":148,"Ô":149,"Õ":150,"Ö":151,"×":152,"Ø":153,"Ù":154,"Ú":155,"Û":156,"Ü":157,"Ý":158,"Þ":159,"ß":160,"à":161,"á":162,"â":163,"ã":164,"ä":165,"å":166,"æ":167,"ç":168,"è":169,"é":170,"ê":171,"ë":172,"ì":173,"í":174,"î":175,"ï":176,"ð":177,"ñ":178,"ò":179,"ó":180,"ô":181,"õ":182,"ö":183,"÷":184,"ø":185,"ù":186,"ú":187,"û":188,"ü":189,"ý":190,"þ":191,"ÿ":192,"Ā":193,"ā":194,"Ă":195,"ă":196,"Ą":197,"ą":198,"Ć":199,"ć":200,"Ĉ":201,"ĉ":202,"Ċ":203,"ċ":204,"Č":205,"č":206,"Ď":207,"ď":208,"Đ":209,"đ":210,"Ē":211,"ē":212,"Ĕ":213,"ĕ":214,"Ė":215,"ė":216,"Ę":217,"ę":218,"Ě":219,"ě":220,"Ĝ":221,"ĝ":222,"Ğ":223,"ğ":224,"Ġ":225,"ġ":226,"Ģ":227,"ģ":228,"Ĥ":229,"ĥ":230,"Ħ":231,"ħ":232,"Ĩ":233,"ĩ":234,"Ī":235,"ī":236,"Ĭ":237,"ĭ":238,"Į":239,"į":240,"İ":241,"ı":242,"Ĳ":243,"ĳ":244,"Ĵ":245,"ĵ":246,"Ķ":247,"ķ":248,"ĸ":249,"Ĺ":250,"ĺ":251,"Ļ":252,"ļ":253,"Ľ":254,"ľ":255,"Ŀ":256,"ŀ":257,"Ł":258,"ł":259,"Ń":260,"10":261,"12":262,"14":263,"11":264,"20":265,"13":266,"23":267,"15":268,"16":269,"in":270,"17":271,"18":272,"19":273,"th":274,"er":275,"24":276,"an":277,"25":278,"26":279,"27":280,"28":281,"29":282,"on":283,"re":284,"30":285,"35":286,"36":287,"34":288,"37":289,"38":290,"39":291,"en":292,"Ġth":293,"st":294,"or":295,"at":296,"57":297,"al":298,"co":299,"40":300,"46":301,"22":302,"ar":303,"49":304,"48":305,"47":306,"58":307,"59":308,"50":309,"56":310,"2023":311,"es":312,"ing":313,"ht":314,"21":315,"ed":316,"101":317,"66":318,"Ġthe":319,"78":320,"79":321,"70":322,"ww":323,"69":324,"Ġa":325,"60":326,"68":327,"33":328,"it":329,"ps":330,"90":331,"88":332,"ou":333,"ic":334,"Ġw":335,"45":336,"htt":337,"//":338,"://":339,"Ġt":340,"https":341,"is":342,"Ġs":343,"com":344,"77":345,"le":346,"44":347,"98":348,"55":349,"and":350,"67":351,"80":352,"99":353,"il":354,"32":355,"of":356,"as":357,"ne":358,"Ġf":359,"Ġh":360,"31":361,"102":362,"Ġb":363,"ion":364,"104":365,"54":366,"89":367,"76":368,"103":369,"Ġp":370,"ch":371,"âĢ":372,"105":373,"ro":374,"Ġto":375,"ent":376,"106":377,"Ġin":378,"86":379,"87":380,"96":381,"www":382,"am":383,"97":384,"Ġof":385,"el":386,"43":387,"Ġm":388,"42":389,"id":390,"Ġand":391,"75":392,"Ġd":393,"65":394,"85":395,"Ġc":396,"new":397,"00":398,"et":399,"95":400,"ay":401,"ad":402,"ig":403,"ol":404,"ve":405,"08":406,"05":407,"06":408,"74":409,"un":410,"09":411,"64":412,"04":413,"ac":414,"84":415,"03":416,"ow":417,"01":418,"ur":419,"07":420,"94":421,"02":422,"im":423,"news":424,"ers":425,"ut":426,"110":427,"53":428,"ss":429,"112":430,"all":431,"83":432,"107":433,"ot":434,"52":435,"he":436,"73":437,"63":438,"108":439,"109":440,"ir":441,"ce":442,"114":443,"art":444,"Ġre":445,"62":446,"93":447,"se":448,"Ġl":449,"72":450,"41":451,"ver":452,"92":453,"82":454,"âĢĻ":455,"to":456,"ation":457,"ag":458,"Ġg":459,"om":460,"ct":461,"us":462,"Ġe":463,"51":464,"ri":465,"ul":466,"Ġon":467,"ill":468,"Ġbe":469,"our":470,"61":471,"71":472,"81":473,"ort":474,"ra":475,"91":476,"ĠS":477,"111":478,"ith":479,"op":480,"ĠC":481,"em":482,"Ġfor":483,"113":484,"um":485,"the":486,"ak":487,"ter":488,"est":489,"ly":490,"119":491,"115":492,"Ġis":493,"Ġst":494,"120":495,"116":496,"117":497,"118":498,"uk":499,"ab":500,"Ġthat":501,"Ġwh":502,"for":503,"sp":504,"ail":505,"Ġn":506,"The":507,"124":508,"oc":509,"129":510,"up":511,"ate":512,"ĠM":513,"if":514,"ant":515,"130":516,"128":517,"126":518,"ĠA":519,"oo":520,"125":521,"ess":522,"123":523,"127":524,"ity":525,"ap":526,"ment":527,"sh":528,"are":529,"de":530,"Ġy":531,"ist":532,"Ġit":533,"122":534,"ain":535,"ear":536,"out":537,"Ġwith":538,"ies":539,"ie":540,"rss":541,"qu":542,"âĢĿ":543,"iv":544,"ast":545,"ive":546,"121":547,"ere":548,"140":549,"ore":550,"139":551,"end":552,"138":553,"136":554,"ĠB":555,"ard":556,"150":557,"artic":558,"oun":559,"137":560,"rom":561,"Ġan":562,"Ġat":563,"ld":564,"ĠI":565,"149":566,"147":567,"135":568,"ĠP":569,"134":570,"148":571,"133":572,"Ġwas":573,"âĢľ":574,"132":575,"146":576,"145":577,"ack":578,"ight":579,"pl":580,"ust":581,"ia":582,"143":583,"144":584,"ee":585,"160":586,"ure":587,"157":588,"ign":589,"ec":590,"ml":591,"159":592,"ther":593,"Ġco":594,"Ġcom":595,"154":596,"158":597,"os":598,"Ġas":599,"ave":600,"ian":601,"131":602,"html":603,"ire":604,"220":605,"ost":606,"ine":607,"ice":608,"155":609,"156":610,"Ġcon":611,"ge":612,"217":613,"ex":614,"180":615,"pre":616,"Ġsh":617,"amp":618,"216":619,"153":620,"100":621,"229":622,"ĠT":623,"228":624,"ell":625,"port":626,"219":627,"227":628,"224":629,"ns":630,"Ġhe":631,"218":632,"ud":633,"ĠD":634,"utm":635,"223":636,"ĠR":637,"141":638,"Ġsa":639,"ind":640,"226":641,"king":642,"225":643,"over":644,"tr":645,"168":646,"day":647,"200":648,"179":649,"als":650,"Ġare":651,"te":652,"ans":653,"178":654,"142":655,"169":656,"article":657,"167":658,"188":659,"ke":660,"ub":661,"Ġr":662,"ph":663,"165":664,"aily":665,"151":666,"170":667,"190":668,"177":669,"164":670,"fe":671,"cl":672,"ĠF":673,"con":674,"Ġv":675,"man":676,"185":677,"186":678,"152":679,"ĠH":680,"Ġpro":681,"'s":682,"ĠL":683,"166":684,"189":685,"ĠG":686,"187":687,"176":688,"der":689,"daily":690,"336":691,"173":692,"au":693,"ĠN":694,"pe":695,"199":696,"ark":697,"one":698,"198":699,"Ġfrom":700,"184":701,"Ġsaid":702,"Ġex":703,"175":704,"Ġhave":705,"163":706,"Ġch":707,"174":708,"214":709,"330":710,"240":711,"ial":712,"ber":713,"Ġhas":714,"ip":715,"wor":716,"208":717,"197":718,"ĠW":719,"act":720,"av":721,"ide":722,"195":723,"328":724,"209":725,"196":726,"334":727,"206":728,"260":729,"325":730,"213":731,"own":732,"335":733,"iz":734,"ome":735,"215":736,"ry":737,"194":738,"old":739,"ue":740,"age":741,"238":742,"/?":743,"230":744,"Ġby":745,"be":746,"183":747,"ks":748,"ov":749,"161":750,"247":751,"329":752,"327":753,"ong":754,"162":755,"205":756,"sport":757,"212":758,"br":759,"326":760,"med":761,"204":762,"239":763,"pro":764,"337":765,"338":766,"207":767,"237":768,"249":769,"ood":770,"ory":771,"ob":772,"ish":773,"250":774,"ings":775,"268":776,"210":777,"181":778,"ts":779,"258":780,"248":781,"ary":782,"339":783,"259":784,"270":785,"ake":786,"ff":787,"245":788,"257":789,"gh":790,"ime":791,"279":792,"236":793,"ĠJ":794,"300":795,"193":796,"ally":797,"235":798,"246":799,"286":800,"Ġle":801,"380":802,"287":803,"ampa":804,"171":805,"278":806,"ĠE":807,"ens":808,"Ġwill":809,"Ġpl":810,"ampaign":811,"od":812,"172":813,"ass":814,"fter":815,"360":816,"ound":817,"298":818,"266":819,"182":820,"1490":821,"234":822,"358":823,"308":824,"191":825,"244":826,"aw":827,"297":828,"ions":829,"per":830,"280":831,"wh":832,"255":833,"Ġde":834,"256":835,"Ġwe":836,"290":837,"269":838,"277":839,"192":840,"ach":841,"456":842,"299":843,"Ġthis":844,"og":845,"211":846,"les":847,"Ġnot":848,"448":849,"ric":850,"ous":851,"459":852,"370":853,"campaign":854,"446":855,"202":856,"267":857,"275":858,"450":859,"ll":860,"447":861,"457":862,"359":863,"458":864,"436":865,"sour":866,"uc":867,"440":868,"434":869,"449":870,"324":871,"318":872,"Ġhis":873,"289":874,"306":875,"Th":876,"438":877,"323":878,"437":879,"265":880,"309":881,"ree":882,"288":883,"ace":884,"439":885,"Ġne":886,"ame":887,"ref":888,"368":889,"276":890,"340":891,"320":892,"549":893,"317":894,"Ġor":895,"296":896,"369":897,"307":898,"316":899,"315":900,"285":901,"500":902,"Ġyou":903,"378":904,"312":905,"435":906,"295":907,"400":908,"319":909,"rou":910,"366":911,"source":912,"557":913,"ich":914,"ays":915,"367":916,"546":917,"540":918,"349":919,"357":920,"386":921,"imes":922,"350":923,"Ġtheir":924,"Ġab":925,"420":926,"Ġj":927,"pr":928,"379":929,"ren":930,"377":931,"313":932,"388":933,"390":934,"ated":935,"Ġun":936,"550":937,"356":938,"460":939,"cre":940,"314":941,"Ġwor":942,"land":943,"201":944,"347":945,"ence":946,"580":947,"426":948,"559":949,"467":950,"ors":951,"mer":952,"470":953,"274":954,"399":955,"254":956,"659":957,"ash":958,"ang":959,"398":960,"538":961,"348":962,"310":963,",âĢĿ":964,"548":965,"ock":966,"536":967,"Ġse":968,"560":969,"424":970,"537":971,"ould":972,"547":973,"428":974,"490":975,"638":976,"ty":977,"203":978,"397":979,"ew":980,"ĠâĢľ":981,"430":982,"Ġk":983,"535":984,"oot":985,"233":986,"anc":987,"530":988,"346":989,"427":990,"425":991,"558":992,"570":993,"409":994,"396":995,"231":996,"ru":997,"press":998,"499":999,"429":1000,"469":1001,"ium":1002,"376":1003,"412":1004,"578":1005,"487":1006,"igh":1007,"418":1008,"556":1009,"bl":1010,"480":1011,"262":1012,"406":1013,"Ġad":1014,"387":1015,"970":1016,"Ġthey":1017,"508":1018,"534":1019,"pt":1020,"590":1021,"able":1022,"271":1023,"417":1024,"222":1025,"419":1026,"ational":1027,"423":1028,"790":1029,"529":1030,"507":1031,"658":1032,"415":1033,"ib":1034,"408":1035,"488":1036,"389":1037,"263":1038,"cor":1039,"ition":1040,"413":1041,"520":1042,"221":1043,"478":1044,"600":1045,"598":1046,"516":1047,"966":1048,"any":1049,"Ġout":1050,"pol":1051,"670":1052,"414":1053,"other":1054,"569":1055,"528":1056,"we":1057,"497":1058,"res":1059,"407":1060,"Ġwho":1061,"468":1062,"ance":1063,"489":1064,"311":1065,"ny":1066,"416":1067,"498":1068,"232":1069,"466":1070,"539":1071,"Ġup":1072,"241":1073,"509":1074,"Ġbut":1075,"ball":1076,"ven":1077,"568":1078,"fl":1079,"525":1080,"ile":1081,"747":1082,"ild":1083,"411":1084,"ult":1085,"759":1086,"588":1087,"243":1088,"ĠU":1089,"579":1090,"518":1091,"row":1092,"Ġyear":1093,"Ġcan":1094,"576":1095,"769":1096,"639":1097,"ton":1098,"523":1099,"ase":1100,"968":1101,"ite":1102,"566":1103,"252":1104,"264":1105,"ents":1106,"770":1107,"iew":1108,"512":1109,"969":1110,"629":1111,"647":1112,"780":1113,"Ġcomp":1114,"517":1115,"410":1116,"az":1117,"Ġ20":1118,"ction":1119,"ick":1120,"768":1121,"730":1122,"700":1123,"very":1124,"514":1125,"253":1126,"599":1127,"ĠO":1128,"iss":1129,"660":1130,"778":1131,"589":1132,"734":1133,"798":1134,"735":1135,"760":1136,"000":1137,"eral":1138,"479":1139,"by":1140,"Ġ$":1141,"Ġoff":1142,"irst":1143,"527":1144,"282":1145,"ĠK":1146,"749":1147,"640":1148,"Ġ(":1149,"630":1150,"Ġall":1151,"385":1152,"ond":1153,"779":1154,"750":1155,"634":1156,"po":1157,"251":1158,"526":1159,"690":1160,"637":1161,"242":1162,"ares":1163,"519":1164,"ates":1165,"766":1166,"746":1167,"788":1168,"ath":1169,"728":1170,"272":1171,"620":1172,"291":1173,"679":1174,"510":1175,"erv":1176,"689":1177,"757":1178,"739":1179,"628":1180,"Ġher":1181,"ical":1182,"273":1183,"iness":1184,"nd":1185,"980":1186,"748":1187,"ople":1188,"960":1189,"oy":1190,"513":1191,"ĠâĢ":1192,"293":1193,"649":1194,"Ġac":1195,"900":1196,"616":1197,"656":1198,"736":1199,"758":1200,"gr":1201,"615":1202,"261":1203,"613":1204,"amer":1205,"Ġbeen":1206,"chan":1207,"860":1208,"839":1209,"978":1210,"515":1211,"284":1212,"648":1213,"650":1214,"619":1215,"292":1216,"956":1217,"Ġqu":1218,"net":1219,"635":1220,"303":1221,"283":1222,"ations":1223,"445":1224,"657":1225,"281":1226,"636":1227,"680":1228,"medium":1229,"524":1230,"729":1231,"with":1232,"Ġdo":1233,"840":1234,"air":1235,"800":1236,"Ġal":1237,"ike":1238,"756":1239,"usiness":1240,"arg":1241,"979":1242,"inc":1243,"305":1244,"716":1245,"868":1246,"718":1247,"Ġwere":1248,"737":1249,"294":1250,"880":1251,"723":1252,"740":1253,"Ġhad":1254,"624":1255,"835":1256,"ely":1257,"789":1258,"view":1259,"ife":1260,"617":1261,"cho":1262,"Ġcl":1263,"725":1264,"ins":1265,"870":1266,"715":1267,"ason":1268,"ning":1269,"Ġme":1270,"511":1271,"vel":1272,"866":1273,"612":1274,"also":1275,"Ġits":1276,"332":1277,"333":1278,"799":1279,"838":1280,"301":1281,"It":1282,"836":1283,"304":1284,"957":1285,"tain":1286,"vest":1287,"625":1288,"355":1289,"Ġalso":1290,"Ġmore":1291,"834":1292,"937":1293,"cent":1294,"738":1295,"678":1296,"812":1297,"713":1298,"614":1299,"In":1300,"now":1301,"626":1302,"958":1303,"ĠCh":1304,"alth":1305,"826":1306,"714":1307,"ets":1308,"727":1309,"726":1310,"mail":1311,"365":1312,"ict":1313,"898":1314,"959":1315,"302":1316,"646":1317,"829":1318,"331":1319,"Ġag":1320,"bu":1321,"342":1322,"947":1323,"623":1324,"ade":1325,"720":1326,"890":1327,"813":1328,"912":1329,"wo":1330,"ah":1331,"345":1332,"717":1333,"363":1334,".âĢĿ":1335,"712":1336,"feed":1337,"719":1338,"Ġafter":1339,"ics":1340,"724":1341,"946":1342,"878":1343,"nel":1344,"627":1345,"343":1346,"Ġone":1347,"869":1348,"824":1349,"ident":1350,"935":1351,"coun":1352,"618":1353,"reat":1354,"856":1355,"990":1356,"859":1357,"837":1358,"846":1359,"913":1360,"int":1361,"Ġim":1362,"341":1363,"849":1364,"344":1365,"939":1366,"Ġabout":1367,"Ġtr":1368,"354":1369,"364":1370,"eek":1371,"ook":1372,"ank":1373,"545":1374,"823":1375,"857":1376,"cr":1377,"710":1378,"ds":1379,"923":1380,"383":1381,"610":1382,"544":1383,"815":1384,"Ġsp":1385,"940":1386,"Ġper":1387,"its":1388,"950":1389,"ĠSt":1390,"827":1391,"816":1392,"384":1393,"ove":1394,"830":1395,"off":1396,"ise":1397,"Ġen":1398,"858":1399,"ities":1400,"world":1401,"ca":1402,"ect":1403,"381":1404,"Ġwhich":1405,"879":1406,"Ġgo":1407,"361":1408,"825":1409,"404":1410,"486":1411,"leg":1412,"850":1413,"929":1414,"ating":1415,"988":1416,"828":1417,"476":1418,"Ġop":1419,"482":1420,"455":1421,"453":1422,"444":1423,"atch":1424,"475":1425,"Ġover":1426,"Ġsome":1427,"371":1428,"817":1429,"Ġpe":1430,"924":1431,"814":1432,"line":1433,"352":1434,"374":1435,"ting":1436,"382":1437,"472":1438,"362":1439,"820":1440,"373":1441,"year":1442,"496":1443,"395":1444,"394":1445,"916":1446,"enc":1447,"899":1448,"uring":1449,"819":1450,"375":1451,"af":1452,"Ġap":1453,"914":1454,"io":1455,"452":1456,"818":1457,"465":1458,"ital":1459,"848":1460,"351":1461,"391":1462,"477":1463,"699":1464,"597":1465,"609":1466,"392":1467,"Ġshe":1468,"ress":1469,"ose":1470,"677":1471,"att":1472,"org":1473,"454":1474,"503":1475,"national":1476,"see":1477,"709":1478,"ater":1479,"405":1480,"ier":1481,"471":1482,"low":1483,"sports":1484,"451":1485,"393":1486,"586":1487,"ootball":1488,"441":1489,"ok":1490,"928":1491,"gu":1492,"596":1493,"501":1494,"567":1495,"473":1496,"585":1497,"cess":1498,"ley":1499,"ix":1500,"917":1501,"372":1502,"403":1503,"934":1504,"676":1505,"577":1506,"ese":1507,"461":1508,"463":1509,"channel":1510,"925":1511,"506":1512,"948":1513,"443":1514,"tri":1515,"col":1516,"fer":1517,"474":1518,"gl":1519,"502":1520,"442":1521,"949":1522,"462":1523,"mon":1524,"915":1525,"926":1526,"587":1527,"can":1528,"fore":1529,"927":1530,"402":1531,"918":1532,"ik":1533,"353":1534,"919":1535,"ep":1536,"times":1537,"ubl":1538,"mun":1539,"ron":1540,"571":1541,"495":1542,"post":1543,"505":1544,"me":1545,"594":1546,"Ġso":1547,"967":1548,"Ġte":1549,"494":1550,"485":1551,"481":1552,"561":1553,"930":1554,"920":1555,"810":1556,"998":1557,"767":1558,"711":1559,"553":1560,"oth":1561,"554":1562,"Ġus":1563,"401":1564,"584":1565,"555":1566,"arch":1567,"484":1568,"543":1569,"464":1570,"He":1571,"urn":1572,"Ġwould":1573,"Ġpr":1574,"491":1575,"outh":1576,"574":1577,"877":1578,"Ġtime":1579,"ms":1580,"593":1581,"red":1582,"910":1583,"563":1584,"565":1585,"Ġpeople":1586,"667":1587,"story":1588,"573":1589,"483":1590,"938":1591,"articles":1592,"575":1593,"595":1594,"611":1595,"583":1596,"608":1597,"707":1598,"amil":1599,"708":1600,"Ġour":1601,"591":1602,"541":1603,"ink":1604,"562":1605,"Ġwhen":1606,"app":1607,"592":1608,"ito":1609,"581":1610,"572":1611,"564":1612,"ement":1613,"iel":1614,"936":1615,"We":1616,"ican":1617,"542":1618,"enter":1619,"504":1620,"847":1621,"582":1622,"493":1623,"706":1624,"illion":1625,"chool":1626,"605":1627,"811":1628,"Ġcont":1629,"ful":1630,"685":1631,"star":1632,"Ġthere":1633,"ĠV":1634,"686":1635,"ann":1636,"ral":1637,"min":1638,"uch":1639,"ys":1640,"704":1641,"overn":1642,"ments":1643,"977":1644,"Ġnew":1645,"itt":1646,"552":1647,"ious":1648,"ng":1649,"551":1650,"607":1651,"697":1652,"606":1653,"ug":1654,"ai":1655,"oh":1656,"fin":1657,"797":1658,"dailymail":1659,"Ġro":1660,"mchannel":1661,"696":1662,"492":1663,"Ġar":1664,"867":1665,"669":1666,"Ġfirst":1667,"776":1668,"ited":1669,"und":1670,"car":1671,"Ġplay":1672,"888":1673,"664":1674,"cord":1675,"Ġjust":1676,"322":1677,"pos":1678,"784":1679,"705":1680,"lect":1681,"ons":1682,"698":1683,"Ġinto":1684,"795":1685,"796":1686,"687":1687,"Wh":1688,"ret":1689,"ght":1690,"uld":1691,"ft":1692,"777":1693,"908":1694,"business":1695,"604":1696,"666":1697,"ward":1698,"oss":1699,"668":1700,"787":1701,"785":1702,"polit":1703,"Ġadd":1704,"call":1705,"way":1706,"786":1707,"ham":1708,"Ġdis":1709,"809":1710,"782":1711,"694":1712,"live":1713,"ased":1714,"Ġyour":1715,"aking":1716,"ower":1717,"alph":1718,"682":1719,"football":1720,"vis":1721,"inter":1722,"665":1723,"671":1724,"781":1725,"ues":1726,"688":1727,"765":1728,"ale":1729,"783":1730,"not":1731,"774":1732,"684":1733,"form":1734,"eng":1735,"ough":1736,"ĠIn":1737,"let":1738,"Ġthan":1739,"674":1740,"how":1741,"695":1742,"Ġpart":1743,"775":1744,"808":1745,"cot":1746,"701":1747,"693":1748,"761":1749,"vent":1750,"907":1751,"seeking":1752,"989":1753,"887":1754,"702":1755,"arter":1756,"du":1757,"Ġlike":1758,"764":1759,"703":1760,"do":1761,"791":1762,"603":1763,"rest":1764,"662":1765,"bc":1766,"rough":1767,"987":1768,"909":1769,"alpha":1770,"602":1771,"652":1772,"889":1773,"772":1774,"763":1775,"794":1776,"ner":1777,"793":1778,"691":1779,"Ġwhat":1780,"ames":1781,"886":1782,"692":1783,"673":1784,"681":1785,"seekingalpha":1786,"Ġnow":1787,"Ġtwo":1788,"683":1789,"874":1790,"661":1791,"Ġget":1792,"ban":1793,"yst":1794,"771":1795,"672":1796,"897":1797,"Ġother":1798,"ourn":1799,"express":1800,"riv":1801,"ider":1802,"905":1803,"601":1804,"875":1805,"ox":1806,"ouse":1807,"911":1808,"ats":1809,"884":1810,"675":1811,"Ġres":1812,"arm":1813,"ublic":1814,"Ġthem":1815,"894":1816,"999":1817,"906":1818,"rain":1819,"ury":1820,"Ġsup":1821,"792":1822,"751":1823,"901":1824,"641":1825,"cour":1826,"rit":1827,"elp":1828,"ocal":1829,"Ġlast":1830,"663":1831,"her":1832,"but":1833,"996":1834,"752":1835,"986":1836,"Ġpol":1837,"ied":1838,"753":1839,"806":1840,"995":1841,"ivers":1842,"mark":1843,"Ġany":1844,"pect":1845,"This":1846,"after":1847,"807":1848,"Ġback":1849,"Ġhim":1850,"893":1851,"ainst":1852,"885":1853,"Ġshares":1854,"Ġduring":1855,"762":1856,"tv":1857,"Ġcoun":1858,"651":1859,"803":1860,"805":1861,"964":1862,"ures":1863,"773":1864,"904":1865,"985":1866,"best":1867,"653":1868,"dep":1869,"971":1870,"erson":1871,"orth":1872,"741":1873,"Ġwork":1874,"896":1875,"804":1876,"unch":1877,"dis":1878,"roup":1879,"go":1880,"son":1881,"sc":1882,"997":1883,"891":1884,"965":1885,"ax":1886,"trans":1887,"miss":1888,"war":1889,"ject":1890,"ause":1891,"work":1892,"892":1893,"alk":1894,"dailynews":1895,"from":1896,"882":1897,"ross":1898,"864":1899,"994":1900,"902":1901,"984":1902,"852":1903,"ants":1904,"655":1905,"952":1906,"ev":1907,"rist":1908,"983":1909,"Ġsec":1910,"Ġinter":1911,"991":1912,"back":1913,"873":1914,"li":1915,"ives":1916,"872":1917,"ble":1918,"Ġyears":1919,"802":1920,"use":1921,"Ġmy":1922,"841":1923,"974":1924,"ener":1925,"Ġpre":1926,"etf":1927,"Ġam":1928,"993":1929,"883":1930,"Ġ\"":1931,"981":1932,"ris":1933,"sl":1934,"801":1935,"ices":1936,"heral":1937,"982":1938,"865":1939,"ual":1940,"ness":1941,"961":1942,"rid":1943,"876":1944,"871":1945,"ull":1946,"Ġcould":1947,"Ġdec":1948,"my":1949,"975":1950,"Ġif":1951,"olog":1952,"962":1953,"Ch":1954,"645":1955,"life":1956,"963":1957,"953":1958,"Ġreport":1959,"881":1960,"862":1961,"cer":1962,"ince":1963,"941":1964,"895":1965,"853":1966,"overnment":1967,"951":1968,"755":1969,"903":1970,"973":1971,"863":1972,"munity":1973,"Ġhow":1974,"Ġbet":1975,"da":1976,"851":1977,"992":1978,"745":1979,"ility":1980,"ef":1981,"ina":1982,"Ġincl":1983,"ible":1984,"Ġneed":1985,"Ġfe":1986,"ournal":1987,"amily":1988,"ative":1989,"ield":1990,"ester":1991,"thing":1992,"comp":1993,"tra":1994,"gy":1995,"845":1996,"Ġcompany":1997,"invest":1998,"972":1999,"Ġshow":2000,"861":2001,"win":2002,"844":2003,"ams":2004,"main":2005,"akes":2006,"Ġact":2007,"Ġno":2008,"cast":2009,"ford":2010,"get":2011,"cap":2012,"644":2013,"come":2014,"Ġman":2015,"945":2016,"Ġquarter":2017,"944":2018,"mar":2019,"part":2020,"Ġthrough":2021,"health":2022,"la":2023,"ever":2024,"ck":2025,"ste":2026,"But":2027,"nings":2028,"ific":2029,"Ġfin":2030,"cri":2031,"hold":2032,"elf":2033,"yle":2034,"aj":2035,"etfdailynews":2036,"uss":2037,"744":2038,"ister":2039,"show":2040,"955":2041,"week":2042,"ĠY":2043,"bre":2044,"Ġatt":2045,"mov":2046,"play":2047,"855":2048,"654":2049,"Ġbu":2050,"ounc":2051,"met":2052,"Ġmost":2053,"sup":2054,"lead":2055,"854":2056,"head":2057,"Ġbec":2058,"Ġpo":2059,"Ġunder":2060,"Ġbeing":2061,"pres":2062,"fect":2063,"Ġevery":2064,"ump":2065,"Ġsee":2066,"Ġhigh":2067,"nes":2068,"ush":2069,"cont":2070,"Ġonly":2071,"ared":2072,"journal":2073,"no":2074,"ney":2075,"will":2076,"Ġdid":2077,"lat":2078,"ran":2079,"Ġ1":2080,"ather":2081,"ger":2082,"And":2083,"Ġbefore":2084,"ollow":2085,"ling":2086,"lin":2087,"Ġdown":2088,"ship":2089,"bo":2090,"ists":2091,"high":2092,"read":2093,"urs":2094,"ey":2095,"433":2096,"ask":2097,"Ġwhere":2098,"xt":2099,"sm":2100,"try":2101,"Ġmon":2102,"976":2103,"reg":2104,"'t":2105,"Ġear":2106,"more":2107,"ights":2108,"shares":2109,"533":2110,"St":2111,"eep":2112,"nt":2113,"754":2114,"Ġass":2115,"irect":2116,"ued":2117,"rug":2118,"eter":2119,"den":2120,"Ġbl":2121,"062":2122,"chn":2123,"Ġra":2124,"mp":2125,"ety":2126,"bor":2127,"rant":2128,"Ġreg":2129,"key":2130,"Ġcons":2131,"city":2132,"ĠâĢĶ":2133,"vid":2134,"report":2135,"american":2136,"els":2137,"Ġstart":2138,"Ġmake":2139,"cur":2140,"time":2141,"agement":2142,"wom":2143,"review":2144,"ars":2145,"Ġhelp":2146,"Ġdes":2147,"ork":2148,"Ġlead":2149,"064":2150,"entertain":2151,"des":2152,"ada":2153,"Ġeven":2154,"urch":2155,"Ġwant":2156,"lebr":2157,"ĠTh":2158,"velop":2159,"Ġwhile":2160,"uck":2161,"nas":2162,"ring":2163,"002":2164,"herald":2165,"094":2166,"633":2167,"052":2168,"Ġend":2169,"Ġknow":2170,"041":2171,"ĠUn":2172,"004":2173,"522":2174,"Ġwell":2175,"Ġserv":2176,"depend":2177,"ular":2178,"ism":2179,"oney":2180,"ience":2181,"rent":2182,"SS":2183,"ories":2184,"421":2185,"954":2186,"091":2187,"season":2188,"051":2189,"ands":2190,"007":2191,"har":2192,"Ġinclud":2193,"006":2194,"lo":2195,"nyse":2196,"ĠCom":2197,"bers":2198,"093":2199,"008":2200,"par":2201,"081":2202,"na":2203,"ten":2204,"432":2205,"ple":2206,"stock":2207,"iger":2208,"guard":2209,"riend":2210,"bro":2211,"092":2212,"061":2213,"uary":2214,"itch":2215,"indian":2216,"ases":2217,"rael":2218,"082":2219,"ages":2220,"online":2221,"733":2222,"Ġthree":2223,"ional":2224,"009":2225,"ember":2226,"422":2227,"084":2228,"une":2229,"Ġmade":2230,"osp":2231,"053":2232,"sw":2233,"eries":2234,"cal":2235,"biz":2236,"Ġday":2237,"creen":2238,"ted":2239,"063":2240,"entertainment":2241,"uff":2242,"083":2243,"Ġbecause":2244,"643":2245,"001":2246,"ired":2247,"ves":2248,"Ġstock":2249,"005":2250,"gan":2251,"Ġgame":2252,"Ġgoing":2253,"led":2254,"aim":2255,"ord":2256,"inion":2257,"Ġsupport":2258,"Ġ19":2259,"ĠâĢĵ":2260,"top":2261,"Ġcall":2262,".\"":2263,"Ġset":2264,"ystem":2265,"Ġthen":2266,"Ġthese":2267,"sur":2268,"down":2269,"Ġdon":2270,"state":2271,"003":2272,"vol":2273,"Ġweek":2274,"Ġmark":2275,"sun":2276,"Ġagainst":2277,"val":2278,"ised":2279,"raph":2280,"Ġcontin":2281,"daq":2282,"Ġway":2283,"Ġmin":2284,"ilm":2285,"Ġmany":2286,"ved":2287,"kill":2288,"Ġtake":2289,"072":2290,"073":2291,"ief":2292,"ancial":2293,"atur":2294,"nasdaq":2295,"rong":2296,"071":2297,"Ġseason":2298,"home":2299,"Ġlong":2300,"Ġpres":2301,"Ġinvest":2302,"dr":2303,"She":2304,"Ġmay":2305,"lear":2306,"ales":2307,"earnings":2308,"dependent":2309,"Ġown":2310,"Ġdif":2311,"gaz":2312,"Ġteam":2313,"cript":2314,"632":2315,"vers":2316,"Ġ2023":2317,"ency":2318,"rad":2319,"first":2320,"As":2321,"ped":2322,"iving":2323,"cy":2324,"wood":2325,"bur":2326,"743":2327,"bar":2328,"icag":2329,"ought":2330,"politics":2331,"ague":2332,"ont":2333,"Ġthose":2334,"Ġshould":2335,"local":2336,"ane":2337,"843":2338,"ision":2339,"irm":2340,"Ġmonth":2341,"ody":2342,"lection":2343,"obal":2344,"Ġ'":2345,"Ġind":2346,"ces":2347,"says":2348,"Ġret":2349,"They":2350,"622":2351,"school":2352,"side":2353,"Ġaround":2354,"free":2355,"Ġincre":2356,"ror":2357,"ĠNew":2358,"Ġ2":2359,"ites":2360,"reen":2361,"722":2362,"ween":2363,"usic":2364,"Ġstud":2365,"hol":2366,"Ġ-":2367,"742":2368,"RSS":2369,"âĢĺ":2370,"Ġgood":2371,"real":2372,"tal":2373,"fire":2374,"ĠThe":2375,"this":2376,"Ġhome":2377,"opinion":2378,"aster":2379,"duct":2380,"search":2381,"vir":2382,"you":2383,"Ġsay":2384,"ians":2385,"serv":2386,"ana":2387,"ird":2388,"aving":2389,"uro":2390,"ips":2391,"used":2392,"what":2393,"aut":2394,"vs":2395,"Ġgu":2396,"Ġresp":2397,"has":2398,"Ġmov":2399,"Ġvery":2400,"Ġoffic":2401,"ards":2402,"under":2403,"ette":2404,"ildren":2405,"Ġsur":2406,"Ġsign":2407,"oci":2408,"Ġmuch":2409,"Ġrel":2410,"eg":2411,"cording":2412,"chnolog":2413,"set":2414,"ls":2415,"plain":2416,"321":2417,"833":2418,"Ġthink":2419,"mission":2420,"round":2421,"law":2422,"ways":2423,"hind":2424,"ense":2425,"banking":2426,"indianexpress":2427,"AN":2428,"north":2429,"screen":2430,"today":2431,"Ġcur":2432,"532":2433,"guardian":2434,"coll":2435,"Ġrun":2436,"933":2437,"stand":2438,"Ġstill":2439,"Ġbel":2440,"Ġph":2441,"big":2442,"book":2443,"bs":2444,"que":2445,"ĠâĢĺ":2446,"Ġval":2447,"less":2448,"verage":2449,"Ġsecond":2450,"Ġexper":2451,"There":2452,"ured":2453,"Ġbusiness":2454,"ersh":2455,"police":2456,"jo":2457,"rew":2458,"AR":2459,"just":2460,"lif":2461,"aff":2462,"ky":2463,"independent":2464,"icle":2465,"south":2466,"ma":2467,"ator":2468,"iversity":2469,"Ġann":2470,"transcript":2471,"Ġmed":2472,"Ġfour":2473,"arts":2474,"ution":2475,"642":2476,"cil":2477,"ica":2478,"ote":2479,"vide":2480,"run":2481,"Ġ3":2482,"Ġcar":2483,"rem":2484,"822":2485,"ized":2486,"ient":2487,"ned":2488,"raw":2489,"duc":2490,"Ġstate":2491,"gamer":2492,"ells":2493,"chicag":2494,"ocial":2495,"americanbanking":2496,"gamerant":2497,"americanbankingnews":2498,"Ġgovernment":2499,"bes":2500,"ior":2501,"mber":2502,"ata":2503,"Ġ10":2504,"ange":2505,"ots":2506,"ream":2507,"oll":2508,"ta":2509,"road":2510,"Ġprice":2511,"ohn":2512,"943":2513,"west":2514,"iver":2515,"cott":2516,"most":2517,"Ġcap":2518,"ope":2519,"842":2520,"Ġrecent":2521,"Ġcour":2522,"How":2523,",\"":2524,"Ġem":2525,"ze":2526,"gram":2527,"ening":2528,"stud":2529,"Ġsc":2530,"reet":2531,"aces":2532,"oung":2533,"ending":2534,"Ġtra":2535,"house":2536,"acy":2537,"may":2538,"rict":2539,"rc":2540,"Ġsm":2541,"umber":2542,"dem":2543,"gen":2544,"alf":2545,"Ġwin":2546,"Ġfollow":2547,"shire":2548,"Â£":2549,"922":2550,"ually":2551,"ustral":2552,"Ġworld":2553,"vert":2554,"light":2555,"If":2556,"dead":2557,"care":2558,"Ġlife":2559,"za":2560,"char":2561,"uture":2562,"Ġbetween":2563,"Ġdoes":2564,"eting":2565,"Ġiss":2566,"test":2567,"Ġsince":2568,"point":2569,"1015":2570,"about":2571,"Ġpos":2572,"tract":2573,"mitt":2574,"riday":2575,"732":2576,"Ġreally":2577,"Sh":2578,"orm":2579,"field":2580,"people":2581,"ram":2582,"stit":2583,"Ġsuch":2584,"Ġright":2585,"ately":2586,"Ġcent":2587,"Ġfamily":2588,"istory":2589,"Ġmillion":2590,"umb":2591,"who":2592,"Al":2593,"ery":2594,"ality":2595,"rown":2596,"Ġincluding":2597,"832":2598,"Ġcare":2599,"iden":2600,"An":2601,"ults":2602,"del":2603,"rel":2604,"Ġtrans":2605,"ping":2606,"rand":2607,"Ġcol":2608,"screenrant":2609,"zz":2610,"Ġcr":2611,"por":2612,"dev":2613,"ari":2614,"oon":2615,"ospital":2616,"Ġsays":2617,"ially":2618,"Ġhapp":2619,"ened":2620,"ington":2621,"ulture":2622,"Ġtold":2623,"Ġmem":2624,"Ġexpect":2625,"ines":2626,"Ġbig":2627,"thern":2628,"2022":2629,"ones":2630,"thor":2631,"put":2632,"Ġplace":2633,"position":2634,"rick":2635,"mas":2636,"celebr":2637,"formation":2638,"ster":2639,"ison":2640,"Ġsame":2641,"Ġboth":2642,"Ġschool":2643,"Ġgot":2644,"Ġbest":2645,"uman":2646,"ĠDe":2647,"Ġspec":2648,"afric":2649,"ony":2650,"itional":2651,"1235":2652,"Ġlook":2653,"431":2654,"that":2655,"pm":2656,"cept":2657,"llc":2658,"Ġnext":2659,"ising":2660,"black":2661,"central":2662,"ying":2663,"ize":2664,"Ġsub":2665,"imate":2666,"ours":2667,"ĠAr":2668,"ploy":2669,"ĠLe":2670,"Ġapp":2671,"Ġperson":2672,"rop":2673,"That":2674,"932":2675,"Ġgreat":2676,"ĠSh":2677,"uccess":2678,"sol":2679,"prof":2680,"Ġcome":2681,"cotland":2682,"aid":2683,"Ġput":2684,"Ġhead":2685,"ondon":2686,"watch":2687,"east":2688,"esp":2689,"owns":2690,"Ġdiffer":2691,"ooking":2692,"ront":2693,"vict":2694,"action":2695,"aren":2696,"iol":2697,"ature":2698,"bank":2699,"well":2700,"ffic":2701,"Ġappro":2702,"cut":2703,"inal":2704,"Ġwom":2705,"Ġpublic":2706,"ĠIs":2707,"ints":2708,"ittle":2709,"ooks":2710,"mid":2711,"Ġfound":2712,"bune":2713,"itor":2714,"ears":2715,"ederal":2716,"ĠAl":2717,"bel":2718,"gn":2719,"On":2720,"stru":2721,"Ġlaw":2722,"aught":2723,"ĠSe":2724,"years":2725,"Ġtri":2726,"vo":2727,"bed":2728,"Ġpolice":2729,"atter":2730,"Ġdel":2731,"Ġgrow":2732,"Ġter":2733,"raine":2734,"rate":2735,"ille":2736,"Ġpass":2737,"obs":2738,"1100":2739,"For":2740,"Ġleg":2741,"Ġdef":2742,"ler":2743,"ajor":2744,"ids":2745,"ha":2746,"iser":2747,"lease":2748,"county":2749,"Ġhealth":2750,"food":2751,"lege":2752,"Ġchar":2753,"ba":2754,"rat":2755,"di":2756,"gest":2757,"game":2758,"ĠMan":2759,"ically":2760,"oston":2761,"mit":2762,"oil":2763,"Ġuse":2764,"chnology":2765,"So":2766,"two":2767,"Ġcountry":2768,"gin":2769,"Ġ4":2770,"1000":2771,"Ġfl":2772,"521":2773,"ials":2774,"place":2775,"ports":2776,"your":2777,"Ġcommunity":2778,"metro":2779,"ready":2780,"why":2781,"ĠAmer":2782,"gazette":2783,"ivid":2784,"dig":2785,"million":2786,"community":2787,"ews":2788,"urope":2789,"gress":2790,"arget":2791,"ama":2792,"Ġanother":2793,"canada":2794,"fr":2795,"iting":2796,"eds":2797,"yn":2798,"Ġfind":2799,"Ġdirect":2800,"ival":2801,"Ġcurrent":2802,"GA":2803,"Ġint":2804,"bet":2805,"bbc":2806,"forbes":2807,"Ġdevelop":2808,"Ġhold":2809,"ration":2810,"quir":2811,"Ġtop":2812,"death":2813,"uly":2814,"his":2815,"lim":2816,"ĠMon":2817,"pact":2818,"2024":2819,"nytimes":2820,"mir":2821,"Ġbuild":2822,"cbr":2823,"ises":2824,"idents":2825,"ners":2826,"Ġmarket":2827,"Ġlot":2828,"ico":2829,"src":2830,"942":2831,"wa":2832,"ences":2833,"ilit":2834,"You":2835,"ential":2836,"political":2837,"aturday":2838,"cons":2839,"right":2840,"aged":2841,"global":2842,"date":2843,"ership":2844,"power":2845,"cle":2846,"fort":2847,"abc":2848,"Ġnear":2849,"ament":2850,"oft":2851,"Ġpost":2852,"Ġadded":2853,"sco":2854,"coming":2855,"theguardian":2856,"ĠBl":2857,"Ġ2022":2858,"731":2859,"pool":2860,"Ġpay":2861,"add":2862,"roll":2863,"mc":2864,"ĠCoun":2865,"ampion":2866,"aur":2867,"was":2868,"viron":2869,"ute":2870,"educ":2871,"alt":2872,"Ġvis":2873,"Ġbre":2874,"lor":2875,"then":2876,"Ġrece":2877,"ished":2878,"have":2879,"ability":2880,"1113":2881,"ext":2882,"holdings":2883,"Ġwon":2884,"1120":2885,"ristmas":2886,"sen":2887,"Ġob":2888,"cup":2889,"ode":2890,"1017":2891,"Ġhere":2892,"elling":2893,"721":2894,"eld":2895,"ifor":2896,"mag":2897,"aker":2898,"change":2899,"rol":2900,"nor":2901,"ĠTr":2902,"fall":2903,"sk":2904,"Ġleft":2905,"531":2906,"ene":2907,"bt":2908,"Ġ5":2909,"1053":2910,"bi":2911,"ffect":2912,"Ġdem":2913,"tech":2914,"wards":2915,"ering":2916,"itiz":2917,"public":2918,"israel":2919,"asing":2920,"ily":2921,"india":2922,"1071":2923,"sign":2924,"Ġsim":2925,"ades":2926,"Ġconf":2927,"Ġwar":2928,"management":2929,"acc":2930,"Ġrest":2931,"Ġremain":2932,"ified":2933,"ged":2934,"pat":2935,"elt":2936,"resident":2937,"vironment":2938,"long":2939,"river":2940,"nia":2941,"town":2942,"estyle":2943,"Ġstat":2944,"apan":2945,"Ġimport":2946,"def":2947,"ĠMin":2948,"pen":2949,"water":2950,"omin":2951,"ends":2952,"Un":2953,"su":2954,"1064":2955,"ci":2956,"1063":2957,"ills":2958,"ummer":2959,"iven":2960,"self":2961,"Ġaway":2962,"raft":2963,"Ġacross":2964,"roy":2965,"iod":2966,"mur":2967,"1055":2968,"Ġnumber":2969,"ursday":2970,"group":2971,"istrict":2972,"ĠFriday":2973,"night":2974,"1219":2975,"ĠInd":2976,"stories":2977,"against":2978,"ustom":2979,"ednes":2980,"icy":2981,"Ġtoo":2982,"gle":2983,"1038":2984,"style":2985,"ived":2986,"ĠQ":2987,"ĠHe":2988,"hot":2989,"Ġcost":2990,"ended":2991,"boston":2992,"Ġevent":2993,"others":2994,"collider":2995,"ednesday":2996,"ude":2997,"1085":2998,"igeria":2999,"comments":3000,"gether":3001,"1140":3002,"pay":3003,"1051":3004,"family":3005,"hor":3006,"ado":3007,"ensive":3008,"fight":3009,"grow":3010,"Ġpower":3011,"iam":3012,"Ġfive":3013,"Ġposs":3014,"than":3015,"ctor":3016,"ĠSun":3017,"631":3018,"hom":3019,"movies":3020,"atures":3021,"Ġeach":3022,"don":3023,"good":3024,"market":3025,"sites":3026,"1010":3027,"vious":3028,"Ġthings":3029,"Ġfun":3030,"quest":3031,"lex":3032,"sex":3033,"1093":3034,"ced":3035,"ĠRe":3036,"ware":3037,"Ġdifferent":3038,"york":3039,"1043":3040,"621":3041,"ĠZ":3042,"Ġfeel":3043,"821":3044,"1440":3045,"onom":3046,"spect":3047,"Ġaverage":3048,"1073":3049,"mal":3050,"take":3051,"aul":3052,"1019":3053,"1423":3054,"Ġtry":3055,"ieve":3056,"ances":3057,"chron":3058,"Ġread":3059,"courier":3060,"bab":3061,"tor":3062,"1248":3063,"âĢĶ":3064,"ĠAd":3065,"brid":3066,"Ġformer":3067,"ĠState":3068,"chicago":3069,"elect":3070,"legraph":3071,").":3072,"til":3073,"ifornia":3074,"Ġpast":3075,"Ġreal":3076,"ference":3077,"ston":3078,"advert":3079,"Ġsystem":3080,"Ġalways":3081,"band":3082,"bury":3083,"1033":3084,"Ġnight":3085,"attle":3086,"1029":3087,"1168":3088,"ered":3089,"lifestyle":3090,"start":3091,"ift":3092,"portun":3093,"conom":3094,"Ġoper":3095,"adv":3096,"Ġfew":3097,"friend":3098,"court":3099,"comm":3100,"Ġcor":3101,"ustry":3102,"ĠCol":3103,"Ġarea":3104,"At":3105,"1042":3106,"Ġallow":3107,"green":3108,"Ġpoint":3109,"super":3110,"gets":3111,"1115":3112,"ald":3113,"uesday":3114,"hy":3115,"1279":3116,"amin":3117,"plan":3118,"ĠCounty":3119,"ray":3120,"akers":3121,"),":3122,"orld":3123,"Ġlocal":3124,"ĠCo":3125,"1047":3126,"attack":3127,"When":3128,"men":3129,"Ġcity":3130,"united":3131,"aken":3132,"Ġchildren":3133,"money":3134,"Ġprom":3135,"ender":3136,"However":3137,"itions":3138,"Ġresearch":3139,"ĠCl":3140,"eck":3141,"avid":3142,"dec":3143,"rap":3144,"ails":3145,"ĠPro":3146,"count":3147,"Ġused":3148,"mor":3149,"sub":3150,"ett":3151,"rive":3152,"olice":3153,"KAR":3154,"russ":3155,"1160":3156,"chester":3157,"council":3158,"ĠCity":3159,"ANGA":3160,"1323":3161,"anuary":3162,"Ġhand":3163,"Ġdays":3164,"KARANGA":3165,"help":3166,"1027":3167,"1081":3168,"Ġkeep":3169,"1200":3170,"urity":3171,"ĠRo":3172,"Ġnever":3173,"Ġmembers":3174,"music":3175,"media":3176,"Ġsomething":3177,"woman":3178,"record":3179,"nown":3180,"1125":3181,"Ġdidn":3182,"know":3183,"nov":3184,"1119":3185,"Ġmight":3186,"thes":3187,"1041":3188,"artment":3189,"Ġproject":3190,"film":3191,"ken":3192,"1052":3193,"Ġtook":3194,"fem":3195,"sa":3196,"1014":3197,"1188":3198,"Ġgroup":3199,"ĠMc":3200,"1092":3201,"ocks":3202,"Ġbetter":3203,"uel":3204,"1023":3205,"1080":3206,"1534":3207,"ively":3208,"Ġlevel":3209,"1170":3210,"cover":3211,"ges":3212,"Ġcre":3213,"1148":3214,"ben":3215,"boy":3216,"ides":3217,"Ġable":3218,"Re":3219,"Ġfact":3220,"1141":3221,"Ġquest":3222,"1180":3223,"room":3224,"veh":3225,"ville":3226,"into":3227,"Ġfriend":3228,"ims":3229,"econom":3230,"lands":3231,"mem":3232,"1198":3233,"Ġexp":3234,"Ġplan":3235,"Ġadditional":3236,"fund":3237,"Ġcame":3238,"Ġworth":3239,"Ġinterest":3240,"1236":3241,"oper":3242,"Ġpartic":3243,"âĢ¦":3244,"1070":3245,"1159":3246,"Ġfar":3247,"1065":3248,"1128":3249,"Ġfac":3250,"rock":3251,"ention":3252,"1025":3253,"abor":3254,"estern":3255,"tren":3256,"1060":3257,"1123":3258,"1280":3259,"quire":3260,"ization":3261,"look":3262,"Ġ6":3263,"che":3264,"ply":3265,"1270":3266,"ung":3267,"ager":3268,"open":3269,"telegraph":3270,"Ġent":3271,"1056":3272,"1169":3273,"Ġmove":3274,"build":3275,"Ġspe":3276,"ĠPr":3277,"forman":3278,"clos":3279,"Ġext":3280,"Ġplayers":3281,"1030":3282,"1348":3283,"Ġelect":3284,"cond":3285,"beat":3286,"liver":3287,"oost":3288,"ikely":3289,"1078":3290,"sy":3291,"Ġsix":3292,"bb":3293,"Ġ12":3294,"1037":3295,"1066":3296,"Ġfire":3297,"team":3298,"Ġsever":3299,"Ġlater":3300,"oe":3301,"reve":3302,"stri":3303,"Ġconcer":3304,"ĠThursday":3305,"ias":3306,"1016":3307,"1048":3308,"1058":3309,"1098":3310,"cottish":3311,"cuss":3312,"1035":3313,"1040":3314,"Ġstand":3315,"ĠPark":3316,"ustralia":3317,"dle":3318,"itive":3319,"iles":3320,"amed":3321,"ailed":3322,"ocus":3323,"1046":3324,"Ġpop":3325,"ĠSp":3326,"ĠMar":3327,"plic":3328,"where":3329,"fark":3330,"make":3331,"1215":3332,"1258":3333,"1061":3334,"emic":3335,"rup":3336,"1136":3337,"1144":3338,"toc":3339,"spe":3340,"Ġwithout":3341,"Ġseen":3342,"Ġmonths":3343,"cbc":3344,"1228":3345,"1246":3346,"pass":3347,"Ġmain":3348,"Ġcer":3349,"urther":3350,"1216":3351,"1335":3352,"Ġorgan":3353,"venue":3354,"Ġprof":3355,"1039":3356,"1234":3357,"1186":3358,"ĠUS":3359,"Ġagain":3360,"Ar":3361,"ĠSaturday":3362,"Ġperiod":3363,"1134":3364,"Ġposition":3365,"games":3366,"park":3367,"Ġnews":3368,"1018":3369,"With":3370,"1006":3371,"ched":3372,"ael":3373,"1114":3374,"ĠWednesday":3375,"whats":3376,"joy":3377,"itical":3378,"Ġgl":3379,"Ġaccording":3380,"financial":3381,"Ġ7":3382,"cmp":3383,"1079":3384,"Ġhard":3385,"1062":3386,"education":3387,"Ġmaking":3388,"ems":3389,"ĠMay":3390,"ffort":3391,"ooting":3392,"Ġadv":3393,"present":3394,"Ġimportant":3395,"uation":3396,"vail":3397,"1315":3398,"Ġask":3399,"tribut":3400,"LC":3401,"1450":3402,"1850":3403,"921":3404,"1072":3405,"lywood":3406,"chronicle":3407,"1157":3408,"1190":3409,"like":3410,"she":3411,"Ġside":3412,"Ġhaving":3413,"1091":3414,"Ġrating":3415,"biztoc":3416,"great":3417,"1118":3418,"1145":3419,"ounced":3420,"gir":3421,"ino":3422,"Ġel":3423,"1020":3424,"enn":3425,"Ġhear":3426,"spec":3427,"While":3428,"Ġreturn":3429,"nation":3430,"ĠAn":3431,"Ġshort":3432,"Ġworking":3433,"'re":3434,"1059":3435,"1224":3436,"1229":3437,"1449":3438,"Ġcase":3439,"ural":3440,"1327":3441,"pal":3442,"Ġshare":3443,"ousing":3444,"Ġalong":3445,"advertiser":3446,"1034":3447,"1514":3448,"Ġthird":3449,"Ġfore":3450,"Ġpot":3451,"Ġlove":3452,"Ġcalled":3453,"ws":3454,"1359":3455,"Ġwater":3456,"Ġdet":3457,"1336":3458,"advis":3459,"hit":3460,"1343":3461,"1600":3462,"buzz":3463,"culture":3464,"ĠÂ£":3465,"1480":3466,"Ġair":3467,"1082":3468,"ĠCan":3469,"prove":3470,"US":3471,"1057":3472,"league":3473,"Ġce":3474,"president":3475,"One":3476,"bay":3477,"oard":3478,"1009":3479,"1130":3480,"iff":3481,"sent":3482,"Ġ&":3483,"1226":3484,"1139":3485,"1390":3486,"Ġsol":3487,"Ġline":3488,"Ġclos":3489,"Ac":3490,"1026":3491,"1049":3492,"1223":3493,"Ġbillion":3494,"Ġmiss":3495,"1109":3496,"Ġopen":3497,"asket":3498,"ault":3499,"Ġwent":3500,"Ġalready":3501,"Ġmoney":3502,"1127":3503,"anti":3504,"After":3505,"1076":3506,"1112":3507,"1108":3508,"nypost":3509,"hi":3510,"punch":3511,"ving":3512,"1137":3513,"1156":3514,"inf":3515,"itle":3516,"Ġturn":3517,"Ġclaim":3518,"offic":3519,"month":3520,"ĠMonday":3521,"ilitary":3522,"ole":3523,"1266":3524,"1260":3525,"1334":3526,"1126":3527,"oment":3528,"uge":3529,"1366":3530,"inj":3531,"eneral":3532,"Ġprocess":3533,"Ġtrad":3534,"exper":3535,"ators":3536,"Ġsco":3537,"Ġhit":3538,"Ġref":3539,"Ġeconom":3540,"han":3541,"1238":3542,"1247":3543,"1143":3544,"Ġvict":3545,"final":3546,"Ġpoints":3547,"digital":3548,"1225":3549,"1580":3550,"Ġlittle":3551,"Ġgames":3552,"Ġprovid":3553,"perty":3554,"rang":3555,"1069":3556,"1256":3557,"Ġspo":3558,"Ġdue":3559,"ried":3560,"ĠMr":3561,"1439":3562,"1090":3563,"1227":3564,"alyst":3565,"ups":3566,"1088":3567,"1268":3568,"Ġcontinue":3569,"amb":3570,"Ġstory":3571,"1240":3572,"rey":3573,"icks":3574,"1068":3575,"need":3576,"Ġfund":3577,"To":3578,"arl":3579,"Ġsit":3580,"break":3581,"1028":3582,"1077":3583,"1370":3584,"asy":3585,"1121":3586,"1290":3587,"1158":3588,"urns":3589,"buy":3590,"What":3591,"1429":3592,"1346":3593,"posed":3594,"pet":3595,"erve":3596,"anies":3597,"tom":3598,"ĠTuesday":3599,"1237":3600,"1250":3601,"1177":3602,"1613":3603,"arge":3604,"Ġhalf":3605,"ros":3606,"ĠSouth":3607,"ĠAss":3608,"list":3609,"uthor":3610,"1004":3611,"reed":3612,"Ġjo":3613,"ivil":3614,"irming":3615,"unt":3616,"bert":3617,"arents":3618,"1328":3619,"arn":3620,"alleng":3621,"minist":3622,"Ġreported":3623,"1138":3624,"force":3625,"ĠGroup":3626,"Ġdeal":3627,"crime":3628,"Ġattack":3629,"ging":3630,"Ġ11":3631,"arrest":3632,"tober":3633,"gency":3634,"Ġdeath":3635,"energy":3636,"1097":3637,"1396":3638,"Ġfuture":3639,"Ġland":3640,"pril":3641,"organ":3642,"plained":3643,"fun":3644,"london":3645,"1179":3646,"their":3647,"dog":3648,"face":3649,"1286":3650,"1166":3651,"shop":3652,"Ġlet":3653,"sal":3654,"1036":3655,"Ġtogether":3656,"1149":3657,"bruary":3658,"gra":3659,"Ġmedia":3660,"four":3661,"last":3662,"tion":3663,"bud":3664,"1050":3665,"1267":3666,"1479":3667,"1406":3668,"ĠInc":3669,"bour":3670,"1217":3671,"1147":3672,"inds":3673,"sing":3674,"1566":3675,"ribune":3676,"ĠRuss":3677,"wall":3678,"Ġ8":3679,"1400":3680,"Ġfilm":3681,"charg":3682,"1122":3683,"Ġrem":3684,"Ġowns":3685,"1024":3686,"1084":3687,"1218":3688,"andid":3689,"class":3690,"ewish":3691,"1013":3692,"1425":3693,"cost":3694,"claim":3695,"ĠNational":3696,"interview":3697,"Ġequ":3698,"Ġaccess":3699,"Ġopportun":3700,"Ġstudents":3701,"ding":3702,"ined":3703,"Ġseries":3704,"ĠUnited":3705,"mirror":3706,"1135":3707,"1330":3708,"Ġlist":3709,"trump":3710,"formance":3711,"asketball":3712,"based":3713,"1447":3714,"1326":3715,"allen":3716,"illed":3717,"Ġservices":3718,"Ġcourt":3719,"1470":3720,"1337":3721,"orado":3722,"aled":3723,"Ġdata":3724,"former":3725,"1318":3726,"1339":3727,"Ġavail":3728,"ries":3729,"ape":3730,"ĠSunday":3731,"1360":3732,"could":3733,"Ġtimes":3734,"Ġfull":3735,"africa":3736,"1415":3737,"ohns":3738,"van":3739,"1426":3740,"ided":3741,"Ġchange":3742,"anges":3743,"Ġart":3744,"1054":3745,"1165":3746,"Ġtrain":3747,"nect":3748,"ount":3749,"Ġearly":3750,"831":3751,"1150":3752,"1197":3753,"1520":3754,"itter":3755,"Ġstrong":3756,"ouncil":3757,"content":3758,"box":3759,"election":3760,"1012":3761,"ott":3762,"Ġpurch":3763,"Ġclear":3764,"ificant":3765,"sus":3766,"1007":3767,"1358":3768,"1354":3769,"igation":3770,"1146":3771,"Ġlooking":3772,"Ġwhy":3773,"Ġproduct":3774,"ĠWest":3775,"ovember":3776,"capital":3777,"every":3778,"love":3779,"ara":3780,"Ġtarget":3781,"deal":3782,"ĠTe":3783,"Le":3784,"bill":3785,"Ġ30":3786,"1325":3787,"Ġsold":3788,"ancer":3789,"hand":3790,"1340":3791,"Ġinformation":3792,"1129":3793,"Ġest":3794,"should":3795,"Ġhouse":3796,"support":3797,"Ad":3798,"1278":3799,"Ġsuccess":3800,"Ġfree":3801,"Ġpress":3802,"uses":3803,"ka":3804,"nfl":3805,"1011":3806,"three":3807,"utes":3808,"Ġrecord":3809,"Ġlive":3810,"Ġservice":3811,"ki":3812,"1388":3813,"1536":3814,"inel":3815,"Ġuntil":3816,"1199":3817,"erver":3818,"Ġfood":3819,"launch":3820,"system":3821,"yan":3822,"Ġtoday":3823,"1277":3824,"1378":3825,"1142":3826,"Ġforward":3827,"Ġroad":3828,"leader":3829,"aud":3830,"1099":3831,"1220":3832,"1204":3833,"ĠSec":3834,"Ġorder":3835,"castle":3836,"De":3837,"hil":3838,"1032":3839,"1259":3840,"1424":3841,"Ġyoung":3842,"heralds":3843,"fc":3844,"1194":3845,"order":3846,"dailypolitical":3847,"All":3848,"aming":3849,"ĠCon":3850,"Ġcomes":3851,"Ġimpact":3852,"duction":3853,"Ġwomen":3854,"rum":3855,"talk":3856,"1045":3857,"Ġsing":3858,"so":3859,"1087":3860,"1369":3861,"1579":3862,"ĠUniversity":3863,"video":3864,"1257":3865,"1329":3866,"1350":3867,"arry":3868,"estival":3869,"mod":3870,"1549":3871,"1586":3872,"Ġgive":3873,"tw":3874,"1298":3875,"cember":3876,"Ġev":3877,"1005":3878,"1288":3879,"1347":3880,"ani":3881,"20230":3882,"leased":3883,"1107":3884,"Ġconsider":3885,"body":3886,"fox":3887,"ga":3888,"host":3889,"ni":3890,"Ġsent":3891,"Ġben":3892,"Ġvalued":3893,"rank":3894,"1239":3895,"1419":3896,"1338":3897,"1389":3898,"Ġmet":3899,"hether":3900,"Ġfollowing":3901,"Ġseveral":3902,"931":3903,"Ġ15":3904,"1428":3905,"1116":3906,"1172":3907,"ĠBe":3908,"ĠFe":3909,"ĠHigh":3910,"Ġprogram":3911,"mont":3912,"aging":3913,"exas":3914,"board":3915,"fact":3916,"1117":3917,"1357":3918,"1367":3919,"ilities":3920,"asia":3921,"Ġless":3922,"itizen":3923,"ĠEx":3924,"Ġfinal":3925,"BC":3926,"1184":3927,"1300":3928,"http":3929,"Ġdist":3930,"acter":3931,"Ġpresident":3932,"Com":3933,"1269":3934,"1436":3935,"cogn":3936,"struct":3937,"lan":3938,"1320":3939,"Ġsocial":3940,"Ġmust":3941,"Ġmajor":3942,"ows":3943,"Ġloc":3944,"rior":3945,"tect":3946,"markets":3947,"1249":3948,"1438":3949,"Ġinj":3950,"ĠPresident":3951,"1067":3952,"1524":3953,"eeks":3954,"1418":3955,"1174":3956,"1316":3957,"ukraine":3958,"ichael":3959,"1230":3960,"1178":3961,"1598":3962,"leged":3963,"riving":3964,"irmingham":3965,"Be":3966,"reme":3967,"ateg":3968,"gun":3969,"mo":3970,"wrest":3971,"1457":3972,"1317":3973,"mitted":3974,"biden":3975,"1458":3976,"1617":3977,"Ġfil":3978,"Ġhost":3979,"Ġbecome":3980,"worth":3981,"ptember":3982,"ops":3983,"1094":3984,"1404":3985,"1308":3986,"1526":3987,"inquir":3988,"empt":3989,"ĠIsrael":3990,"found":3991,"1456":3992,"ecut":3993,"ker":3994,"1209":3995,"1427":3996,"next":3997,"Ġacc":3998,"vision":3999,"Ġexperience":4000,"1187":4001,"Ġbring":4002,"Ġinvol":4003,"ete":4004,"Ġreason":4005,"heraldscotland":4006,"lay":4007,"1437":4008,"Ġmatch":4009,"irth":4010,"estin":4011,"ĠMarch":4012,"femail":4013,"government":4014,"Ġoc":4015,"Ġpar":4016,"history":4017,"ients":4018,"tim":4019,"1539":4020,"incre":4021,"comes":4022,"Ġstop":4023,"othing":4024,"1309":4025,"1508":4026,"resh":4027,"ubs":4028,"dates":4029,"vill":4030,"1096":4031,"1293":4032,"1500":4033,"ĠSchool":4034,"ĠCouncil":4035,"Ġview":4036,"Ġavailable":4037,"person":4038,"1008":4039,"1420":4040,"1460":4041,"1499":4042,"Ġfurther":4043,"child":4044,"Ġris":4045,"ension":4046,"ograph":4047,"mittee":4048,"Ġgrowth":4049,"kes":4050,"1289":4051,"Ġfans":4052,"ĠLLC":4053,"Ġdesign":4054,"1356":4055,"1379":4056,"ota":4057,"quired":4058,"Ġvide":4059,"vi":4060,"1089":4061,"1409":4062,"1380":4063,"ivity":4064,"Ġexc":4065,"non":4066,"1095":4067,"1446":4068,"1324":4069,"1384":4070,"ghan":4071,"fully":4072,"Bl":4073,"1022":4074,"1044":4075,"1086":4076,"1299":4077,"iti":4078,"andstar":4079,"americ":4080,"Ġspecial":4081,"spir":4082,"bd":4083,"hill":4084,"1559":4085,"Ġstarted":4086,"1164":4087,"1398":4088,"1587":4089,"Ġcustom":4090,"ession":4091,"amilies":4092,"Ġgetting":4093,"latimes":4094,"buzzfeed":4095,"1319":4096,"1349":4097,"Ġtal":4098,"Ġtaken":4099,"ĠCor":4100,"ountain":4101,"1469":4102,"ourt":4103,"ĠYork":4104,"IN":4105,"fic":4106,"here":4107,"1529":4108,"istor":4109,"ored":4110,"Ġprevious":4111,"Ġamong":4112,"say":4113,"1523":4114,"Ġtest":4115,"ixp":4116,"1430":4117,"1368":4118,"ules":4119,"travel":4120,"ae":4121,"1296":4122,"1488":4123,"Ġtaking":4124,"Ġsw":4125,"aper":4126,"1196":4127,"1618":4128,"Ġfight":4129,"Ġsmall":4130,"aughter":4131,"Se":4132,"case":4133,"Ġcoming":4134,"Ġ2021":4135,"Ġ18":4136,"1666":4137,"uple":4138,"ify":4139,"develop":4140,"women":4141,"ja":4142,"san":4143,"Ġinfl":4144,"Ġgener":4145,"angu":4146,"trends":4147,"mb":4148,"sn":4149,"1075":4150,"1284":4151,"1530":4152,"Ġtotal":4153,"latest":4154,"1106":4155,"fans":4156,"1546":4157,"1550":4158,"1578":4159,"1570":4160,"utions":4161,"ĠServ":4162,"ashington":4163,"1448":4164,"1353":4165,"aced":4166,"anger":4167,"New":4168,"1303":4169,"vening":4170,"azine":4171,"Ġenough":4172,"hire":4173,"jud":4174,"1222":4175,"1306":4176,"eless":4177,"Ġeffort":4178,"ounds":4179,"--":4180,"dom":4181,"pite":4182,"1242":4183,"conf":4184,"ĠHouse":4185,"ohnson":4186,"1105":4187,"sand":4188,"1167":4189,"1175":4190,"ko":4191,"mig":4192,"1001":4193,"1241":4194,"Ġsl":4195,"ashion":4196,"Ġdoing":4197,"bostonherald":4198,"1527":4199,"ert":4200,"ains":4201,"overnor":4202,"Ġmoving":4203,"1287":4204,"1466":4205,"1517":4206,"1528":4207,"orge":4208,"Ġlow":4209,"Ġclass":4210,"ida":4211,"secur":4212,"Ġgiven":4213,"ĠNorth":4214,"1110":4215,"1189":4216,"1518":4217,"ounce":4218,"nbc":4219,"1282":4220,"1498":4221,"1519":4222,"Ġeffect":4223,"short":4224,"Man":4225,"kn":4226,"1132":4227,"1590":4228,"Ġcut":4229,"ĠDep":4230,"ĠUk":4231,"fric":4232,"hard":4233,"pers":4234,"1435":4235,"1459":4236,"1455":4237,"1557":4238,"aring":4239,"Ġwithin":4240,"Ġcommun":4241,"aug":4242,"prise":4243,"happ":4244,"Ġveh":4245,"1208":4246,"ilt":4247,"blue":4248,"bon":4249,"gold":4250,"john":4251,"1002":4252,"1176":4253,"1558":4254,"Ġbro":4255,"movie":4256,"freepress":4257,"jan":4258,"1295":4259,"1377":4260,"1103":4261,"1074":4262,"1162":4263,"1588":4264,"rices":4265,"merc":4266,"crash":4267,"japan":4268,"wales":4269,"1477":4270,"1516":4271,"1537":4272,"them":4273,"Ġball":4274,"ental":4275,"gree":4276,"hood":4277,"Ġens":4278,"Ġinc":4279,"ĠApril":4280,"avy":4281,"Ġcelebr":4282,"federal":4283,"pop":4284,"prom":4285,"1569":4286,"1593":4287,"Ġeng":4288,"1265":4289,"1207":4290,"1251":4291,"1434":4292,"1153":4293,"ouch":4294,"Ġwatch":4295,"network":4296,"Ġstatement":4297,"race":4298,"1003":4299,"1205":4300,"acing":4301,"ĠCar":4302,"earch":4303,"phot":4304,"Ġproble":4305,"rivate":4306,"Ġresult":4307,"going":4308,"1307":4309,"1596":4310,"resp":4311,"they":4312,"ocum":4313,"Ġrat":4314,"fa":4315,"1255":4316,"1468":4317,"1376":4318,"Ġmid":4319,"Ġstaff":4320,"ĠBank":4321,"1542":4322,"Ġthought":4323,"abl":4324,"ĠPolice":4325,"clus":4326,"irector":4327,"1540":4328,"Mar":4329,"got":4330,"1314":4331,"1568":4332,"erious":4333,"emy":4334,"Ġusing":4335,"1104":4336,"1124":4337,"ĠWorld":4338,"ctober":4339,"1560":4340,"Ġreach":4341,"ĠSte":4342,"price":4343,"ĠStreet":4344,"Ġparty":4345,"showbiz":4346,"denver":4347,"1214":4348,"1275":4349,"1154":4350,"valley":4351,"ociety":4352,"Ġdoesn":4353,"Ġexpected":4354,"ampionship":4355,"ye":4356,"1535":4357,"1547":4358,"near":4359,"Ġtow":4360,"ulation":4361,"ule":4362,"Ġothers":4363,"prem":4364,"Ġbreak":4365,"oes":4366,"wal":4367,"Ġide":4368,"1264":4369,"ĠRep":4370,"Ġcharg":4371,"azon":4372,"Ġmean":4373,"contin":4374,"social":4375,"1274":4376,"blive":4377,"triblive":4378,"1252":4379,"1292":4380,"Ġface":4381,"ĠAmerican":4382,"Ġasked":4383,"five":4384,"1478":4385,"1525":4386,"oud":4387,"sea":4388,"Ġstri":4389,"Ġyet":4390,"colum":4391,"Ġsignificant":4392,"aps":4393,"hav":4394,"Ġ13":4395,"1489":4396,"1556":4397,"ouble":4398,"Ġheld":4399,"ocr":4400,"Ġcoach":4401,"exp":4402,"Ġleast":4403,"Ġquick":4404,"stead":4405,"Ġannounced":4406,"1297":4407,"1416":4408,"1486":4409,"1387":4410,"avor":4411,"Ġclose":4412,"Me":4413,"ees":4414,"Ġaction":4415,"ĠRes":4416,"Ġprovide":4417,"ishing":4418,"Ġkind":4419,"return":4420,"killed":4421,"card":4422,"itness":4423,"project":4424,"writ":4425,"1245":4426,"1232":4427,"1616":4428,"Ġthough":4429,"ibility":4430,"Ġdecision":4431,"ollowing":4432,"Ġbuilding":4433,"birmingham":4434,"foot":4435,"pan":4436,"1083":4437,"1476":4438,"1565":4439,"Ġnet":4440,"airs":4441,"1285":4442,"1182":4443,"Ġpat":4444,"away":4445,"college":4446,"announc":4447,"1155":4448,"1173":4449,"1192":4450,"slash":4451,"los":4452,"1599":4453,"aries":4454,"elves":4455,"iday":4456,"ships":4457,"equ":4458,"lant":4459,"some":4460,"1864":4461,"comic":4462,"Ġonce":4463,"ĠPart":4464,"Ġpresent":4465,"1399":4466,"1332":4467,"1386":4468,"still":4469,"atic":4470,"Ġmor":4471,"Ġlikely":4472,"ĠEn":4473,"wrestling":4474,"hon":4475,"series":4476,"Ġdone":4477,"Ġknown":4478,"investment":4479,"mad":4480,"orn":4481,"Ġmod":4482,"ustain":4483,"white":4484,"bad":4485,"fra":4486,"future":4487,"1133":4488,"weekly":4489,"california":4490,"Ġrecently":4491,"ER":4492,"My":4493,"1417":4494,"isode":4495,"Ġsure":4496,"chief":4497,"iolence":4498,"bow":4499,"det":4500,"mot":4501,"1408":4502,"1395":4503,"corpor":4504,"ĠInter":4505,"maine":4506,"Con":4507,"basketball":4508,"Ġhistory":4509,"ĠSup":4510,"Ġemploy":4511,"1244":4512,"1495":4513,"1394":4514,"1533":4515,"1608":4516,"Ġla":4517,"Ġbehind":4518,"being":4519,"Ġsecurity":4520,"je":4521,"turn":4522,"1276":4523,"1445":4524,"1355":4525,"1589":4526,"1507":4527,"ĠCent":4528,"ume":4529,"technology":4530,"1497":4531,"stop":4532,"Ġmusic":4533,"Ġdr":4534,"ĠWh":4535,"1163":4536,"1509":4537,"Ġthing":4538,"results":4539,"ugust":4540,"jack":4541,"Ġ9":4542,"ils":4543,"Ġhom":4544,"dict":4545,"oke":4546,"1031":4547,"1595":4548,"Ġinst":4549,"imin":4550,"Ġever":4551,"sch":4552,"ya":4553,"Ġauthor":4554,"Ġsus":4555,"Ġmult":4556,"According":4557,"europe":4558,"1233":4559,"1152":4560,"Ġmen":4561,"olf":4562,"Ġreve":4563,"1101":4564,"bat":4565,"hur":4566,"haw":4567,"pot":4568,"1467":4569,"cities":4570,"Ã©":4571,"ona":4572,"entry":4573,"Ġcond":4574,"Ġago":4575,"shows":4576,"Ġpossible":4577,"1954":4578,"ilar":4579,"china":4580,"ĠFin":4581,"Ġspace":4582,"Ġissues":4583,"inquirer":4584,"ece":4585,"1496":4586,"Ġrole":4587,"Ġcertain":4588,"mand":4589,"nigeria":4590,"oice":4591,"Ġ0":4592,"Ġident":4593,"1283":4594,"1364":4595,"1538":4596,"era":4597,"Ġste":4598,"1487":4599,"iter":4600,"Ġhope":4601,"second":4602,"ĠCourt":4603,"ĠJune":4604,"Car":4605,"Pr":4606,"bra":4607,"cs":4608,"ique":4609,"td":4610,"things":4611,"Ġcrit":4612,"ĠAir":4613,"ellow":4614,"tries":4615,"1407":4616,"1183":4617,"aves":4618,"legal":4619,"murder":4620,"1484":4621,"Ġloss":4622,"ĠCap":4623,"These":4624,"Ġroom":4625,"duced":4626,"students":4627,"observer":4628,"northern":4629,"farm":4630,"kr":4631,"1254":4632,"1185":4633,"stone":4634,"ationship":4635,"zer":4636,"Ġ14":4637,"Ġ16":4638,"1273":4639,"Ġgave":4640,"citizen":4641,"1465":4642,"1397":4643,"1351":4644,"istan":4645,"match":4646,"1365":4647,"1548":4648,"aylor":4649,"Ġneeds":4650,"Ġdevelopment":4651,"jewish":4652,"loss":4653,"want":4654,"1203":4655,"Ġlate":4656,"term":4657,"'ve":4658,"CO":4659,"iet":4660,"Ġold":4661,"1494":4662,"Ġbenef":4663,"gers":4664,"Ġ50":4665,"1206":4666,"1444":4667,"1345":4668,"Ġfront":4669,"children":4670,"oved":4671,"Ġfinancial":4672,"kin":4673,"tax":4674,"1463":4675,"1131":4676,"antis":4677,"arden":4678,"ĠJanuary":4679,"Ġindustry":4680,"bridge":4681,"cas":4682,"enced":4683,"burgh":4684,"Ex":4685,"human":4686,"sells":4687,"1021":4688,"1151":4689,"Ġtax":4690,"imately":4691,"Ġjob":4692,"Ġcompet":4693,"calls":4694,"allenge":4695,"bec":4696,"gov":4697,"rd":4698,"uit":4699,"1344":4700,"aniel":4701,"bing":4702,"1262":4703,"1485":4704,"1195":4705,"1363":4706,"alys":4707,"icem":4708,"trad":4709,"ĠMinister":4710,"security":4711,"1210":4712,"1202":4713,"1474":4714,"thehind":4715,"steel":4716,"radio":4717,"Is":4718,"hospital":4719,"ters":4720,"Ġbit":4721,"christmas":4722,"Ġlarg":4723,"using":4724,"usband":4725,"wild":4726,"1111":4727,"eding":4728,"iance":4729,"Ġdev":4730,"Ġmeet":4731,"Ġener":4732,"uggest":4733,"dy":4734,"Ġ17":4735,"1567":4736,"Ġoften":4737,"agon":4738,"dc":4739,"fp":4740,"2070":4741,"1305":4742,"1506":4743,"1610":4744,"investor":4745,"burn":4746,"gi":4747,"Ġbr":4748,"Ġoffer":4749,"Ġwoman":4750,"Ġvideo":4751,"front":4752,"mill":4753,"through":4754,"rep":4755,"ali":4756,"rob":4757,"Ġca":4758,"ady":4759,"trust":4760,"country":4761,"Ġpercent":4762,"yl":4763,"1491":4764,"1785":4765,"Ġlarge":4766,"interest":4767,"ricket":4768,"bree":4769,"success":4770,"1181":4771,"1342":4772,"1304":4773,"1669":4774,"onto":4775,"Ġaddress":4776,"western":4777,"1372":4778,"lev":4779,"Ġseven":4780,"1374":4781,"1576":4782,"1607":4783,"Ġtreat":4784,"Ġwanted":4785,"hall":4786,"1253":4787,"Ġhours":4788,"Ġled":4789,"spot":4790,"camp":4791,"ication":4792,"lete":4793,"Ġoffice":4794,"ground":4795,"1405":4796,"1604":4797,"Ġmeeting":4798,"Ġpotential":4799,"1472":4800,"1333":4801,"atives":4802,"Ġshows":4803,"bal":4804,"fol":4805,"sold":4806,"tur":4807,"1375":4808,"1597":4809,"iece":4810,"Ġvot":4811,"mic":4812,"past":4813,"1475":4814,"1715":4815,"Ġwhether":4816,"Ġmoment":4817,"Ġcomplet":4818,"Ġincrease":4819,"train":4820,"1401":4821,"1545":4822,"anks":4823,"Ġwa":4824,"iple":4825,"when":4826,"ĠOr":4827,"Ġplayed":4828,"Ġsaying":4829,"Ġbelieve":4830,"1555":4831,"while":4832,"Ġcourse":4833,"Ġreceived":4834,"mob":4835,"1281":4836,"1310":4837,"Ġchild":4838,"legit":4839,"Pro":4840,"mac":4841,"1422":4842,"2068":4843,"inking":4844,"Ġfirm":4845,"Ġins":4846,"Ġlim":4847,"ĠBar":4848,"Ġvol":4849,"company":4850,"him":4851,"1243":4852,"2000":4853,"1505":4854,"Ġbas":4855,"omet":4856,"ither":4857,"Ġstake":4858,"Ġmeans":4859,"Ġquestion":4860,"punchng":4861,"py":4862,"young":4863,"1493":4864,"1645":4865,"inn":4866,"release":4867,"Ġmar":4868,"ĠFor":4869,"Ġtrying":4870,"alysts":4871,"ij":4872,"1221":4873,"lee":4874,"Ġhuman":4875,"Ġcoll":4876,"ĠJuly":4877,"rought":4878,"Ġarrest":4879,"Ġdiscuss":4880,"ĠManagement":4881,"cru":4882,"1492":4883,"1383":4884,"1615":4885,"1609":4886,"tern":4887,"Ġnational":4888,"concer":4889,"breaking":4890,"Ġeverything":4891,"ahead":4892,"1452":4893,"1969":4894,"erry":4895,"strong":4896,"Ġsaw":4897,"Ġappear":4898,"ecutive":4899,"ID":4900,"kent":4901,"1453":4902,"1603":4903,"andemic":4904,"heart":4905,"Tr":4906,"1211":4907,"onse":4908,"Ġport":4909,"Ġmakes":4910,"wealth":4911,"ĠRoad":4912,"breeze":4913,"pri":4914,"1213":4915,"1606":4916,"infl":4917,"Ġty":4918,"teen":4919,"ocked":4920,"Ġappe":4921,"special":4922,"Mc":4923,"lier":4924,"1263":4925,"1747":4926,"illing":4927,"Ġstay":4928,"climate":4929,"works":4930,"inese":4931,"medi":4932,"ĠOctober":4933,"digitaltrends":4934,"1403":4935,"1373":4936,"Ġfall":4937,"eles":4938,"ersey":4939,"Ġname":4940,"âĢĿ.":4941,"Ġenjoy":4942,"ĠCommission":4943,"atural":4944,"Ġvisit":4945,"Cl":4946,"bri":4947,"hib":4948,"1352":4949,"1748":4950,"appro":4951,"ĠPar":4952,"phone":4953,"ĠWill":4954,"ĠUK":4955,"Ġincreased":4956,"Ġlaunch":4957,"did":4958,"1464":4959,"1833":4960,"stream":4961,"days":4962,"Ġratio":4963,"comicbook":4964,"1443":4965,"1583":4966,"erman":4967,"Ġcreat":4968,"grand":4969,"growth":4970,"mith":4971,"Ġkey":4972,"idence":4973,"shooting":4974,"anned":4975,"ranch":4976,"Fin":4977,"wins":4978,"Ġ25":4979,"1291":4980,"Ġahead":4981,"aste":4982,"overs":4983,"lines":4984,"Ġenergy":4985,"1102":4986,"1371":4987,"ola":4988,"Ġstar":4989,"mus":4990,"1393":4991,"coach":4992,"chest":4993,"dailybreeze":4994,"tribune":4995,"duce":4996,"Ġpolitical":4997,"services":4998,"bell":4999,"1473":5000,"1322":5001,"1702":5002,"oul":5003,"ently":5004,"union":5005,"blog":5006,"pected":5007,"espec":5008,"ĠDepartment":5009,"Some":5010,"far":5011,"1483":5012,"ala":5013,"istic":5014,"Ġchalleng":5015,"international":5016,"AS":5017,"1294":5018,"1594":5019,"Ġdam":5020,"Ġlost":5021,"party":5022,"struction":5023,"cross":5024,"ming":5025,"ties":5026,"1261":5027,"1952":5028,"ĠWe":5029,"ĠEurope":5030,"economy":5031,"drug":5032,"eag":5033,"2359":5034,"adium":5035,"omas":5036,"arent":5037,"ĠHar":5038,"Ġexpl":5039,"counter":5040,"Ġunderstand":5041,"Ġeveryone":5042,"1191":5043,"1302":5044,"oring":5045,"Ġpick":5046,"rench":5047,"Ġinclude":5048,"alysis":5049,"especially":5050,"mass":5051,"1575":5052,"ĠAfric":5053,"glish":5054,"voice":5055,"liverpool":5056,"cam":5057,"Ġ24":5058,"left":5059,"Ġperformance":5060,"1321":5061,"1577":5062,"1574":5063,"1824":5064,"Ġlight":5065,"Ġemer":5066,"apr":5067,"sources":5068,"Ġphot":5069,"No":5070,"mart":5071,"1231":5072,"1716":5073,"threat":5074,"Ġhospital":5075,"Ġcampaign":5076,"Ġreleased":5077,"ourney":5078,"does":5079,"Ġdiffic":5080,"Ġcurrently":5081,"reveals":5082,"Mr":5083,"gar":5084,"half":5085,"ining":5086,"Ġfocus":5087,"Ġmess":5088,"Ġmember":5089,"iginal":5090,"update":5091,"1544":5092,"1585":5093,"1501":5094,"1562":5095,"wwe":5096,"ander":5097,"Ġheart":5098,"1193":5099,"itics":5100,"Ġsex":5101,"Ġform":5102,"ĠAnd":5103,"features":5104,"ĠGu":5105,"ĠNovember":5106,"weet":5107,"Ġgoal":5108,"iers":5109,"1634":5110,"island":5111,"comment":5112,"Ġrepresent":5113,"umer":5114,"oogle":5115,"Ġrate":5116,"Ġparticular":5117,"ĠFebruary":5118,"1171":5119,"1552":5120,"2768":5121,"icip":5122,"Ġweeks":5123,"occer":5124,"Ġsaf":5125,"clud":5126,"Ġhigher":5127,"base":5128,"mult":5129,"1665":5130,"1976":5131,"editor":5132,"newcastle":5133,"ocrat":5134,"Ġresidents":5135,"Ġraised":5136,"icon":5137,"Ġtalk":5138,"izing":5139,"glas":5140,"icemag":5141,"IT":5142,"vin":5143,"Ġespecially":5144,"1341":5145,"urance":5146,"ctv":5147,"ĠMark":5148,"Ġplans":5149,"Ġbuy":5150,"ĠBlack":5151,"Ġfriends":5152,"investorplace":5153,"Ġbody":5154,"ĠCal":5155,"ĠGe":5156,"expressandstar":5157,"russia":5158,"ategory":5159,"birminghammail":5160,"1161":5161,"1522":5162,"1826":5163,"1821":5164,"street":5165,"atal":5166,"secre":5167,"ĠJohn":5168,"ĠLeague":5169,"Amer":5170,"boost":5171,"fast":5172,"gas":5173,"pa":5174,"edge":5175,"amid":5176,"updates":5177,"ĠAll":5178,"Ġmorning":5179,"Don":5180,"bul":5181,"1573":5182,"1941":5183,"eret":5184,"Ġgir":5185,"Ġcouple":5186,"ĠWar":5187,"acters":5188,"perth":5189,"oyal":5190,"colorado":5191,"aminer":5192,"1402":5193,"newsnetwork":5194,"istry":5195,"Ġimprove":5196,"Ġenvironment":5197,"guide":5198,"Ġpract":5199,"Ġearlier":5200,"find":5201,"mother":5202,"1512":5203,"1554":5204,"irement":5205,"teach":5206,"Ġcompanies":5207,"Ġminutes":5208,"oa":5209,"ux":5210,"cos":5211,"berg":5212,"poss":5213,"grad":5214,"Ġalmost":5215,"weekend":5216,"devicemag":5217,"advisors":5218,"1605":5219,"atory":5220,"Ġhon":5221,"irc":5222,"ĠMed":5223,"ĠDay":5224,"Ġsomeone":5225,"australia":5226,"march":5227,"uth":5228,"ĠX":5229,"1385":5230,"emp":5231,"bate":5232,"lab":5233,"1212":5234,"1817":5235,"thers":5236,"lew":5237,"Ġbegin":5238,"ably":5239,"ampton":5240,"reporter":5241,"ipl":5242,"sil":5243,"tre":5244,"1454":5245,"1301":5246,"1392":5247,"1584":5248,"ern":5249,"covery":5250,"hest":5251,"Ġground":5252,"Ġdirector":5253,"1819":5254,"Ġnon":5255,"iana":5256,"bol":5257,"1905":5258,"Ġbegan":5259,"ancy":5260,"ĠChina":5261,"service":5262,"eth":5263,"1442":5264,"1656":5265,"lement":5266,"ols":5267,"agn":5268,"Ġareas":5269,"Ġvalue":5270,"Ġopportunity":5271,"takes":5272,"1471":5273,"err":5274,"atest":5275,"Ġbased":5276,"feat":5277,"england":5278,"ritish":5279,"Ġcreate":5280,"1978":5281,"ena":5282,"Ġbar":5283,"ĠAp":5284,"Ġprov":5285,"Ġtechnology":5286,"Ġrisk":5287,"gall":5288,"rote":5289,"plans":5290,"aven":5291,"cris":5292,"office":5293,"ĠVal":5294,"Ġplaying":5295,"CA":5296,"die":5297,"kids":5298,"pto":5299,"summer":5300,"tions":5301,"1515":5302,"1680":5303,"Ġprotect":5304,"ĠDecember":5305,"ĠTrump":5306,"Ġtown":5307,"boss":5308,"1679":5309,"1758":5310,"uty":5311,"Ġrelease":5312,"appoint":5313,"acks":5314,"Ġneeded":5315,"deseret":5316,"dies":5317,"1564":5318,"1726":5319,"lean":5320,"Ġhot":5321,"Ġrevenue":5322,"ĠAugust":5323,"ustralian":5324,"viv":5325,"1592":5326,"erc":5327,"itz":5328,"aks":5329,"explained":5330,"talks":5331,"bang":5332,"fashion":5333,"six":5334,"1272":5335,"1451":5336,"1676":5337,"Ġlower":5338,"afety":5339,"Ġcontinued":5340,"Ġdifficult":5341,"Sp":5342,"makes":5343,"Ġ100":5344,"1381":5345,"1504":5346,"1502":5347,"1563":5348,"1639":5349,"Ġthreat":5350,"adian":5351,"irt":5352,"Ġcontract":5353,"2242":5354,"Ġdead":5355,"weather":5356,"Ġclub":5357,"Ġcouncil":5358,"Ġissue":5359,"Ġdeliver":5360,"ctvnews":5361,"inem":5362,"1812":5363,"environment":5364,"rivers":5365,"Pe":5366,"cc":5367,"hel":5368,"jun":5369,"1623":5370,"1823":5371,"Ġlo":5372,"ĠPal":5373,"Ġjud":5374,"inside":5375,"useum":5376,"Ġcareer":5377,"1414":5378,"1612":5379,"Ġdrop":5380,"Ġlif":5381,"ĠGl":5382,"program":5383,"ridge":5384,"Ġindivid":5385,"ociation":5386,"echo":5387,"walk":5388,"1553":5389,"Ġboard":5390,"Ġpush":5391,"Ġmot":5392,"Ġep":5393,"ĠAt":5394,"osco":5395,"Ġshot":5396,"dern":5397,"ipp":5398,"Ġoutside":5399,"Ġreports":5400,"Ġcharacter":5401,"ividend":5402,"announces":5403,"3143":5404,"title":5405,"1659":5406,"1642":5407,"inks":5408,"Ġaud":5409,"outhern":5410,"Ġsummer":5411,"ĠCenter":5412,"Ġ2020":5413,"amera":5414,"Ġactiv":5415,"Our":5416,"gener":5417,"huff":5418,"wind":5419,"Ġonline":5420,"ĠSen":5421,"phys":5422,"rypto":5423,"inson":5424,"Ġrespond":5425,"strike":5426,"Ġincident":5427,"gow":5428,"1461":5429,"1503":5430,"1753":5431,"1940":5432,"Ġrecogn":5433,"oph":5434,"kings":5435,"protest":5436,"Ġrespons":5437,"His":5438,"fair":5439,"Ġur":5440,"2048":5441,"1787":5442,"1846":5443,"urt":5444,"Ġnation":5445,"2163":5446,"brit":5447,"Ġlear":5448,"reng":5449,"Ġ2024":5450,"books":5451,"keep":5452,"1413":5453,"1572":5454,"1789":5455,"meet":5456,"Ġanything":5457,"womens":5458,"girl":5459,"mile":5460,"made":5461,"major":5462,"niger":5463,"pul":5464,"1643":5465,"there":5466,"ansport":5467,"Ġlatest":5468,"iful":5469,"ĠGovernment":5470,"minister":5471,"2127":5472,"mis":5473,"nj":5474,"purch":5475,"Ġmilitary":5476,"ockey":5477,"shot":5478,"aurant":5479,"magazine":5480,"ministration":5481,"site":5482,"1312":5483,"1331":5484,"1611":5485,"1713":5486,"1746":5487,"isl":5488,"bid":5489,"must":5490,"1532":5491,"1698":5492,"1667":5493,"1601":5494,"1839":5495,"arr":5496,"eline":5497,"vey":5498,"trial":5499,"Ġsoon":5500,"1432":5501,"1653":5502,"1711":5503,"leep":5504,"onews":5505,"anced":5506,"ancis":5507,"Ġplayer":5508,"letter":5509,"rugby":5510,"AT":5511,"1201":5512,"1410":5513,"1411":5514,"1683":5515,"1865":5516,"1994":5517,"Ġpain":5518,"omb":5519,"ĠCup":5520,"ivision":5521,"transfer":5522,"yond":5523,"1382":5524,"1624":5525,"igin":5526,"sequ":5527,"2182":5528,"ousands":5529,"anged":5530,"Ġhowever":5531,"Ġbecame":5532,"Ġrespect":5533,"Ġcapital":5534,"steelers":5535,"Col":5536,"tour":5537,"Ġchance":5538,"beaut":5539,"ĠStates":5540,"Ġofficials":5541,"fil":5542,"ios":5543,"iber":5544,"ouis":5545,"Ġsuggest":5546,"ula":5547,"weight":5548,"ariety":5549,"crisis":5550,"1482":5551,"1678":5552,"1780":5553,"1763":5554,"ario":5555,"Ġwrit":5556,"Ġrequire":5557,"oose":5558,"ĠBiden":5559,"ample":5560,"Ġresults":5561,"better":5562,"EC":5563,"makers":5564,"squ":5565,"1551":5566,"1799":5567,"1791":5568,"dex":5569,"nbcsports":5570,"lights":5571,"1655":5572,"1718":5573,"1719":5574,"imal":5575,"Ġelection":5576,"ores":5577,"Ġwasn":5578,"ĠTV":5579,"ĠEd":5580,"cred":5581,"policy":5582,"ĠSeptember":5583,"gate":5584,"housing":5585,"2021":5586,"1614":5587,"1693":5588,"covid":5589,"Ġparents":5590,"rab":5591,"1602":5592,"1867":5593,"2526":5594,"christ":5595,"secut":5596,"anging":5597,"Ġcompared":5598,"ootballtalk":5599,"kills":5600,"profootballtalk":5601,"suit":5602,"Ġpopular":5603,"Ġevents":5604,"wel":5605,"wick":5606,"2009":5607,"1710":5608,"1712":5609,"1709":5610,"1903":5611,"Ġprior":5612,"ches":5613,"rovers":5614,"adio":5615,"ellig":5616,"azing":5617,"ublican":5618,"Ġpolicy":5619,"krdo":5620,"bit":5621,"rise":5622,"tin":5623,"1412":5624,"1462":5625,"1689":5626,"1872":5627,"augh":5628,"Ind":5629,"Or":5630,"bn":5631,"mel":5632,"2039":5633,"1754":5634,"flix":5635,"ĠKing":5636,"Ġteams":5637,"Ġcontrol":5638,"Ġinvolved":5639,".'":5640,"AP":5641,"draw":5642,"wide":5643,"Ġenter":5644,"1391":5645,"1629":5646,"1631":5647,"though":5648,"2612":5649,"aling":5650,"Ġfig":5651,"ctors":5652,"ĠAI":5653,"roups":5654,"Ġtravel":5655,"building":5656,"1644":5657,"1762":5658,"stocks":5659,"Ġbook":5660,"eme":5661,"lying":5662,"ucks":5663,"liament":5664,"Ġexperi":5665,"Te":5666,"cricket":5667,"james":5668,"ua":5669,"2099":5670,"1728":5671,"1769":5672,"1842":5673,"arious":5674,"uts":5675,"irmed":5676,"Ġreview":5677,"Ġstep":5678,"ancing":5679,"Ġspot":5680,"Ġregion":5681,"general":5682,".,":5683,"Ste":5684,"ders":5685,"gal":5686,"wire":5687,"yd":5688,"2369":5689,"1687":5690,"1995":5691,"Ġwrote":5692,"Ġdrug":5693,"impact":5694,"emb":5695,"aine":5696,"pose":5697,"ollar":5698,"'m":5699,"move":5700,"1721":5701,"1813":5702,"1807":5703,"2507":5704,"ĠSan":5705,"ĠAng":5706,"letes":5707,"ournament":5708,"Ġinterview":5709,"Ġapproach":5710,"RE":5711,"david":5712,"2020":5713,"1652":5714,"1672":5715,"1749":5716,"str":5717,"stake":5718,"ocate":5719,"Ġmovie":5720,"ĠUkraine":5721,"En":5722,"mi":5723,"making":5724,"sam":5725,"1637":5726,"1834":5727,"icles":5728,"imary":5729,"Ġproperty":5730,"ĠEast":5731,"dam":5732,"during":5733,"hop":5734,"pack":5735,"1771":5736,"1971":5737,"club":5738,"ĠEl":5739,"ĠEng":5740,"Ġseem":5741,"workers":5742,"hollywood":5743,"ranked":5744,"target":5745,"uing":5746,"wife":5747,"2400":5748,"stag":5749,"ita":5750,"Ġsour":5751,"Ġbad":5752,"athol":5753,"Ġsingle":5754,"Ġ21":5755,"1421":5756,"2302":5757,"1627":5758,"1751":5759,"1859":5760,"Ġmother":5761,"otribune":5762,"ibtimes":5763,"Ġsuper":5764,"investing":5765,"ordin":5766,"ĠNews":5767,"chicagotribune":5768,"mond":5769,"rants":5770,"1311":5771,"1730":5772,"1880":5773,"reach":5774,"ato":5775,"rip":5776,"Ġshared":5777,"before":5778,"cna":5779,"1786":5780,"1882":5781,"3079":5782,"Ġsuff":5783,"amas":5784,"rail":5785,"quis":5786,"Ġcover":5787,"expl":5788,"Ġplat":5789,"ĠChristmas":5790,"bourne":5791,"Ġtraining":5792,"Fe":5793,"gro":5794,"2037":5795,"1720":5796,"1916":5797,"Ġdog":5798,"iminal":5799,"flip":5800,"sentinel":5801,"hal":5802,"mouth":5803,"1433":5804,"2073":5805,"1626":5806,"1724":5807,"thy":5808,"icester":5809,"Ġsen":5810,"Ġisn":5811,"phil":5812,"Ġleading":5813,"joe":5814,"african":5815,"Ġparticip":5816,"ON":5817,"bus":5818,"pc":5819,"1750":5820,"1849":5821,"Ġach":5822,"Ġwind":5823,"Ġfield":5824,"ocking":5825,"Ġcontribut":5826,"derby":5827,"nys":5828,"Inter":5829,"Ġteach":5830,"Ġthroughout":5831,"Ġassist":5832,"Ġleader":5833,"gaza":5834,"Ġobject":5835,"Ġdemand":5836,"ĠCanada":5837,"perthnow":5838,"iams":5839,"living":5840,"oom":5841,"2399":5842,"1571":5843,"1695":5844,"1933":5845,"Ġage":5846,"Ġwalk":5847,"owers":5848,"uke":5849,"space":5850,"info":5851,"2135":5852,"Can":5853,"festival":5854,"ximately":5855,"1677":5856,"1890":5857,"1809":5858,"Ġaffect":5859,"itic":5860,"Ġfather":5861,"early":5862,"Ġactually":5863,"iant":5864,"lanc":5865,"1511":5866,"1513":5867,"level":5868,"Ġeight":5869,"2111":5870,"AC":5871,"PS":5872,"dist":5873,"2091":5874,"1582":5875,"1725":5876,"rece":5877,"Ġfr":5878,"Ġlives":5879,"formed":5880,"offs":5881,"chroniclelive":5882,"2120":5883,"mil":5884,"2379":5885,"1531":5886,"1635":5887,"1649":5888,"1902":5889,"2910":5890,"aly":5891,"Ġmass":5892,"Ġmatter":5893,"ads":5894,"ags":5895,"suntimes":5896,"drink":5897,"Ġrunning":5898,"2380":5899,"1664":5900,"1740":5901,"1894":5902,"1920":5903,"Ġbank":5904,"lyn":5905,"spring":5906,"Ġdepart":5907,"range":5908,"Ġcosts":5909,"structure":5910,"EO":5911,"sim":5912,"1362":5913,"1675":5914,"1671":5915,"2110":5916,"Ġdig":5917,"ria":5918,"emer":5919,"Ġnote":5920,"Ġmeas":5921,"apple":5922,"1691":5923,"stant":5924,"2229":5925,"Ġboy":5926,"Ġpers":5927,"unk":5928,"sec":5929,"ables":5930,"ĠHealth":5931,"pon":5932,"1632":5933,"Ġtem":5934,"Ġhop":5935,"Ġdied":5936,"ology":5937,"globalnews":5938,"royal":5939,"1431":5940,"2028":5941,"1764":5942,"1827":5943,"raises":5944,"forward":5945,"2271":5946,"ĠFr":5947,"iversary":5948,"burg":5949,"Ġbelie":5950,"budget":5951,"Ġcustomers":5952,"Ġsafety":5953,"Now":5954,"job":5955,"2030":5956,"1621":5957,"1660":5958,"1947":5959,"1908":5960,"2866":5961,"rees":5962,"Ġmind":5963,"heat":5964,"again":5965,"ĠMe":5966,"door":5967,"2013":5968,"1313":5969,"1561":5970,"1699":5971,"1641":5972,"2223":5973,"Ġfamilies":5974,"Ġdeter":5975,"mselves":5976,"Ġfourth":5977,"bum":5978,"mess":5979,"2069":5980,"1622":5981,"1738":5982,"1790":5983,"1931":5984,"Ġhol":5985,"too":5986,"ĠDr":5987,"Ġofficer":5988,"Ġmedical":5989,"istoric":5990,"Just":5991,"gs":5992,"2065":5993,"1647":5994,"inv":5995,"1855":5996,"1984":5997,"1992":5998,"Ġthemselves":5999,"Ġsite":6000,"rif":6001,"mental":6002,"Ġshop":6003,"manchester":6004,"Ġchief":6005,"Ġ2019":6006,"Ġaccount":6007,"Ġensure":6008,"EN":6009,"cue":6010,"1681":6011,"1949":6012,"only":6013,"stat":6014,"forms":6015,"Ġnothing":6016,"Ġcomment":6017,"ĠHol":6018,"Her":6019,"May":6020,"gaming":6021,"oid":6022,"texas":6023,"vot":6024,"2327":6025,"1836":6026,"enal":6027,"Ġcash":6028,"ĠAm":6029,"ireland":6030,"2277":6031,"Ġvers":6032,"awa":6033,"Ġcountries":6034,"ĠFinancial":6035,"secret":6036,"DA":6037,"Ne":6038,"Ġ22":6039,"2326":6040,"1541":6041,"1729":6042,"1708":6043,"aka":6044,"2239":6045,"design":6046,"Ġofficers":6047,"Ġscene":6048,"Ġlegal":6049,"2103":6050,"pes":6051,"1271":6052,"1628":6053,"1670":6054,"1714":6055,"1759":6056,"1700":6057,"1800":6058,"1936":6059,"1951":6060,"leases":6061,"levision":6062,"Ġdate":6063,"akistan":6064,"oole":6065,"mania":6066,"ĠLondon":6067,"Ġdep":6068,"Ġhimself":6069,"Ġlonger":6070,"Ġapproximately":6071,"ĠInternational":6072,"thehindu":6073,"2101":6074,"ST":6075,"1481":6076,"2388":6077,"1543":6078,"1620":6079,"1638":6080,"1654":6081,"1723":6082,"urning":6083,"area":6084,"Ġrange":6085,"author":6086,"residents":6087,"vention":6088,"Ġworked":6089,"Ġentire":6090,"ocument":6091,"birth":6092,"Ġ40":6093,"2045":6094,"1736":6095,"1806":6096,"1861":6097,"1891":6098,"reds":6099,"eech":6100,"prison":6101,"Ġarriv":6102,"ĠInvest":6103,"iverse":6104,"border":6105,"ĠIndia":6106,"freepressjournal":6107,"district":6108,"1591":6109,"1650":6110,"1692":6111,"1770":6112,"1860":6113,"1871":6114,"1938":6115,"1985":6116,"Ġhuge":6117,"Ġprices":6118,"Ġinstit":6119,"roud":6120,"Ġsimilar":6121,"Ġglobal":6122,"AM":6123,"va":6124,"zy":6125,"1794":6126,"Ġfelt":6127,"Ġgeneral":6128,"Ġneigh":6129,"ields":6130,"Ġtransaction":6131,"ĠAmerica":6132,"patri":6133,"cid":6134,"cancer":6135,"Ġ23":6136,"1361":6137,"2328":6138,"1696":6139,"1694":6140,"1772":6141,"1781":6142,"1953":6143,"atre":6144,"atimes":6145,"Ġaut":6146,"commun":6147,"beach":6148,"Ġarg":6149,"2025":6150,"2051":6151,"1630":6152,"1640":6153,"1685":6154,"1923":6155,"1973":6156,"rops":6157,"Ġcandid":6158,"uled":6159,"raight":6160,"ĠAct":6161,"brand":6162,"print":6163,"Ġalleged":6164,"timesof":6165,"nesota":6166,"reedom":6167,"arrested":6168,"lake":6169,"via":6170,"2007":6171,"1657":6172,"1739":6173,"1788":6174,"70214":6175,"igan":6176,"columb":6177,"stars":6178,"hamas":6179,"Ġinternational":6180,"Ġdescri":6181,"student":6182,"Ġsituation":6183,"column":6184,"ĠParty":6185,"ho":6186,"mash":6187,"1441":6188,"1755":6189,"1822":6190,"1803":6191,"1912":6192,"1927":6193,"1945":6194,"arth":6195,"Ġfootball":6196,"Ġstrug":6197,"deals":6198,"corp":6199,"center":6200,"ĠService":6201,"bas":6202,"gins":6203,"looking":6204,"2336":6205,"1521":6206,"1668":6207,"1688":6208,"1768":6209,"1843":6210,"storm":6211,"Ġson":6212,"enty":6213,"exc":6214,"Ġsafe":6215,"tegr":6216,"Ġrates":6217,"Ġrather":6218,"ucky":6219,"Ġweekend":6220,"homes":6221,"clusive":6222,"bart":6223,"lov":6224,"2043":6225,"2356":6226,"1690":6227,"1662":6228,"1873":6229,"1977":6230,"another":6231,"Ġboost":6232,"ighest":6233,"Ġabove":6234,"ĠOff":6235,"Ġworkers":6236,"trail":6237,"Ġterms":6238,"boys":6239,"development":6240,"'ll":6241,"2146":6242,"FL":6243,"South":6244,"link":6245,"soccer":6246,"2329":6247,"2340":6248,"1619":6249,"1717":6250,"1735":6251,"1734":6252,"1745":6253,"1743":6254,"1921":6255,"Ġcred":6256,"Ġcases":6257,"Ġliving":6258,"rian":6259,"industry":6260,"Ġwhole":6261,"airman":6262,"Ġimmedi":6263,"heres":6264,"Ġinvestment":6265,"astern":6266,"Ġannual":6267,"Ġnearly":6268,"nh":6269,"Ġeducation":6270,"2019":6271,"2080":6272,"2390":6273,"1783":6274,"1919":6275,"1944":6276,"1993":6277,"Ġtakes":6278,"ribut":6279,"ements":6280,"quarter":6281,"Ġkilled":6282,"devon":6283,"celebrity":6284,"Ġvehicle":6285,"civil":6286,"Ġke":6287,"Ġoil":6288,"1761":6289,"Ġbud":6290,"Ġdrive":6291,"etro":6292,"utah":6293,"2249":6294,"2251":6295,"ĠJames":6296,"ification":6297,"Ġdespite":6298,"dont":6299,"sid":6300,"2090":6301,"2333":6302,"1673":6303,"1651":6304,"1814":6305,"1802":6306,"strate":6307,"estic":6308,"Ġstrate":6309,"earing":6310,"Ġproduction":6311,"Ġremains":6312,"bably":6313,"Ġconcerns":6314,"Ġcommunities":6315,"Ġproblem":6316,"possible":6317,"2117":6318,"AL":6319,"aew":6320,"2042":6321,"2378":6322,"reement":6323,"Ġfederal":6324,"uries":6325,"opens":6326,"astic":6327,"2278":6328,"visit":6329,"Am":6330,"Will":6331,"candid":6332,"peter":6333,"1648":6334,"1778":6335,"1914":6336,"1934":6337,"1957":6338,"2563":6339,"alex":6340,"Ġdeep":6341,"ĠAc":6342,"ĠPat":6343,"2194":6344,"aza":6345,"america":6346,"ugar":6347,"Ġelse":6348,"Ġeconomic":6349,"Ġrevealed":6350,"American":6351,"stagram":6352,"El":6353,"battle":6354,"wed":6355,"âĤ":6356,"2018":6357,"2001":6358,"1510":6359,"1888":6360,"stage":6361,"Ġcommit":6362,"Ġexist":6363,"3147":6364,"2026":6365,"2002":6366,"2052":6367,"2335":6368,"2306":6369,"1658":6370,"1766":6371,"1744":6372,"1701":6373,"2630":6374,"ademy":6375,"Ġworks":6376,"retary":6377,"Ġproducts":6378,"elligence":6379,"2108":6380,"Co":6381,"drop":6382,"late":6383,"mers":6384,"1625":6385,"1868":6386,"sters":6387,"riage":6388,"Ġstage":6389,"Ġconnect":6390,"ĠJack":6391,"Ġspent":6392,"missing":6393,"Ap":6394,"nba":6395,"2071":6396,"1767":6397,"1811":6398,"1906":6399,"states":6400,"Ġserious":6401,"iding":6402,"track":6403,"ansion":6404,"manchest":6405,"ĠHall":6406,"Ġleave":6407,"bled":6408,"risk":6409,"Ġrelationship":6410,"chnologies":6411,"2149":6412,"jersey":6413,"2373":6414,"1684":6415,"1774":6416,"1741":6417,"1792":6418,"1848":6419,"3630":6420,"arian":6421,"iling":6422,"Ġful":6423,"Ġinv":6424,"amazon":6425,"irms":6426,"Ġgas":6427,"ortion":6428,"2283":6429,"ĠNet":6430,"odes":6431,"Ġanyone":6432,"girls":6433,"Ġheard":6434,"Ġquickly":6435,"brown":6436,"pic":6437,"2346":6438,"2398":6439,"1776":6440,"1704":6441,"1854":6442,"1852":6443,"1910":6444,"Ġhor":6445,"Ġpret":6446,"umbers":6447,"2202":6448,"2293":6449,"arks":6450,"pulse":6451,"Bar":6452,"father":6453,"nis":6454,"uals":6455,"2017":6456,"1731":6457,"1796":6458,"1828":6459,"1805":6460,"1982":6461,"anda":6462,"iders":6463,"2170":6464,"2165":6465,"ĠNo":6466,"behind":6467,"creener":6468,"Ġcontact":6469,"covered":6470,"rosoft":6471,"Finally":6472,"National":6473,"gon":6474,"2350":6475,"2397":6476,"1795":6477,"1840":6478,"1853":6479,"1990":6480,"orial":6481,"Ġwel":6482,"decl":6483,"ieg":6484,"elled":6485,"avour":6486,"ashire":6487,"ikes":6488,"rength":6489,"2142":6490,"2152":6491,"gary":6492,"osh":6493,"yard":6494,"2087":6495,"2366":6496,"1765":6497,"1815":6498,"1816":6499,"2430":6500,"anth":6501,"Ġcause":6502,"across":6503,"erevening":6504,"Ġtrack":6505,"cars":6506,"scri":6507,"borough":6508,"broad":6509,"marketscreener":6510,"manchesterevening":6511,"manchestereveningnews":6512,"2136":6513,"Not":6514,"category":6515,"mat":6516,"2015":6517,"1757":6518,"1756":6519,"1818":6520,"1886":6521,"third":6522,"2992":6523,"recap":6524,"step":6525,"Ġsearch":6526,"Ġdraw":6527,"Ġeas":6528,"Ġencour":6529,"Ġhappened":6530,"Ġholdings":6531,"During":6532,"TV":6533,"dd":6534,"were":6535,"1727":6536,"1808":6537,"1964":6538,"2212":6539,"Ġbrought":6540,"ĠSmith":6541,"aked":6542,"awards":6543,"Ġquality":6544,"Ġissued":6545,"Ġpersonal":6546,"ĠCapital":6547,"Ġ27":6548,"1633":6549,"1686":6550,"1722":6551,"1752":6552,"1970":6553,"3535":6554,"Ġsqu":6555,"cele":6556,"Ġstates":6557,"2198":6558,"close":6559,"dailyrecord":6560,"bring":6561,"Ġapplic":6562,"venture":6563,"leaders":6564,"centralmaine":6565,"toronto":6566,"anguage":6567,"John":6568,"gri":6569,"rated":6570,"scotland":6571,"Ġ28":6572,"2014":6573,"2027":6574,"2034":6575,"1663":6576,"ini":6577,"1779":6578,"1733":6579,"1851":6580,"1932":6581,"1900":6582,"1981":6583,"3457":6584,"Ġtouch":6585,"ilty":6586,"Ġban":6587,"Ġbill":6588,"Ġbase":6589,"chat":6590,"Ġdriving":6591,"iller":6592,"essional":6593,"ĠDem":6594,"asset":6595,"caster":6596,"Ġhelped":6597,"Ġinvestig":6598,"standard":6599,"electric":6600,"070214":6601,"hun":6602,"kel":6603,"log":6604,"1682":6605,"1705":6606,"2471":6607,"Ġcross":6608,"newsasia":6609,"Ġgrand":6610,"ubu":6611,"contract":6612,"4567":6613,"ultural":6614,"channelnewsasia":6615,"region":6616,"lam":6617,"tar":6618,"2367":6619,"1661":6620,"1798":6621,"1797":6622,"1965":6623,"1983":6624,"2675":6625,"Ġinside":6626,"2186":6627,"trade":6628,"Ġchanges":6629,"rich":6630,"Ġnecess":6631,"businessmirror":6632,"science":6633,"Ġefforts":6634,",âĢĻ":6635,"OR":6636,"Ġi":6637,"2010":6638,"2097":6639,"2364":6640,"1918":6641,"changes":6642,"Ġtowards":6643,"ira":6644,"ongress":6645,"crunch":6646,"ĠAdvis":6647,"2116":6648,"hope":6649,"2339":6650,"1760":6651,"1928":6652,"1958":6653,"anime":6654,"2266":6655,"Ġround":6656,"Ġdefin":6657,"reek":6658,"ndtv":6659,"Ġperfect":6660,"player":6661,"Ġidea":6662,"event":6663,"ius":6664,"would":6665,"Ġ26":6666,"1793":6667,"1911":6668,"1925":6669,"2696":6670,"recor":6671,"Ġself":6672,"Ġbrand":6673,"amous":6674,"Ġcamp":6675,"deep":6676,"2289":6677,"2245":6678,"award":6679,"full":6680,"eye":6681,"ordan":6682,"holiday":6683,"standing":6684,"ormal":6685,"charged":6686,"Qu":6687,"had":6688,"iqu":6689,"sum":6690,"yer":6691,"2036":6692,"1930":6693,"1943":6694,"2414":6695,"remain":6696,"isation":6697,"unte":6698,"share":6699,"ĠBay":6700,"2176":6701,"episode":6702,"Ġamount":6703,"Ġbusinesses":6704,"gent":6705,"2029":6706,"2377":6707,"1636":6708,"1999":6709,"coast":6710,"2224":6711,"asp":6712,"illa":6713,"exico":6714,"2193":6715,"Ġexpress":6716,"property":6717,"centre":6718,"Ġgoals":6719,"Ġinvestigation":6720,"oftware":6721,"claims":6722,"americans":6723,"IC":6724,"data":6725,"lag":6726,"2308":6727,"1887":6728,"1885":6729,"1939":6730,"2658":6731,"around":6732,"psy":6733,"ouston":6734,"Ġfoot":6735,"2197":6736,"ĠRed":6737,"Ġexample":6738,"rainian":6739,"cycl":6740,"draft":6741,"1847":6742,"1878":6743,"1869":6744,"1917":6745,"2420":6746,"analysis":6747,"Ġtell":6748,"Ġsong":6749,"Ġprivate":6750,"chel":6751,"Ġeither":6752,"rial":6753,"apt":6754,"appe":6755,"ĠBen":6756,"2209":6757,"2181":6758,"brary":6759,"Ġquite":6760,"encies":6761,"foreign":6762,"anna":6763,"Ġphys":6764,"Ġscored":6765,"2133":6766,"billion":6767,"mom":6768,"rac":6769,"safety":6770,"1697":6771,"1775":6772,"1707":6773,"1866":6774,"1845":6775,"1909":6776,"2425":6777,"2558":6778,"2505":6779,"2710":6780,"2800":6781,"ati":6782,"cool":6783,"andjournal":6784,"illy":6785,"ĠAs":6786,"shore":6787,"many":6788,"grams":6789,"Ġmanagement":6790,"smith":6791,"thescottish":6792,"thescottishsun":6793,"IS":6794,"West":6795,"director":6796,"inch":6797,"1831":6798,"Ġsales":6799,"Ġmo":6800,"olina":6801,"irish":6802,"plus":6803,"flood":6804,"Ġregular":6805,"vidence":6806,"pur":6807,"paper":6808,"2012":6809,"2011":6810,"2077":6811,"2357":6812,"1732":6813,"1889":6814,"2663":6815,"staff":6816,"oria":6817,"leeds":6818,"Ġbroad":6819,"university":6820,"access":6821,"2201":6822,"conference":6823,"uclear":6824,"lected":6825,"Ġattempt":6826,"Ġofficial":6827,"ĠCollege":6828,"2118":6829,"More":6830,"gop":6831,"mum":6832,"push":6833,"snow":6834,"2004":6835,"1870":6836,"1924":6837,"Ġhel":6838,"owa":6839,"Ġgun":6840,"akh":6841,"2204":6842,"2164":6843,"2243":6844,"Ġvarious":6845,"ĠNor":6846,"actions":6847,"issues":6848,"Ġbiggest":6849,"Ġspecific":6850,"atholic":6851,"2124":6852,"2154":6853,"din":6854,"mut":6855,"2059":6856,"2050":6857,"2082":6858,"2396":6859,"2394":6860,"1979":6861,"3744":6862,"2210":6863,"2225":6864,"2228":6865,"Ġwrong":6866,"Ġclean":6867,"igen":6868,"predict":6869,"3365":6870,"ĠNigeria":6871,"ibly":6872,"3126":6873,"By":6874,"Every":6875,"military":6876,"oz":6877,"Ġz":6878,"2094":6879,"2349":6880,"1830":6881,"research":6882,"inger":6883,"utional":6884,"Ġlooks":6885,"ĠMor":6886,"2195":6887,"icket":6888,"trib":6889,"Ġaddition":6890,"Ġleaders":6891,"americas":6892,"ĠEngland":6893,"2155":6894,"2100":6895,"fan":6896,"ii":6897,"kid":6898,"2038":6899,"2389":6900,"1674":6901,"1877":6902,"1895":6903,"1961":6904,"2560":6905,"Ġmur":6906,"employ":6907,"2184":6908,"dailystar":6909,"pressandjournal":6910,"rowd":6911,"azz":6912,"ĠChrist":6913,"undreds":6914,"nesn":6915,"ĠComp":6916,"2126":6917,"2143":6918,"cat":6919,"2046":6920,"2368":6921,"1959":6922,"1997":6923,"2480":6924,"2497":6925,"Ġfavor":6926,"Ġpaid":6927,"Ġmis":6928,"Ġmater":6929,"ustin":6930,"Ġconduct":6931,"2297":6932,"2199":6933,"2265":6934,"prus":6935,"iction":6936,"winning":6937,"Ġearnings":6938,"Ġready":6939,"Ġquestions":6940,"Ġarrested":6941,".âĢĻ":6942,"dun":6943,"Ġant":6944,"2033":6945,"2374":6946,"1646":6947,"1948":6948,"onlin":6949,"3722":6950,"atlant":6951,"andcourier":6952,"never":6953,"acific":6954,"theage":6955,"aby":6956,"2200":6957,"avis":6958,"postandcourier":6959,"Ġintro":6960,"Ġconfirmed":6961,"Ġeconomy":6962,"writer":6963,"parents":6964,"2056":6965,"2031":6966,"2337":6967,"1737":6968,"1706":6969,"1784":6970,"1810":6971,"1804":6972,"1893":6973,"1913":6974,"1907":6975,"1962":6976,"2222":6977,"2114":6978,"Ġwhite":6979,"Ġcommon":6980,"ella":6981,"2270":6982,"assault":6983,"perform":6984,"meeting":6985,"middle":6986,"baseball":6987,"mashable":6988,"4191":6989,"aa":6990,"tem":6991,"wan":6992,"information":6993,"1835":6994,"1892":6995,"1935":6996,"1980":6997,"icated":6998,"Ġpull":6999,"poll":7000,"Ġbuying":7001,"plement":7002,"ĠRussia":7003,"launches":7004,"premier":7005,"Police":7006,"hab":7007,"treat":7008,"2074":7009,"1829":7010,"1879":7011,"1884":7012,"1922":7013,"1950":7014,"1901":7015,"2574":7016,"2646":7017,"2284":7018,"2279":7019,"2231":7020,"Ġseems":7021,"Ġopening":7022,"partners":7023,"Ġseeing":7024,"Ġincluded":7025,"Ġsett":7026,"deadline":7027,"2147":7028,"4185":7029,"Russ":7030,"sky":7031,"2078":7032,"2098":7033,"2067":7034,"2338":7035,"1832":7036,"2543":7037,"aters":7038,"alleged":7039,"Ġpict":7040,"Ġpandemic":7041,"Ġgets":7042,"Ġprobably":7043,"ĠGreen":7044,"rying":7045,"returns":7046,"traffic":7047,"mayor":7048,"rangers":7049,"eu":7050,"hul":7051,"poole":7052,"save":7053,"ufact":7054,"2063":7055,"1876":7056,"1897":7057,"1862":7058,"2435":7059,"2470":7060,"2216":7061,"Ġwants":7062,"irty":7063,"Ġgen":7064,"Ġgiving":7065,"ĠMac":7066,"2168":7067,"2287":7068,"ĠReg":7069,"3362":7070,"ption":7071,"Ġtrue":7072,"small":7073,"Ġblack":7074,"Ġminister":7075,"Ġstudent":7076,"umbai":7077,"itizens":7078,"photos":7079,"IL":7080,"cu":7081,"cant":7082,"1773":7083,"1837":7084,"1856":7085,"1801":7086,"1956":7087,"1942":7088,"1974":7089,"2429":7090,"2460":7091,"2546":7092,"releases":7093,"2213":7094,"Ġflow":7095,"heel":7096,"omen":7097,"Ġbeaut":7098,"Ġansw":7099,"prep":7100,"2236":7101,"Ġrout":7102,"product":7103,"Ġattention":7104,"stitute":7105,"baby":7106,"Ġinflation":7107,"Ġmultiple":7108,"glasgow":7109,"2141":7110,"gender":7111,"loc":7112,"2095":7113,"2064":7114,"2385":7115,"1742":7116,"1825":7117,"1863":7118,"2485":7119,"2812":7120,"itage":7121,"ĠDistrict":7122,"congress":7123,"odcast":7124,"bling":7125,"ĠChief":7126,"Ġregard":7127,"benef":7128,"angerous":7129,"ES":7130,"Min":7131,"bot":7132,"hockey":7133,"sale":7134,"scot":7135,"wich":7136,"1896":7137,"1883":7138,"1987":7139,"2477":7140,"enews":7141,"cop":7142,"Ġanalysts":7143,"2272":7144,"2259":7145,"phy":7146,"Ġche":7147,"ĠJapan":7148,"marvel":7149,"Ġbuilt":7150,"gery":7151,"Ġincludes":7152,"closed":7153,"april":7154,"2159":7155,"HS":7156,"bf":7157,"paul":7158,"2016":7159,"2332":7160,"2383":7161,"1782":7162,"1838":7163,"1898":7164,"1841":7165,"1960":7166,"2433":7167,"2516":7168,"2648":7169,"2891":7170,"isions":7171,"Ġcenter":7172,"iring":7173,"Ġgr":7174,"aint":7175,"2178":7176,"ishes":7177,"canindia":7178,"retirement":7179,"letters":7180,"baytoday":7181,"federalnewsnetwork":7182,"craft":7183,"lot":7184,"ltd":7185,"2312":7186,"2334":7187,"2386":7188,"1777":7189,"1915":7190,"1937":7191,"2445":7192,"2684":7193,"2720":7194,"Ġinit":7195,"anta":7196,"2254":7197,"ube":7198,"working":7199,"medical":7200,"Ġoffers":7201,"isease":7202,"tvshowbiz":7203,"Ġphone":7204,"ynam":7205,"Ġsimple":7206,"Ġelectric":7207,"2137":7208,"3113":7209,"First":7210,"hu":7211,"lock":7212,"2387":7213,"2305":7214,"2363":7215,"1929":7216,"1986":7217,"2544":7218,"rex":7219,"2220":7220,"Ġslow":7221,"Ġfair":7222,"Ġflo":7223,"quote":7224,"Ġcomb":7225,"2269":7226,"ĠJohnson":7227,"called":7228,"justice":7229,"Ġschools":7230,"ĠOffice":7231,"following":7232,"hum":7233,"lost":7234,"nership":7235,"2347":7236,"1820":7237,"2448":7238,"2490":7239,"2605":7240,"2208":7241,"2280":7242,"2253":7243,"ĠWashington":7244,"aze":7245,"insurance":7246,"Ġcontent":7247,"aii":7248,"depot":7249,"Ġstarting":7250,"current":7251,"Ġmaintain":7252,"ocracy":7253,"ĠValley":7254,"lancashire":7255,"North":7256,"friday":7257,"rig":7258,"rish":7259,"2370":7260,"3338":7261,"Ġhands":7262,"2206":7263,"2171":7264,"preview":7265,"Ġprogress":7266,"grade":7267,"ixed":7268,"Ġprep":7269,"cash":7270,"2322":7271,"1874":7272,"2577":7273,"2699":7274,"2930":7275,"stab":7276,"Ġtitle":7277,"Ġcy":7278,"rie":7279,"2263":7280,"backs":7281,"Ġclosed":7282,"2130":7283,"2150":7284,"Ge":7285,"uce":7286,"2053":7287,"2309":7288,"1989":7289,"1975":7290,"2506":7291,"2755":7292,"3617":7293,"stan":7294,"2215":7295,"Ġforce":7296,"estine":7297,"ĠAustralia":7298,"ounder":7299,"2177":7300,"2268":7301,"phen":7302,"activ":7303,"flict":7304,"Ġcannot":7305,"ickets":7306,"Ġgrowing":7307,"Ġpassed":7308,"Ġlevels":7309,"ruption":7310,"Ġpressure":7311,"People":7312,"2104":7313,"2122":7314,"CC":7315,"cra":7316,"dan":7317,"tips":7318,"2344":7319,"1581":7320,"2450":7321,"2820":7322,"2923":7323,"onation":7324,"reason":7325,"isa":7326,"comed":7327,"ĠSch":7328,"2187":7329,"Ġkids":7330,"counts":7331,"bsite":7332,"ĠQu":7333,"Ġallowed":7334,"fish":7335,"kins":7336,"2088":7337,"2076":7338,"2310":7339,"2323":7340,"1857":7341,"1881":7342,"2581":7343,"2652":7344,"3824":7345,"itation":7346,"ilson":7347,"Ġrepl":7348,"Ġevidence":7349,"outs":7350,"2207":7351,"2281":7352,"Ġpeace":7353,"Ġvictory":7354,"Ġestabl":7355,"ĠWhite":7356,"ometimes":7357,"Res":7358,"bie":7359,"2066":7360,"2003":7361,"2041":7362,"1988":7363,"Ġsustain":7364,"Ġhousing":7365,"Ġrecomm":7366,"ctions":7367,"ĠPl":7368,"2275":7369,"5499":7370,"monitor":7371,"Ġprojects":7372,"quires":7373,"liverpoole":7374,"liverpoolecho":7375,"VID":7376,"clear":7377,"dar":7378,"michael":7379,"rates":7380,"2354":7381,"2392":7382,"1946":7383,"2428":7384,"2453":7385,"2624":7386,"2603":7387,"2214":7388,"4553":7389,"Ġdest":7390,"2255":7391,"ryan":7392,"Ġweather":7393,"Ġtrust":7394,"coln":7395,"leadership":7396,"volution":7397,"ĠCalifornia":7398,"2157":7399,"2180":7400,"ED":7401,"fford":7402,"give":7403,"zen":7404,"2006":7405,"2365":7406,"1875":7407,"2476":7408,"2443":7409,"2528":7410,"2584":7411,"3591":7412,"role":7413,"Ġred":7414,"ifth":7415,"ĠDon":7416,"ansas":7417,"ĠHospital":7418,"ledge":7419,"related":7420,"Ġconditions":7421,"nar":7422,"song":7423,"winter":7424,"2084":7425,"2348":7426,"2352":7427,"1998":7428,"1963":7429,"2466":7430,"2724":7431,"2726":7432,"2782":7433,"2928":7434,"2112":7435,"Ġwr":7436,"Ġwife":7437,"elle":7438,"ador":7439,"ĠCO":7440,"aber":7441,"ĠMid":7442,"earth":7443,"2173":7444,"2174":7445,"2290":7446,"2234":7447,"without":7448,"schools":7449,"Ġtraffic":7450,"ocratic":7451,"Over":7452,"gj":7453,"hits":7454,"wy":7455,"2047":7456,"2376":7457,"2759":7458,"2897":7459,"arily":7460,"Ġfail":7461,"ĠGeneral":7462,"izes":7463,"Ġimpress":7464,"Ġoptions":7465,"bleeding":7466,"versation":7467,"Ġhappy":7468,"Ġhappen":7469,"score":7470,"signs":7471,"mercury":7472,"Ġmodel":7473,"2145":7474,"iat":7475,"nab":7476,"2005":7477,"2330":7478,"2384":7479,"1926":7480,"2416":7481,"2489":7482,"2610":7483,"3773":7484,"store":7485,"itbart":7486,"2175":7487,"Ġlearn":7488,"Ġoverall":7489,"Ġsupply":7490,"holders":7491,"born":7492,"Ġpositive":7493,"ĠRussian":7494,"suspect":7495,"estinian":7496,"japantoday":7497,"folio":7498,"4194":7499,"due":7500,"mountain":7501,"2079":7502,"2096":7503,"2081":7504,"2300":7505,"2486":7506,"2441":7507,"2525":7508,"2808":7509,"4637":7510,"icide":7511,"Ġbox":7512,"cher":7513,"alls":7514,"ĠPort":7515,"2192":7516,"ĠDis":7517,"Ġvill":7518,"Ġviolence":7519,"Ġcheck":7520,"Ġshowed":7521,"Ġwonder":7522,"economic":7523,"Ġtreatment":7524,"2102":7525,"From":7526,"Gu":7527,"focus":7528,"mind":7529,"oor":7530,"pick":7531,"rights":7532,"2054":7533,"2062":7534,"2325":7535,"2343":7536,"2304":7537,"2362":7538,"these":7539,"2426":7540,"2723":7541,"2799":7542,"3426":7543,"illegal":7544,"championship":7545,"Ġforces":7546,"2179":7547,"preci":7548,"2196":7549,"2244":7550,"ĠRiver":7551,"Ġnoted":7552,"points":7553,"orgia":7554,"cyprus":7555,"Ġruns":7556,"Ġprovided":7557,"Ġhomes":7558,"2131":7559,"cill":7560,"yes":7561,"youth":7562,"2434":7563,"2455":7564,"2541":7565,"2886":7566,"aland":7567,"Ġways":7568,"Ġfarm":7569,"ceed":7570,"Ġgone":7571,"oma":7572,"rav":7573,"ĠPe":7574,"2162":7575,"2190":7576,"ĠNe":7577,"3253":7578,"enses":7579,"Ġdecided":7580,"Ġcontinues":7581,"Ġstudy":7582,"advocate":7583,"Ġfunding":7584,"Ġdamage":7585,"Ġsenior":7586,"Following":7587,"fed":7588,"hen":7589,"little":7590,"2049":7591,"1991":7592,"2409":7593,"2484":7594,"ano":7595,"2535":7596,"2644":7597,"2211":7598,"2219":7599,"Ġhum":7600,"Ġdou":7601,"pread":7602,"2166":7603,"tection":7604,"block":7605,"Ġgoes":7606,"atters":7607,"gling":7608,"Ġfeatures":7609,"breitbart":7610,"players":7611,"Ġblock":7612,"Ġinvestors":7613,"reality":7614,"ingtonpost":7615,"ception":7616,"Ġdirectly":7617,"ĠClub":7618,"Ġremember":7619,"huffingtonpost":7620,"igenous":7621,"Even":7622,"wants":7623,"Ġ200":7624,"2060":7625,"2044":7626,"2075":7627,"2072":7628,"2321":7629,"2331":7630,"2672":7631,"2780":7632,"2927":7633,"rev":7634,"Ġdistrict":7635,"Ġcast":7636,"Ġcivil":7637,"ima":7638,"Ġgrad":7639,"Ġeasy":7640,"2203":7641,"Ġrights":7642,"3232":7643,"Ġ2018":7644,"Ġbelow":7645,"Ġestim":7646,"ĠRepublic":7647,"Ġbudget":7648,"2105":7649,"2125":7650,"Gl":7651,"bible":7652,"drive":7653,"johnson":7654,"scottish":7655,"2035":7656,"2360":7657,"2353":7658,"2475":7659,"2550":7660,"2770":7661,"2837":7662,"2958":7663,"rea":7664,"escap":7665,"Ġhar":7666,"Ġpitch":7667,"una":7668,"hex":7669,"ĠCongress":7670,"estate":7671,"ĠPhil":7672,"ustrial":7673,"2172":7674,"2169":7675,"Ġextra":7676,"Ġdebt":7677,"noon":7678,"scots":7679,"Ġpretty":7680,"Ġmurder":7681,"2113":7682,"2156":7683,"bound":7684,"cb":7685,"cel":7686,"2057":7687,"2058":7688,"2418":7689,"2578":7690,"2542":7691,"2749":7692,"Ġsale":7693,"church":7694,"usion":7695,"abet":7696,"apol":7697,"debate":7698,"2191":7699,"connect":7700,"Ġprotest":7701,"Ġoriginal":7702,"Ġunique":7703,"Ġsector":7704,"annual":7705,"hero":7706,"warning":7707,"Ġresponse":7708,"Ġpurchasing":7709,"2139":7710,"2158":7711,"RA":7712,"bust":7713,"ju":7714,"2089":7715,"2092":7716,"2495":7717,"2532":7718,"4718":7719,"Ġaware":7720,"Ġwild":7721,"Ġbus":7722,"adel":7723,"Ġloved":7724,"emon":7725,"ooth":7726,"ampions":7727,"2264":7728,"2258":7729,"ruth":7730,"slam":7731,"despite":7732,"safe":7733,"members":7734,"sandieg":7735,",'":7736,"2107":7737,"2151":7738,"cnet":7739,"2316":7740,"2355":7741,"2375":7742,"1899":7743,"2415":7744,"2452":7745,"2515":7746,"2651":7747,"2783":7748,"3556":7749,"4323":7750,"Ġgrew":7751,"Ġgroups":7752,"2296":7753,"2232":7754,"Ġleague":7755,"Ġknew":7756,"comput":7757,"clean":7758,"Ġpreviously":7759,"Ġchallenges":7760,"Ġplatform":7761,"2106":7762,"2121":7763,"2144":7764,"Har":7765,"Last":7766,"gad":7767,"tot":7768,"Ġess":7769,"2315":7770,"2351":7771,"iny":7772,"1703":7773,"2488":7774,"2474":7775,"2937":7776,"english":7777,"Ġavo":7778,"outhe":7779,"entially":7780,"ago":7781,"abin":7782,"2246":7783,"2185":7784,"2233":7785,"Ġweap":7786,"Ġability":7787,"Ġaccept":7788,"ĠChurch":7789,"load":7790,"celebrates":7791,"Ġopportunities":7792,"Ro":7793,"jp":7794,"likely":7795,"tes":7796,"vote":7797,"2093":7798,"2493":7799,"2218":7800,"arles":7801,"ications":7802,"Ġwal":7803,"Ġtw":7804,"Ġsch":7805,"4334":7806,"imum":7807,"spin":7808,"eeper":7809,"2262":7810,"obit":7811,"Ġsepar":7812,"athan":7813,"Ġagency":7814,"Ġincreasing":7815,"Ġ--":7816,"esperson":7817,"victory":7818,"Ġcharge":7819,"%.":7820,"2160":7821,"daughter":7822,"much":7823,"sud":7824,"Ġill":7825,"2314":7826,"2324":7827,"1972":7828,"2442":7829,"2406":7830,"coin":7831,"aron":7832,"6003":7833,"andal":7834,"iontribune":7835,"ouniontribune":7836,"2257":7837,"pring":7838,"Ġmanager":7839,"smart":7840,"iami":7841,"Ġturned":7842,"sandiegouniontribune":7843,"2086":7844,"1955":7845,"2439":7846,"2566":7847,"2590":7848,"2573":7849,"2680":7850,"3000":7851,"stay":7852,"Ġsched":7853,"Ġbur":7854,"Ġrequest":7855,"ires":7856,"2205":7857,"ĠTw":7858,"ĠFore":7859,"refer":7860,"ĠStar":7861,"Ġpartner":7862,"wars":7863,"presents":7864,"2085":7865,"2008":7866,"2557":7867,"2691":7868,"3085":7869,"3869":7870,"Ġtour":7871,"islat":7872,"Ġcris":7873,"adi":7874,"otional":7875,"Ġstore":7876,"bron":7877,"flor":7878,"Ġimpro":7879,"Ġusers":7880,"Ġexpand":7881,"gjsentinel":7882,"2134":7883,"Im":7884,"mes":7885,"variety":7886,"2345":7887,"inburgh":7888,"2444":7889,"2451":7890,"2656":7891,"2665":7892,"4648":7893,"Ġsense":7894,"commission":7895,"Ġbo":7896,"chip":7897,"2261":7898,"Ġadding":7899,"Ġmoved":7900,"ski":7901,"accused":7902,"Ġclaimed":7903,"ĠServices":7904,"Ġparticularly":7905,"Par":7906,"dark":7907,"faces":7908,"2395":7909,"1996":7910,"2633":7911,"2606":7912,"2607":7913,"2809":7914,"cou":7915,"Ġsn":7916,"Ġsat":7917,"Ġbattle":7918,"Ġinstead":7919,"olution":7920,"abour":7921,"ĠBel":7922,"ackle":7923,"2273":7924,"2238":7925,"Ġrace":7926,"Ġproper":7927,"Ġexact":7928,"finance":7929,"mobile":7930,"2132":7931,"husband":7932,"jon":7933,"jim":7934,"rules":7935,"2083":7936,"2423":7937,"2459":7938,"2467":7939,"2408":7940,"2564":7941,"2669":7942,"2731":7943,"icans":7944,"Ġscreen":7945,"Ġbal":7946,"owe":7947,"Ġstream":7948,"2167":7949,"2240":7950,"2235":7951,"ĠGold":7952,"forest":7953,"Ġfollowed":7954,"Ġcrash":7955,"ĠTrust":7956,"Ġscore":7957,"2140":7958,"Since":7959,"cn":7960,"violence":7961,"2361":7962,"2401":7963,"2540":7964,"2580":7965,"2628":7966,"2678":7967,"2834":7968,"2221":7969,"chris":7970,"eta":7971,"aya":7972,"Ġlack":7973,"essor":7974,"debt":7975,"ĠBro":7976,"Ġattract":7977,"2299":7978,"2189":7979,"Ġvote":7980,"active":7981,"ensus":7982,"netflix":7983,"okes":7984,"Ġprevent":7985,"espite":7986,"diary":7987,"rupt":7988,"injury":7989,"Ġoccur":7990,"Ġstrike":7991,"3140":7992,"3248":7993,"Do":7994,"iar":7995,"nik":7996,"patch":7997,"ym":7998,"2055":7999,"2411":8000,"2436":8001,"2727":8002,"Ġiniti":8003,"Ġmental":8004,"Ġbeyond":8005,"abilities":8006,"orea":8007,"ĠDavid":8008,"2237":8009,"2260":8010,"proble":8011,"stein":8012,"Ġincred":8013,"Ġfunds":8014,"mercial":8015,"3249":8016,"bull":8017,"mens":8018,"won":8019,"2318":8020,"2341":8021,"2527":8022,"2579":8023,"2570":8024,"2781":8025,"Ġaward":8026,"nection":8027,"acity":8028,"Ġperform":8029,"itten":8030,"nergy":8031,"rison":8032,"leads":8033,"icago":8034,"Another":8035,"Ġcreated":8036,"BA":8037,"pict":8038,"yo":8039,"yr":8040,"ination":8041,"2554":8042,"2670":8043,"2822":8044,"2226":8045,"Ġten":8046,"leicester":8047,"Ġbought":8048,"Ġpubl":8049,"Ġculture":8050,"ifts":8051,"ĠBritish":8052,"2250":8053,"3308":8054,"3280":8055,"Ġitself":8056,"discuss":8057,"harry":8058,"limited":8059,"charges":8060,"ĠCompany":8061,"2115":8062,"Mon":8063,"World":8064,"camera":8065,"nal":8066,"2391":8067,"1844":8068,"2427":8069,"2468":8070,"2523":8071,"2531":8072,"2509":8073,"2583":8074,"2679":8075,"2632":8076,"2609":8077,"2661":8078,"2748":8079,"2942":8080,"2963":8081,"3456":8082,"strug":8083,"4634":8084,"5656":8085,"Ġtable":8086,"challenge":8087,"opening":8088,"Ġnor":8089,"Ġnine":8090,"2276":8091,"2241":8092,"2230":8093,"ueen":8094,"Ġwhose":8095,"notting":8096,"getting":8097,"Ġevening":8098,"Ġowned":8099,"ĠAssociation":8100,"inflation":8101,"custom":8102,"eff":8103,"och":8104,"path":8105,"tit":8106,"yet":8107,"2307":8108,"1904":8109,"2469":8110,"2568":8111,"2811":8112,"3052":8113,"cohol":8114,"itors":8115,"import":8116,"heim":8117,"agic":8118,"Ġgain":8119,"ĠJan":8120,"Ġclimate":8121,"events":8122,"personal":8123,"Cor":8124,"Despite":8125,"canc":8126,"ji":8127,"sav":8128,"washington":8129,"2319":8130,"2690":8131,"2654":8132,"2689":8133,"2760":8134,"2775":8135,"reak":8136,"2227":8137,"Ġpack":8138,"Ġdividend":8139,"older":8140,"ĠSam":8141,"ĠPaul":8142,"2295":8143,"2285":8144,"2286":8145,"Ġopened":8146,"compet":8147,"brobible":8148,"cuts":8149,"questions":8150,"migration":8151,"ranchise":8152,"british":8153,"2123":8154,"3188":8155,"3171":8156,"cus":8157,"hour":8158,"kesperson":8159,"lu":8160,"taylor":8161,"Ġ29":8162,"1966":8163,"2514":8164,"2522":8165,"2625":8166,"2626":8167,"2653":8168,"2673":8169,"2703":8170,"2874":8171,"reland":8172,"republic":8173,"common":8174,"3226":8175,"Ġhusband":8176,"Ġincome":8177,"Ġcard":8178,"Ġexecutive":8179,"Ġwebsite":8180,"ruct":8181,"Ġcomplete":8182,"Ġ()":8183,"lorida":8184,"elections":8185,"Ġinflu":8186,"Ġmessage":8187,"Ed":8188,"Ph":8189,"Pal":8190,"dif":8191,"nam":8192,"piece":8193,"taking":8194,"zing":8195,"2032":8196,"2342":8197,"erg":8198,"2447":8199,"2462":8200,"2559":8201,"2587":8202,"2597":8203,"2636":8204,"2788":8205,"2706":8206,"2217":8207,"itely":8208,"Ġsell":8209,"Ġbirth":8210,"Ġpark":8211,"among":8212,"dailypost":8213,"actor":8214,"ĠJones":8215,"anniversary":8216,"Ġdecades":8217,"Ġcentre":8218,"startribune":8219,"novation":8220,"Ġvehicles":8221,"Ġproblems":8222,"steelersdepot":8223,"Pol":8224,"Sup":8225,"celt":8226,"fac":8227,"nick":8228,"2313":8229,"2547":8230,"2508":8231,"2551":8232,"2662":8233,"2835":8234,"2873":8235,"3026":8236,"3576":8237,"Ġpur":8238,"4325":8239,"acle":8240,"alloa":8241,"quality":8242,"ĠPol":8243,"izer":8244,"been":8245,"prince":8246,"minnesota":8247,"ĠYou":8248,"biggest":8249,"Ġcharacters":8250,"malta":8251,"foxsports":8252,"govt":8253,"Ġappeared":8254,"cluding":8255,"\".":8256,"FC":8257,"ien":8258,"uate":8259,"wr":8260,"1858":8261,"2498":8262,"2555":8263,"2502":8264,"2655":8265,"2804":8266,"3557":8267,"3857":8268,"4632":8269,"3317":8270,"Ġcal":8271,"Ġresources":8272,"umps":8273,"2188":8274,"Ġran":8275,"ĠEm":8276,"ĠStadium":8277,"Ġtried":8278,"forcement":8279,"Ġgirl":8280,"MA":8281,"cinem":8282,"jul":8283,"table":8284,"Ġ31":8285,"2412":8286,"2403":8287,"2520":8288,"2572":8289,"2582":8290,"2638":8291,"2700":8292,"3019":8293,"Ġpred":8294,"Ġrefer":8295,"Ġnamed":8296,"ĠMal":8297,"2298":8298,"2274":8299,"2248":8300,"3390":8301,"Ġparts":8302,"Ġrelated":8303,"Ġcrime":8304,"profit":8305,"Ġspokesperson":8306,"august":8307,"Ġcaused":8308,"Ġfully":8309,"alloaadvertiser":8310,"sell":8311,"Ã¡":8312,"2424":8313,"2746":8314,"2750":8315,"2876":8316,"2957":8317,"2969":8318,"3628":8319,"3670":8320,"3821":8321,"Ġsports":8322,"Ġpan":8323,"check":8324,"Ġmom":8325,"Ġdi":8326,"Ġden":8327,"Ġdouble":8328,"Ġcirc":8329,"unning":8330,"ationships":8331,"Ġshooting":8332,"Ġexplained":8333,"worst":8334,"3386":8335,"ously":8336,"legations":8337,"amilton":8338,"Ġroll":8339,"holds":8340,"Ġconsum":8341,"fires":8342,"funding":8343,"Ġdetails":8344,"Black":8345,"goti":8346,"Ġauthorities":8347,"ĠAngeles":8348,"2129":8349,"High":8350,"dod":8351,"driver":8352,"ean":8353,"giving":8354,"june":8355,"january":8356,"larg":8357,"2358":8358,"2494":8359,"2511":8360,"2611":8361,"2659":8362,"2757":8363,"2744":8364,"2933":8365,"3634":8366,"3455":8367,"3766":8368,"3769":8369,"Ġthrow":8370,"4650":8371,"4967":8372,"Ġsk":8373,"Ġded":8374,"owl":8375,"Ġbeat":8376,"enders":8377,"Ġconference":8378,"word":8379,"Then":8380,"critics":8381,"slate":8382,"Ġblood":8383,"yorker":8384,"Ġactivities":8385,"3105":8386,"3128":8387,"evening":8388,"mumbai":8389,"Ġut":8390,"2405":8391,"annel":8392,"2533":8393,"2620":8394,"2698":8395,"2692":8396,"2790":8397,"2803":8398,"2801":8399,"2941":8400,"3602":8401,"3818":8402,"lets":8403,"aga":8404,"ĠSw":8405,"ĠCr":8406,"ests":8407,"ocused":8408,"Ġcommitted":8409,"2282":8410,"2247":8411,"Ġchallenge":8412,"4407":8413,"encing":8414,"afford":8415,"posal":8416,"Ġsimply":8417,"ĠApple":8418,"lancashiretelegraph":8419,"5264":8420,"Cal":8421,"Pl":8422,"SP":8423,"families":8424,"mits":8425,"2061":8426,"inary":8427,"2487":8428,"2575":8429,"2500":8430,"2613":8431,"2645":8432,"2725":8433,"2758":8434,"2880":8435,"stor":8436,"ader":8437,"Ġongoing":8438,"spired":8439,"antage":8440,"qual":8441,"ĠDel":8442,"ĠDirector":8443,"ĠLake":8444,"3345":8445,"Ġjourney":8446,"coring":8447,"Ġtrade":8448,"chnical":8449,"Ġcapt":8450,"study":8451,"cm":8452,"fail":8453,"kai":8454,"mary":8455,"ras":8456,"2311":8457,"2499":8458,"2473":8459,"2461":8460,"2512":8461,"2536":8462,"2553":8463,"2637":8464,"2685":8465,"2839":8466,"2849":8467,"2860":8468,"3601":8469,"3415":8470,"3717":8471,"3819":8472,"covent":8473,"Ġsound":8474,"amma":8475,"Ġdark":8476,"iran":8477,"seven":8478,"raised":8479,"ĠCEO":8480,"spl":8481,"deen":8482,"2161":8483,"Ġwords":8484,"pressherald":8485,"Ġspending":8486,"Ġfinally":8487,"ĠCommittee":8488,"sunday":8489,"Ġtrial":8490,"bangor":8491,"beauty":8492,"dou":8493,"mort":8494,"1967":8495,"2440":8496,"2454":8497,"2404":8498,"2599":8499,"2561":8500,"2701":8501,"2707":8502,"2905":8503,"3025":8504,"3531":8505,"3409":8506,"acquires":8507,"allafrica":8508,"ationonlin":8509,"riot":8510,"ulner":8511,"ĠGod":8512,"rency":8513,"marks":8514,"itchen":8515,"stitution":8516,"ginia":8517,"quiring":8518,"thenationonlin":8519,"Ġreceive":8520,"operation":8521,"thenationonlineng":8522,"2153":8523,"6270":8524,"AI":8525,"cf":8526,"domin":8527,"double":8528,"governor":8529,"garden":8530,"jones":8531,"known":8532,"las":8533,"2040":8534,"2303":8535,"1968":8536,"eration":8537,"2465":8538,"2635":8539,"2708":8540,"2847":8541,"2869":8542,"2908":8543,"3044":8544,"enes":8545,"cock":8546,"3114":8547,"Ġpair":8548,"cha":8549,"champion":8550,"challeng":8551,"Ġmention":8552,"Ġdaughter":8553,"utch":8554,"2256":8555,"feel":8556,"ĠNiger":8557,"ipped":8558,"3267":8559,"Ġappoint":8560,"caller":8561,"ological":8562,"companies":8563,"rews":8564,"Ġoperations":8565,"ocrats":8566,"frastructure":8567,"La":8568,"google":8569,"2381":8570,"2417":8571,"2419":8572,"2437":8573,"2479":8574,"2483":8575,"2513":8576,"2519":8577,"2666":8578,"2602":8579,"2641":8580,"2714":8581,"2826":8582,"2890":8583,"2806":8584,"2864":8585,"3018":8586,"3089":8587,"3413":8588,"3708":8589,"itimes":8590,"asks":8591,"Ġfan":8592,"ĠBoard":8593,"expect":8594,"2291":8595,"answ":8596,"ĠLa":8597,"trip":8598,"Ġprison":8599,"investig":8600,"Ġemployees":8601,"coventry":8602,"2109":8603,"BI":8604,"fest":8605,"suff":8606,"sustain":8607,"think":8608,"2496":8609,"2521":8610,"2562":8611,"2671":8612,"2738":8613,"2795":8614,"2935":8615,"itals":8616,"Ġsy":8617,"Ġfresh":8618,"Ġdram":8619,"ĠMart":8620,"Ġcontain":8621,"2294":8622,"ĠHill":8623,"bean":8624,"Ġadministration":8625,"politico":8626,"Ġannounce":8627,"france":8628,"ĠCentre":8629,"Ġlargest":8630,"gallery":8631,"3109":8632,"David":8633,"SE":8634,"cul":8635,"max":8636,"tro":8637,"tel":8638,"xi":8639,"2548":8640,"2567":8641,"2565":8642,"2629":8643,"2622":8644,"2772":8645,"2824":8646,"2856":8647,"2945":8648,"reets":8649,"3603":8650,"3419":8651,"stalk":8652,"5840":8653,"nell":8654,"tok":8655,"spoil":8656,"ĠII":8657,"ffee":8658,"perfect":8659,"Ġneg":8660,"engers":8661,"restaurant":8662,"Ġprem":8663,"Ġfeature":8664,"Ġhelping":8665,"Ġwinning":8666,"Ġinjury":8667,"Ġcharges":8668,"ĠAfrica":8669,"Ġdescribed":8670,"3103":8671,"3154":8672,"dot":8673,"moment":8674,"scar":8675,"Ã¢":8676,"Ġrain":8677,"thr":8678,"2431":8679,"2556":8680,"2588":8681,"2618":8682,"2634":8683,"2693":8684,"2842":8685,"2952":8686,"3032":8687,"3476":8688,"Ġaff":8689,"4552":8690,"Ġsave":8691,"Ġgreen":8692,"Ġeye":8693,"raise":8694,"Ġnorth":8695,"Ġnatural":8696,"shoot":8697,"2288":8698,"ouses":8699,"ichard":8700,"ĠYear":8701,"remier":8702,"career":8703,"Ġcollect":8704,"Ġpromot":8705,"thesun":8706,"Ġplanning":8707,"âĤ¬":8708,"Per":8709,"Red":8710,"pension":8711,"rating":8712,"ÑĤ":8713,"2537":8714,"2763":8715,"2815":8716,"2884":8717,"2872":8718,"3040":8719,"3569":8720,"Ġfast":8721,"Ġpath":8722,"4317":8723,"Ġmarg":8724,"iment":8725,"irk":8726,"iris":8727,"Ġones":8728,"3251":8729,"Ġkick":8730,"blood":8731,"Ġspir":8732,"Ġdisplay":8733,"courant":8734,"citynews":8735,"Ġcalls":8736,"charge":8737,"Ġcharged":8738,"Ġpatients":8739,"ÑĤÐ":8740,"2128":8741,"3127":8742,"3138":8743,"Ben":8744,"ivery":8745,"mans":8746,"mah":8747,"2301":8748,"2492":8749,"2518":8750,"2503":8751,"2627":8752,"2660":8753,"2938":8754,"2980":8755,"3083":8756,"Ġtren":8757,"sey":8758,"Ġbehav":8759,"isters":8760,"ĠBu":8761,"Ġanim":8762,"ĠTexas":8763,"Ġvia":8764,"Ġviol":8765,"3273":8766,"Ġleaving":8767,"anner":8768,"yself":8769,"arming":8770,"warns":8771,"Ġcouldn":8772,"loom":8773,"falls":8774,"ocuments":8775,"3190":8776,"iences":8777,"mine":8778,"society":8779,"uf":8780,"ĲÐ":8781,"2382":8782,"2589":8783,"2571":8784,"2668":8785,"2715":8786,"2769":8787,"2959":8788,"2943":8789,"3043":8790,"3053":8791,"3552":8792,"3719":8793,"ora":8794,"4728":8795,"needs":8796,"Ġmob":8797,"newsonline":8798,"3255":8799,"ĠET":8800,"prime":8801,"enger":8802,"goes":8803,"liber":8804,"Ġdecl":8805,"reports":8806,"tennis":8807,"killing":8808,"decision":8809,"bowl":8810,"kentonline":8811,"Ġimmediately":8812,"ÑĤÐĲÐ":8813,"bear":8814,"crypto":8815,"lie":8816,"2438":8817,"2446":8818,"2464":8819,"2569":8820,"2552":8821,"2704":8822,"2883":8823,"2917":8824,"2968":8825,"rell":8826,"3011":8827,"3525":8828,"3458":8829,"3812":8830,"oration":8831,"orney":8832,"imo":8833,"cean":8834,"thew":8835,"Ġstories":8836,"Ġnumbers":8837,"ifying":8838,"2267":8839,"Ġrise":8840,"Ġproduc":8841,"3307":8842,"owners":8843,"ĠJoe":8844,"3231":8845,"forex":8846,"ĠInstagram":8847,"Ġjoin":8848,"Mark":8849,"OL":8850,"PC":8851,"fit":8852,"gard":8853,"jama":8854,"Ġult":8855,"2576":8856,"2657":8857,"2640":8858,"2711":8859,"2735":8860,"2743":8861,"2751":8862,"3510":8863,"3507":8864,"3659":8865,"Ġfailed":8866,"ura":8867,"riz":8868,"2252":8869,"progress":8870,"rival":8871,"Ġassault":8872,"brook":8873,"ducation":8874,"Ġdefense":8875,"jewishpress":8876,"Ġlifted":8877,"Ġachieve":8878,"dream":8879,"looks":8880,"tells":8881,"Ġ60":8882,"2463":8883,"2716":8884,"2797":8885,"3626":8886,"3475":8887,"3932":8888,"Ġdriver":8889,"urges":8890,"newsdiary":8891,"dailycaller":8892,"peace":8893,"3287":8894,"ĠJust":8895,"Ġkn":8896,"Ġtransport":8897,"announce":8898,"Ġfeat":8899,"roundup":8900,"running":8901,"Ġdemon":8902,"Ġvictim":8903,"ĠRepublican":8904,"Ġcertainly":8905,"Ġcritical":8906,"ĠTwitter":8907,"newsdiaryonline":8908,"3132":8909,"3177":8910,"3185":8911,"ded":8912,"dest":8913,"even":8914,"historic":8915,"iro":8916,"lp":8917,"nc":8918,"tik":8919,"wol":8920,"2407":8921,"2539":8922,"2591":8923,"2615":8924,"2676":8925,"2600":8926,"2767":8927,"2850":8928,"2967":8929,"2932":8930,"3030":8931,"3068":8932,"3689":8933,"Ġaim":8934,"olen":8935,"Ġremov":8936,"uma":8937,"igned":8938,"feature":8939,"berry":8940,"Ġresident":8941,"Ġattend":8942,"Ġregul":8943,"Ġended":8944,"Ġlooked":8945,"Ġfiling":8946,"Ġaccused":8947,"columns":8948,"Mean":8949,"Ġbasis":8950,"Ġemergency":8951,"2138":8952,"Dr":8953,"gpt":8954,"golf":8955,"named":8956,"wise":8957,"zil":8958,"2317":8959,"2432":8960,"2616":8961,"2766":8962,"2753":8963,"2825":8964,"2931":8965,"3704":8966,"ourist":8967,"Ġserve":8968,"Ġbed":8969,"Ġgather":8970,"Ġcommittee":8971,"ĠTown":8972,"ĠRob":8973,"Ġchanged":8974,"aval":8975,"Ġjobs":8976,"Ġdoor":8977,"Ġalone":8978,"Why":8979,"axy":8980,"effect":8981,"demand":8982,"Ġterm":8983,"donald":8984,"yorkshire":8985,"ĠEuropean":8986,"eagle":8987,"eagles":8988,"Ġsource":8989,"Ġarrived":8990,"timesofmalta":8991,"Em":8992,"gear":8993,"2421":8994,"2595":8995,"2614":8996,"2688":8997,"2697":8998,"2643":8999,"2734":9000,"2774":9001,"2814":9002,"2830":9003,"2914":9004,"2939":9005,"3020":9006,"3577":9007,"3871":9008,"4056":9009,"htm":9010,"Ġsort":9011,"andy":9012,"Ġhy":9013,"Ġhighest":9014,"Ġproud":9015,"chian":9016,"Ġrequired":9017,"Ġlov":9018,"rier":9019,"ĠBrown":9020,"ĠIreland":9021,"ĠLaw":9022,"Ġchoice":9023,"ipment":9024,"ava":9025,"3299":9026,"achine":9027,"Ġadvis":9028,"erves":9029,"monton":9030,"Ġactor":9031,"controvers":9032,"aska":9033,"reviews":9034,"Ġposted":9035,"Ġmiddle":9036,"ĠSuper":9037,"commentary":9038,"Ġpractice":9039,"3161":9040,"div":9041,"nut":9042,"ool":9043,"prices":9044,"vine":9045,"veter":9046,"zel":9047,"2472":9048,"2598":9049,"2504":9050,"2639":9051,"2728":9052,"2747":9053,"2778":9054,"2777":9055,"2792":9056,"2819":9057,"2848":9058,"2877":9059,"2865":9060,"2966":9061,"2909":9062,"3007":9063,"3551":9064,"3408":9065,"station":9066,"5705":9067,"4073":9068,"Ġafford":9069,"amps":9070,"improve":9071,"ceo":9072,"ĠScotland":9073,"terror":9074,"ĠMiss":9075,"plant":9076,"Ġexplain":9077,"buff":9078,"archives":9079,"Ġfinished":9080,"Ġserved":9081,"Ġmaybe":9082,"Ġsurround":9083,"attery":9084,"address":9085,"Ġclaims":9086,"injured":9087,"Ġspoke":9088,"Ġtalking":9089,"Ġinstall":9090,"Ġcompetition":9091,"Ġindividuals":9092,"2119":9093,"3135":9094,"San":9095,"fal":9096,"name":9097,"vinc":9098,"anim":9099,"2686":9100,"2642":9101,"2845":9102,"2899":9103,"2976":9104,"2987":9105,"2953":9106,"3055":9107,"3440":9108,"3786":9109,"core":9110,"ouce":9111,"Ġsum":9112,"iled":9113,"newyorker":9114,"agu":9115,"Ġstated":9116,"ĠMur":9117,"ĠAlex":9118,"ĠTom":9119,"Ġheavy":9120,"conserv":9121,"which":9122,"Ġupon":9123,"buys":9124,"boing":9125,"barry":9126,"ollars":9127,"judge":9128,"motor":9129,"Ġbeginning":9130,"5169":9131,"bears":9132,"rh":9133,"saturday":9134,"2449":9135,"2649":9136,"2647":9137,"2682":9138,"2776":9139,"2832":9140,"2875":9141,"2871":9142,"2996":9143,"2904":9144,"rec":9145,"rect":9146,"3624":9147,"3453":9148,"4026":9149,"Ġsun":9150,"Ġpet":9151,"ented":9152,"Ġintegr":9153,"irates":9154,"uling":9155,"Ġstation":9156,"Ġstrength":9157,"Ġnature":9158,"ĠMad":9159,"ods":9160,"4401":9161,"iley":9162,"Ġ2017":9163,"ĠKen":9164,"appear":9165,"missions":9166,"Ġforeign":9167,"popular":9168,"3245":9169,"?âĢĿ":9170,"Both":9171,"TC":9172,"houston":9173,"iest":9174,"kf":9175,"oint":9176,"paid":9177,"wrong":9178,"2674":9179,"2740":9180,"2784":9181,"2840":9182,"2807":9183,"2802":9184,"3033":9185,"5054":9186,"chick":9187,"ela":9188,"newstalk":9189,"Ġforced":9190,"antimes":9191,"oregon":9192,"ĠBur":9193,"eeps":9194,"exclusive":9195,"Ġprograms":9196,"3301":9197,"3309":9198,"3281":9199,"performance":9200,"enterprise":9201,"worker":9202,"supreme":9203,"drag":9204,"join":9205,"Ġfeeling":9206,"morning":9207,"Ġmissing":9208,"Ġpurchased":9209,"Ġlocation":9210,"Ġdepartment":9211,"Ġdigital":9212,"3102":9213,"Let":9214,"SA":9215,"Sec":9216,"TA":9217,"july":9218,"sales":9219,"2608":9220,"2739":9221,"2705":9222,"2912":9223,"3017":9224,"3057":9225,"3059":9226,"3045":9227,"3683":9228,"3728":9229,"essex":9230,"asure":9231,"urities":9232,"Ġreality":9233,"rief":9234,"ĠSing":9235,"ĠMus":9236,"Ġcommission":9237,"Ġplant":9238,"ĠPrime":9239,"Ġreturned":9240,"ĠIsraeli":9241,"Ġwait":9242,"ĠForce":9243,"credit":9244,"tinubu":9245,"Ġkept":9246,"Meanwhile":9247,"3107":9248,"3155":9249,"Dep":9250,"dp":9251,"hair":9252,"jal":9253,"jobs":9254,"louis":9255,"nie":9256,"pakistan":9257,"inst":9258,"thel":9259,"2410":9260,"2491":9261,"2529":9262,"2549":9263,"2900":9264,"2974":9265,"2964":9266,"2951":9267,"3035":9268,"3716":9269,"3930":9270,"alg":9271,"5059":9272,"3325":9273,"3339":9274,"Ġfre":9275,"amber":9276,"urban":9277,"Ġlog":9278,"apter":9279,"Ġrules":9280,"ĠGerman":9281,"5371":9282,"Ġadmitted":9283,"evin":9284,"partner":9285,"Ġsubject":9286,"fortun":9287,"homeless":9288,"Ġlearning":9289,"3146":9290,"3247":9291,"Dis":9292,"Two":9293,"died":9294,"gment":9295,"hunt":9296,"lad":9297,"lives":9298,"2393":9299,"2501":9300,"2982":9301,"3024":9302,"3028":9303,"3084":9304,"3082":9305,"3497":9306,"andon":9307,"utely":9308,"riven":9309,"plc":9310,"ĠFire":9311,"3300":9312,"ika":9313,"banks":9314,"control":9315,"sett":9316,"haps":9317,"aurants":9318,"everything":9319,"Ġsuccessful":9320,"respond":9321,"Ġmeaning":9322,"ercise":9323,"Ġobjective":9324,"3148":9325,"Hol":9326,"held":9327,"kick":9328,"ser":9329,"tt":9330,"2510":9331,"2530":9332,"2677":9333,"2732":9334,"2786":9335,"2846":9336,"2919":9337,"2970":9338,"3069":9339,"3075":9340,"3598":9341,"3686":9342,"3489":9343,"ĠShe":9344,"ante":9345,"izations":9346,"incess":9347,"certain":9348,"surviv":9349,"Ġsurpr":9350,"Ġsigned":9351,"Ġsystems":9352,"attacks":9353,"ĠAfrican":9354,"Che":9355,"Many":9356,"mates":9357,"tournament":9358,"2457":9359,"2422":9360,"2538":9361,"2545":9362,"2592":9363,"2617":9364,"2712":9365,"2761":9366,"2828":9367,"2893":9368,"3014":9369,"3034":9370,"3078":9371,"3070":9372,"3071":9373,"4629":9374,"4719":9375,"Ġtough":9376,"comics":9377,"Ġemp":9378,"ĠCons":9379,"apers":9380,"orean":9381,"Ġconstruction":9382,"3368":9383,"bright":9384,"obby":9385,"Ġabsol":9386,"ĠUnion":9387,"Ġholding":9388,"thenew":9389,"sexual":9390,"experience":9391,"happy":9392,"details":9393,"psych":9394,"florida":9395,"Any":9396,"Sen":9397,"db":9398,"dress":9399,"daniel":9400,"myst":9401,"private":9402,"2371":9403,"2779":9404,"2702":9405,"2827":9406,"2855":9407,"2948":9408,"really":9409,"3063":9410,"Ġthank":9411,"alle":9412,"4064":9413,"arus":9414,"edinburgh":9415,"igious":9416,"Ġlic":9417,"Ġlos":9418,"ĠSto":9419,"ĠMichael":9420,"shut":9421,"3272":9422,"3391":9423,"forecast":9424,"Ġprimary":9425,"verse":9426,"Although":9427,"Ġlegisl":9428,"horror":9429,"continues":9430,"Ġbenefits":9431,"ĠGeorge":9432,"Ġnecessary":9433,"Ġcrisis":9434,"3199":9435,"3207":9436,"Ass":9437,"DC":9438,"direct":9439,"eb":9440,"gage":9441,"jer":9442,"pts":9443,"2524":9444,"2621":9445,"2713":9446,"2709":9447,"2741":9448,"2836":9449,"2896":9450,"2863":9451,"2841":9452,"2990":9453,"2988":9454,"2954":9455,"2993":9456,"3474":9457,"3407":9458,"3868":9459,"3950":9460,"3995":9461,"5002":9462,"icate":9463,"3223":9464,"unve":9465,"erse":9466,"allow":9467,"emony":9468,"ĠPublic":9469,"ĠLeg":9470,"3343":9471,"izz":9472,"3372":9473,"Ġrock":9474,"Ġyourself":9475,"howbiz":9476,"Ġfeels":9477,"regional":9478,"Ġraise":9479,"Ġcalling":9480,"ĠIsland":9481,"Ġflood":9482,"defense":9483,"ĠCentral":9484,"Ġbenefit":9485,"Ġepisode":9486,"3187":9487,"4258":9488,"OP":9489,"hes":9490,"jailed":9491,"mist":9492,"maker":9493,"oct":9494,"pper":9495,"rs":9496,"thet":9497,"2718":9498,"2785":9499,"2821":9500,"2925":9501,"3568":9502,"3673":9503,"pson":9504,"icking":9505,"3224":9506,"Ġcancer":9507,"agh":9508,"Ġitems":9509,"quake":9510,"george":9511,"2183":9512,"ĠLos":9513,"3305":9514,"3258":9515,"ova":9516,"protect":9517,"ogy":9518,"ĠChinese":9519,"apped":9520,"calgary":9521,"aceshowbiz":9522,"viously":9523,"Ġproviding":9524,"salon":9525,"graitimes":9526,"systems":9527,"bangordailynews":9528,"chiangraitimes":9529,"3129":9530,"3136":9531,"Here":9532,"LI":9533,"cases":9534,"downs":9535,"hart":9536,"mate":9537,"2458":9538,"2534":9539,"2604":9540,"2789":9541,"2858":9542,"2859":9543,"2965":9544,"3680":9545,"3467":9546,"3729":9547,"3778":9548,"3835":9549,"3955":9550,"stoke":9551,"arc":9552,"iced":9553,"Ġborder":9554,"elter":9555,"elly":9556,"idah":9557,"newsinfo":9558,"arters":9559,"Ġlay":9560,"Ġgrant":9561,"oman":9562,"asts":9563,"examiner":9564,"2292":9565,"3341":9566,"owner":9567,"3384":9568,"achel":9569,"flag":9570,"Ġafternoon":9571,"offers":9572,"Ġamazing":9573,"senate":9574,"Ġextrem":9575,"officer":9576,"Ġjoined":9577,"corporation":9578,"Ġaudience":9579,"Ġavoid":9580,"4127":9581,"IA":9582,"Sam":9583,"Sun":9584,"bills":9585,"fant":9586,"wont":9587,"2585":9588,"2594":9589,"2667":9590,"2631":9591,"2742":9592,"2793":9593,"2816":9594,"2989":9595,"3514":9596,"3520":9597,"3587":9598,"3696":9599,"3831":9600,"4657":9601,"arah":9602,"3337":9603,"Ġtre":9604,"3213":9605,"verness":9606,"ples":9607,"3259":9608,"3389":9609,"aceut":9610,"4395":9611,"web":9612,"Ġimplement":9613,"disney":9614,"Ġfeet":9615,"wait":9616,"ĠIndian":9617,"twitter":9618,"village":9619,"Ġengine":9620,"continue":9621,"slashfilm":9622,"Ġsuspect":9623,"hexaminer":9624,"3186":9625,"fuel":9626,"lers":9627,"oking":9628,"pain":9629,"sit":9630,"2372":9631,"2478":9632,"2402":9633,"2885":9634,"2901":9635,"3031":9636,"3042":9637,"3404":9638,"3994":9639,"4016":9640,"itude":9641,"Ġtim":9642,"isle":9643,"Ġselling":9644,"asion":9645,"âĢĵ":9646,"Ġcatch":9647,"agers":9648,"ulous":9649,"Ġcomfort":9650,"osis":9651,"3261":9652,"Ġplaces":9653,"pract":9654,"ĠOne":9655,"Ġacquired":9656,"crimin":9657,"legacy":9658,"ohio":9659,"armaceut":9660,"abcnews":9661,"expert":9662,"Ġinjured":9663,"ghanamma":9664,"Ġnetwork":9665,"iconic":9666,"ĠCOVID":9667,"2148":9668,"3122":9669,"3230":9670,"4204":9671,"bought":9672,"gles":9673,"ero":9674,"2517":9675,"2681":9676,"2721":9677,"2918":9678,"2950":9679,"3056":9680,"3066":9681,"3080":9682,"3081":9683,"3540":9684,"3767":9685,"3700":9686,"4042":9687,"arid":9688,"Ġspread":9689,"ili":9690,"allas":9691,"plies":9692,"Ġproposed":9693,"ovid":9694,"Ġqual":9695,"icted":9696,"Ġappreci":9697,"consider":9698,"Ġpowerful":9699,"Ġspeak":9700,"palestine":9701,"Ġprovides":9702,"differ":9703,"3174":9704,"3181":9705,"DP":9706,"FA":9707,"Most":9708,"df":9709,"gay":9710,"lon":9711,"2456":9712,"2940":9713,"2998":9714,"3022":9715,"3098":9716,"3537":9717,"3506":9718,"3571":9719,"3666":9720,"3694":9721,"3651":9722,"3710":9723,"4725":9724,"Ġton":9725,"Ġsouth":9726,"ilot":9727,"3229":9728,"neigh":9729,"Ġpurs":9730,"Ġmer":9731,"Ġgold":9732,"Ġgives":9733,"Ġship":9734,"php":9735,"feb":9736,"ĠFund":9737,"3363":9738,"3254":9739,"3265":9740,"ashes":9741,"desantis":9742,"lawsuit":9743,"Once":9744,"friends":9745,"friendly":9746,"patriots":9747,"Ġfloor":9748,"Ġexactly":9749,"3116":9750,"3134":9751,"dad":9752,"dating":9753,"fly":9754,"selling":9755,"index":9756,"2481":9757,"2736":9758,"2853":9759,"2946":9760,"3010":9761,"3012":9762,"3090":9763,"3003":9764,"3072":9765,"3640":9766,"3713":9767,"3880":9768,"3334":9769,"iscons":9770,"asse":9771,"4327":9772,"acement":9773,"Ġreduce":9774,"abeth":9775,"phia":9776,"3353":9777,"3356":9778,"Ġweight":9779,"guyan":9780,"finale":9781,"Ġconsist":9782,"Ġeventually":9783,"advice":9784,"Ġelections":9785,"Ġorganization":9786,"ography":9787,"anguard":9788,"Ġcondition":9789,"Ġsexual":9790,"Ġgirls":9791,"Ġprovider":9792,"Ġmodern":9793,"thenewdaily":9794,"Tok":9795,"cp":9796,"mw":9797,"went":9798,"2586":9799,"2650":9800,"2695":9801,"2683":9802,"2745":9803,"2773":9804,"2805":9805,"2861":9806,"2915":9807,"3039":9808,"3058":9809,"3096":9810,"3001":9811,"3570":9812,"3572":9813,"3674":9814,"3652":9815,"3479":9816,"3749":9817,"3870":9818,"4033":9819,"4720":9820,"3314":9821,"itts":9822,"Ġwide":9823,"Ġsal":9824,"Ġfem":9825,"Ġhour":9826,"3112":9827,"entinel":9828,"amy":9829,"amie":9830,"ĠSol":9831,"ĠBig":9832,"rome":9833,"ĠPen":9834,"ĠDen":9835,"ĠFirst":9836,"ĠGaza":9837,"ĠNFL":9838,"3352":9839,"3354":9840,"3276":9841,"4390":9842,"3203":9843,"issue":9844,"Ġcollege":9845,"russian":9846,"Ġattacks":9847,"Ġconsidered":9848,"hawaii":9849,"Ġwaiting":9850,"Ġlimited":9851,"Ġcollabor":9852,"purchases":9853,"Ġmeasures":9854,"ĠAdvisors":9855,"gadgets":9856,"'d":9857,"3120":9858,"4122":9859,"Pat":9860,"aire":9861,"iors":9862,"rings":9863,"2413":9864,"2601":9865,"2756":9866,"2733":9867,"2798":9868,"2765":9869,"2857":9870,"2844":9871,"2892":9872,"2961":9873,"3015":9874,"3597":9875,"3454":9876,"3727":9877,"code":9878,"5699":9879,"3316":9880,"icies":9881,"Ġsil":9882,"Ġinsur":9883,"eland":9884,"Ġdress":9885,"7335":9886,"abama":9887,"explain":9888,"clin":9889,"3285":9890,"3348":9891,"3264":9892,"oba":9893,"ishop":9894,"ensions":9895,"Ġplenty":9896,"Ġdebut":9897,"pective":9898,"State":9899,"surv":9900,"Ġsurv":9901,"denverpost":9902,"brief":9903,"Ġlaunched":9904,"emergency":9905,"Ġtemper":9906,"Ġcommitment":9907,"3118":9908,"3100":9909,"3173":9910,"GB":9911,"OT":9912,"UN":9913,"driving":9914,"gies":9915,"map":9916,"master":9917,"podcast":9918,"Ġver":9919,"2596":9920,"2870":9921,"2831":9922,"3002":9923,"3501":9924,"3891":9925,"Ġthinking":9926,"4065":9927,"4456":9928,"6754":9929,"asc":9930,"Ġhair":9931,"Ġbot":9932,"oles":9933,"raising":9934,"debut":9935,"Ġcomments":9936,"ĠHome":9937,"berts":9938,"3289":9939,"ĠEnergy":9940,"4408":9941,"ichigan":9942,"charles":9943,"characters":9944,"Ġappears":9945,"between":9946,"Ġprofessional":9947,"Ġmission":9948,"Ġtraditional":9949,"experts":9950,"Ġreached":9951,"Ġcompleted":9952,"Ġtype":9953,"Ġcredit":9954,"tiktok":9955,"3202":9956,"4332":9957,"Als":9958,"bets":9959,"oks":9960,"wear":9961,"Ġanti":9962,"thought":9963,"2664":9964,"2737":9965,"2924":9966,"2929":9967,"2907":9968,"2973":9969,"3004":9970,"3612":9971,"4830":9972,"3320":9973,"3322":9974,"4559":9975,"Ġsize":9976,"ĠAg":9977,"ĠPer":9978,"Ġcool":9979,"pregn":9980,"3292":9981,"odd":9982,"4366":9983,"3233":9984,"5374":9985,"ibbean":9986,"Ġoffered":9987,"ĠKe":9988,"oseph":9989,"doctor":9990,"boxing":9991,"montreal":9992,"training":9993,"ĠMarket":9994,"Ġdetermin":9995,"isconsin":9996,"3209":9997,"4236":9998,"Bel":9999,"GP":10000,"australian":10001,"dles":10002,"fix":10003,"hip":10004,"jr":10005,"might":10006,"oday":10007,"rally":10008,"sel":10009,"2754":10010,"2833":10011,"2986":10012,"2997":10013,"3530":10014,"3592":10015,"3412":10016,"3450":10017,"rove":10018,"Ġdom":10019,"acon":10020,"urb":10021,"ulate":10022,"ĠSports":10023,"opportun":10024,"abortion":10025,"ustries":10026,"ĠFound":10027,"3361":10028,"ucial":10029,"ashed":10030,"flight":10031,"Ġagreement":10032,"intend":10033,"guy":10034,"Ġparties":10035,"Star":10036,"Ġtransfer":10037,"Ġconfidence":10038,"Ġhearing":10039,"Ġvictims":10040,"Ġletter":10041,"single":10042,"campus":10043,"birthday":10044,"nabis":10045,"3153":10046,"3169":10047,"3152":10048,"3205":10049,"MP":10050,"slow":10051,"Ġovers":10052,"2879":10053,"2852":10054,"2962":10055,"3049":10056,"3051":10057,"3647":10058,"3417":10059,"3771":10060,"3817":10061,"4635":10062,"3315":10063,"3333":10064,"3228":10065,"Ġmyself":10066,"urbs":10067,"3286":10068,"3293":10069,"3294":10070,"3274":10071,"3269":10072,"ishment":10073,"Ġplays":10074,"Ġyouth":10075,"Ġusually":10076,"Ġcounter":10077,"investigation":10078,"Ġregister":10079,"Ġleadership":10080,"brother":10081,"Ġexpert":10082,"porary":10083,"Ġcreating":10084,"adelphia":10085,"eveningpost":10086,"irishexaminer":10087,"3111":10088,"3124":10089,"3131":10090,"6400":10091,"hull":10092,"huge":10093,"luc":10094,"labor":10095,"mike":10096,"told":10097,"2838":10098,"2862":10099,"2949":10100,"2944":10101,"2994":10102,"once":10103,"recogn":10104,"3016":10105,"3064":10106,"3529":10107,"3579":10108,"3509":10109,"3637":10110,"3657":10111,"3684":10112,"3849":10113,"3332":10114,"iscal":10115,"Ġsometimes":10116,"compl":10117,"leave":10118,"4414":10119,"rod":10120,"Ġtoward":10121,"transport":10122,"mean":10123,"Ġpoor":10124,"ĠCommunity":10125,"victims":10126,"hotel":10127,"Ġalongside":10128,"blueprint":10129,"Ġmassive":10130,"Also":10131,"3108":10132,"3117":10133,"3121":10134,"3206":10135,"3191":10136,"aith":10137,"ku":10138,"oak":10139,"Ġir":10140,"income":10141,"2694":10142,"2787":10143,"2810":10144,"2878":10145,"2894":10146,"2906":10147,"3515":10148,"3678":10149,"3695":10150,"3974":10151,"5702":10152,"Ġsport":10153,"Ġsens":10154,"aser":10155,"irds":10156,"raf":10157,"Ġstraight":10158,"inder":10159,"true":10160,"ĠHaw":10161,"3382":10162,"Ġupcoming":10163,"7304":10164,"completes":10165,"captain":10166,"Ġguard":10167,"laws":10168,"remember":10169,"Ġcentral":10170,"francis":10171,"fortune":10172,"months":10173,"Ġexcited":10174,"response":10175,"iplom":10176,"3165":10177,"5166":10178,"President":10179,"Sim":10180,"cro":10181,"greg":10182,"hr":10183,"ansp":10184,"2687":10185,"2813":10186,"2823":10187,"2920":10188,"2995":10189,"2981":10190,"3013":10191,"3088":10192,"3065":10193,"3008":10194,"3548":10195,"3484":10196,"3832":10197,"3875":10198,"3929":10199,"Ġthousands":10200,"9013":10201,"icial":10202,"ilk":10203,"Ġinfrastructure":10204,"Ġcrowd":10205,"newsnigeria":10206,"Ġstreet":10207,"ĠMs":10208,"ĠPh":10209,"Ġasking":10210,"ĠTur":10211,"4409":10212,"4393":10213,"3201":10214,"4251":10215,"6344":10216,"Ġacquiring":10217,"Ġaltern":10218,"undry":10219,"goal":10220,"Ġsecure":10221,"Ġactions":10222,"healthcare":10223,"Ġassoci":10224,"ershire":10225,"relationship":10226,"pmnewsnigeria":10227,"rolled":10228,"fighters":10229,"ĠSecretary":10230,"increase":10231,"equity":10232,"fraud":10233,"Israel":10234,"Ġfigure":10235,"4259":10236,"LA":10237,"News":10238,"bond":10239,"dated":10240,"km":10241,"kar":10242,"pow":10243,"pair":10244,"sat":10245,"uated":10246,"2623":10247,"2619":10248,"2719":10249,"2882":10250,"2916":10251,"2947":10252,"2971":10253,"3005":10254,"3091":10255,"3526":10256,"3547":10257,"3562":10258,"3679":10259,"3435":10260,"3452":10261,"Ġwinter":10262,"Ġwitness":10263,"3225":10264,"Ġbi":10265,"Ġreduced":10266,"ĠStr":10267,"ukee":10268,"Ġyards":10269,"dailyherald":10270,"3340":10271,"3355":10272,"4569":10273,"6393":10274,"ĠOn":10275,"Ġactivity":10276,"Ġhighlight":10277,"Ġassess":10278,"Ġforecast":10279,"Ġinjuries":10280,"embly":10281,"Ġversion":10282,"Ġphysical":10283,"couver":10284,"ĠJustice":10285,"3178":10286,"5171":10287,"boot":10288,"matt":10289,"nic":10290,"obe":10291,"wing":10292,"Ġed":10293,"2762":10294,"2889":10295,"2902":10296,"3029":10297,"3037":10298,"3558":10299,"3499":10300,"3471":10301,"alo":10302,"4832":10303,"3326":10304,"6549":10305,"olk":10306,"agues":10307,"Ġgovernor":10308,"Ġonto":10309,"ĠMP":10310,"asters":10311,"udge":10312,"ailynews":10313,"3306":10314,"3252":10315,"awi":10316,"4491":10317,"Ġjun":10318,"merce":10319,"pops":10320,"leading":10321,"Ġseeking":10322,"Ġcriminal":10323,"celebrate":10324,"fighting":10325,"grows":10326,"Ġoperating":10327,"iasat":10328,"Ġdistribut":10329,"Ġbrother":10330,"Ġidentified":10331,"Ġdefinitely":10332,"recorder":10333,"3115":10334,"3168":10335,"3234":10336,"4197":10337,"5260":10338,"Of":10339,"Sch":10340,"dale":10341,"ea":10342,"Ġune":10343,"including":10344,"thousands":10345,"reams":10346,"3046":10347,"3060":10348,"3062":10349,"3539":10350,"3599":10351,"3596":10352,"3654":10353,"3600":10354,"3420":10355,"3463":10356,"3492":10357,"3461":10358,"3779":10359,"3901":10360,"4035":10361,"4734":10362,"3330":10363,"3336":10364,"3321":10365,"imore":10366,"ĠScott":10367,"umes":10368,"aba":10369,"abuse":10370,"ĠAwards":10371,"ĠFlorida":10372,"ĠHer":10373,"become":10374,"begin":10375,"3279":10376,"3378":10377,"4599":10378,"weap":10379,"offer":10380,"lincoln":10381,"Ġtrip":10382,"Ġfinding":10383,"Ġcorner":10384,"speed":10385,"bollywood":10386,"Ġindividual":10387,"Ġholiday":10388,"columbia":10389,"3125":10390,"3150":10391,"3163":10392,"4222":10393,"Reg":10394,"cages":10395,"fat":10396,"given":10397,"ktar":10398,"page":10399,"rout":10400,"uz":10401,"yers":10402,"2593":10403,"2722":10404,"2888":10405,"2895":10406,"2934":10407,"2983":10408,"3038":10409,"3586":10410,"3447":10411,"3898":10412,"3944":10413,"3989":10414,"4027":10415,"4099":10416,"leet":10417,"lements":10418,"Ġband":10419,"Ġborn":10420,"acquired":10421,"agazine":10422,"Ġgovern":10423,"usa":10424,"eman":10425,"Ġstress":10426,"plat":10427,"iah":10428,"ĠTor":10429,"ĠTaylor":10430,"Ġheat":10431,"udi":10432,"ĠFed":10433,"Ġvoice":10434,"3367":10435,"3271":10436,"odds":10437,"assist":10438,"awn":10439,"Ġword":10440,"Ġcomplex":10441,"Ġoffering":10442,"8603":10443,"Ġoption":10444,"seeks":10445,"oked":10446,"Ġfinish":10447,"urses":10448,"ĠThomas":10449,"rawstory":10450,"Ġputting":10451,"horosco":10452,"Ġspeed":10453,"revealed":10454,"greater":10455,"leaderlive":10456,"Ġdesigned":10457,"faith":10458,"potential":10459,"didnt":10460,"Ġaffected":10461,"4257":10462,"British":10463,"Spe":10464,"dollar":10465,"jay":10466,"lg":10467,"nan":10468,"2817":10469,"2922":10470,"3528":10471,"3459":10472,"3403":10473,"3750":10474,"3754":10475,"3814":10476,"3865":10477,"3967":10478,"3981":10479,"4079":10480,"4807":10481,"Ġfuel":10482,"Ġmill":10483,"idese":10484,"ĠSal":10485,"sher":10486,"ĠBill":10487,"ustody":10488,"manager":10489,"3282":10490,"3351":10491,"olds":10492,"3263":10493,"views":10494,"worlds":10495,"Ġwouldn":10496,"borhood":10497,"Ġmovies":10498,"deaths":10499,"waukee":10500,"Ġfacing":10501,"Ġjudge":10502,"investingnews":10503,"Ġanticip":10504,"apolis":10505,"cagesidese":10506,"cagesideseats":10507,"3119":10508,"3139":10509,"3236":10510,"4103":10511,"5262":10512,"6142":10513,"NA":10514,"SC":10515,"Uk":10516,"War":10517,"eight":10518,"oir":10519,"pun":10520,"2320":10521,"2796":10522,"2794":10523,"2829":10524,"2867":10525,"3076":10526,"3511":10527,"3566":10528,"3671":10529,"3739":10530,"3799":10531,"3796":10532,"3858":10533,"3874":10534,"3979":10535,"3980":10536,"origin":10537,"4029":10538,"4005":10539,"icine":10540,"4443":10541,"3219":10542,"Ġfine":10543,"Ġfell":10544,"4212":10545,"Ġli":10546,"Ġlived":10547,"together":10548,"ifty":10549,"ĠPeter":10550,"irection":10551,"phas":10552,"ĠGrand":10553,"3364":10554,"3266":10555,"aware":10556,"Ġjournal":10557,"argo":10558,"Ġspend":10559,"amiliar":10560,"internet":10561,"arma":10562,"army":10563,"Ġshowing":10564,"Ġmanaged":10565,"lington":10566,"Ġrare":10567,"Ġowner":10568,"hotair":10569,"shopping":10570,"Ġmajority":10571,"Ġreasons":10572,"Ġoccas":10573,"Ġresponded":10574,"Ġwriting":10575,"ĠInvestment":10576,"ĠJackson":10577,"Ġbeautiful":10578,"islature":10579,"spoilers":10580,"ĠFoundation":10581,"3167":10582,"3260":10583,"4200":10584,"5209":10585,"6399":10586,"Jack":10587,"RC":10588,"fre":10589,"iary":10590,"kh":10591,"lic":10592,"pandemic":10593,"sister":10594,"2482":10595,"2717":10596,"2764":10597,"2843":10598,"2978":10599,"2984":10600,"3036":10601,"3050":10602,"3550":10603,"3699":10604,"3798":10605,"3787":10606,"3917":10607,"orp":10608,"4039":10609,"4607":10610,"idden":10611,"omers":10612,"ĠAvenue":10613,"oster":10614,"3360":10615,"ffield":10616,"ogue":10617,"3243":10618,"4385":10619,"Ġjump":10620,"ritain":10621,"Christ":10622,"ificial":10623,"ucker":10624,"ospitals":10625,"stitutional":10626,"rooms":10627,"official":10628,"funeral":10629,"ĠSecurity":10630,"Ġfilms":10631,"concerns":10632,"Ġdropped":10633,"Ġboosted":10634,"3137":10635,"3157":10636,"3141":10637,"3179":10638,"3166":10639,"3193":10640,"4100":10641,"5300":10642,"6390":10643,"City":10644,"Med":10645,"bucks":10646,"fab":10647,"tell":10648,"uct":10649,"2851":10650,"2955":10651,"renew":10652,"3099":10653,"3513":10654,"3615":10655,"3498":10656,"3401":10657,"3707":10658,"3772":10659,"3951":10660,"4630":10661,"4659":10662,"4909":10663,"Ġsociety":10664,"Ġhaven":10665,"Ġcars":10666,"Ġrepe":10667,"Ġlanguage":10668,"Ġemail":10669,"ulated":10670,"Ġnormal":10671,"Ġcomplain":10672,"ĠRock":10673,"ĠFl":10674,"ĠFederal":10675,"3350":10676,"process":10677,"4363":10678,"4375":10679,"rence":10680,"5501":10681,"6389":10682,"canal":10683,"poses":10684,"note":10685,"orders":10686,"Ġsupporting":10687,"putin":10688,"United":10689,"ĠColorado":10690,"rapid":10691,"Ġlocated":10692,"zero":10693,"trailer":10694,"3101":10695,"PA":10696,"Tom":10697,"Well":10698,"jail":10699,"nomin":10700,"pin":10701,"pel":10702,"since":10703,"viol":10704,"2903":10705,"3021":10706,"3578":10707,"3561":10708,"3610":10709,"3627":10710,"3676":10711,"3466":10712,"3827":10713,"3949":10714,"3977":10715,"3900":10716,"3906":10717,"4621":10718,"4652":10719,"arms":10720,"icals":10721,"Ġskills":10722,"4458":10723,"chair":10724,"rog":10725,"olar":10726,"urge":10727,"newsandstar":10728,"sever":10729,"Ġlose":10730,"Ġlines":10731,"illaw":10732,"teams":10733,"3288":10734,"ewis":10735,"Ġ2016":10736,"oyd":10737,"seek":10738,"politic":10739,"oxford":10740,"iverpool":10741,"israeli":10742,"Ġallows":10743,"Ġpopulation":10744,"Ġprofit":10745,"Ġadvantage":10746,"dogs":10747,"ĠBeach":10748,"modern":10749,"Ġcompletely":10750,"Ġresponsible":10751,"chatgpt":10752,"Ġfavorite":10753,"3200":10754,"3164":10755,"4199":10756,"4172":10757,"Ke":10758,"firm":10759,"iphone":10760,"len":10761,"ride":10762,"sleep":10763,"siasat":10764,"2729":10765,"2771":10766,"2913":10767,"2985":10768,"onna":10769,"3421":10770,"3791":10771,"3856":10772,"3924":10773,"oral":10774,"4048":10775,"4060":10776,"4089":10777,"4658":10778,"4641":10779,"4805":10780,"3327":10781,"3328":10782,"4525":10783,"nee":10784,"3110":10785,"Ġmiles":10786,"Ġdollar":10787,"Ġdocument":10788,"emi":10789,"Ġnice":10790,"Their":10791,"3298":10792,"ĠChicago":10793,"glouce":10794,"investments":10795,"lined":10796,"Ġdefend":10797,"tribute":10798,"Ġsolid":10799,"officials":10800,"ĠSecurities":10801,"Ġcritic":10802,"teacher":10803,"Ġexisting":10804,"rexham":10805,"3104":10806,"3158":10807,"3197":10808,"3196":10809,"3183":10810,"LE":10811,"Paul":10812,"SW":10813,"kim":10814,"Ġer":10815,"inner":10816,"3047":10817,"3074":10818,"3041":10819,"3532":10820,"3564":10821,"3623":10822,"3638":10823,"3646":10824,"3748":10825,"3776":10826,"3878":10827,"3808":10828,"3804":10829,"3990":10830,"3907":10831,"4061":10832,"4697":10833,"4741":10834,"oured":10835,"Ġslight":10836,"Ġsuit":10837,"chand":10838,"chinese":10839,"4229":10840,"idel":10841,"adow":10842,"uto":10843,"utral":10844,"tops":10845,"ulf":10846,"ieces":10847,"ĠBra":10848,"3344":10849,"3373":10850,"4400":10851,"4493":10852,"Those":10853,"argets":10854,"Ġagreed":10855,"businesses":10856,"Ġconsult":10857,"Ġseasons":10858,"techcrunch":10859,"University":10860,"spects":10861,"migrants":10862,"greek":10863,"csi":10864,"counterpunch":10865,"Ġexperienced":10866,"Ġcandidate":10867,"devonlive":10868,"Ġwelcome":10869,"Ġanswer":10870,"aberdeen":10871,"Ġlosing":10872,"3235":10873,"4110":10874,"4231":10875,"7356":10876,"Cons":10877,"Ins":10878,"Ken":10879,"NE":10880,"journey":10881,"mg":10882,"mn":10883,"sets":10884,"iner":10885,"2898":10886,"3560":10887,"3631":10888,"3697":10889,"3643":10890,"3653":10891,"3774":10892,"3915":10893,"3976":10894,"4004":10895,"4083":10896,"4093":10897,"4041":10898,"4904":10899,"5081":10900,"6958":10901,"3312":10902,"3318":10903,"isbury":10904,"isodes":10905,"Ġsleep":10906,"ila":10907,"neys":10908,"Ġfit":10909,"Ġpage":10910,"4211":10911,"olly":10912,"ĠChe":10913,"ĠDef":10914,"february":10915,"3303":10916,"avoid":10917,"3347":10918,"izabeth":10919,"ongwriter":10920,"Ġwilling":10921,"odies":10922,"4470":10923,"5355":10924,"Ġadop":10925,"5251":10926,"ĠStud":10927,"minute":10928,"Ġterror":10929,"hosts":10930,"---":10931,"corporated":10932,"americansongwriter":10933,"bleedingcool":10934,"Ġpublished":10935,"4148":10936,"4189":10937,"6127":10938,"Air":10939,"Nor":10940,"RO":10941,"Sy":10942,"VE":10943,"cd":10944,"fi":10945,"favor":10946,"gic":10947,"sched":10948,"wtop":10949,"Ġ70":10950,"anon":10951,"2854":10952,"2960":10953,"3095":10954,"3061":10955,"3581":10956,"3608":10957,"3433":10958,"3462":10959,"3825":10960,"3959":10961,"3978":10962,"4010":10963,"4059":10964,"4945":10965,"4743":10966,"4791":10967,"6973":10968,"Ġsnow":10969,"Ġboss":10970,"4217":10971,"7522":10972,"Ġcaught":10973,"umn":10974,"apy":10975,"acked":10976,"expected":10977,"Ġshown":10978,"3302":10979,"bery":10980,"3290":10981,"3270":10982,"4584":10983,"4241":10984,"Ġtruly":10985,"aley":10986,"heritage":10987,"Ġconsensus":10988,"Ġsmart":10989,"frank":10990,"Ġoccup":10991,"Ġcustomer":10992,"Ġdevice":10993,"microsoft":10994,"multi":10995,"labour":10996,"ĠAcademy":10997,"scotsman":10998,"obituary":10999,"3151":11000,"3194":11001,"3239":11002,"4275":11003,"James":11004,"eer":11005,"hatt":11006,"moon":11007,"southern":11008,"3094":11009,"3503":11010,"3553":11011,"3667":11012,"3724":11013,"3735":11014,"3733":11015,"3705":11016,"3877":11017,"3956":11018,"3988":11019,"4036":11020,"4866":11021,"4771":11022,"edmonton":11023,"3212":11024,"Ġrent":11025,"Ġeffic":11026,"aret":11027,"dee":11028,"ounger":11029,"ĠItal":11030,"ĠPlay":11031,"Ġaren":11032,"ĠHamas":11033,"Ġchurch":11034,"ĠWestern":11035,"3349":11036,"3250":11037,"3295":11038,"3370":11039,"3399":11040,"4479":11041,"4570":11042,"4355":11043,"Ġamid":11044,"tenham":11045,"ontario":11046,"Ġretail":11047,"Ġguy":11048,"charity":11049,"altimore":11050,"apse":11051,"nigerian":11052,"films":11053,"ydney":11054,"popsugar":11055,"3106":11056,"4104":11057,"4158":11058,"4260":11059,"4300":11060,"4380":11061,"Cont":11062,"museum":11063,"pub":11064,"weeks":11065,"Ġ90":11066,"2999":11067,"2972":11068,"3545":11069,"3622":11070,"3449":11071,"3472":11072,"3811":11073,"3920":11074,"orce":11075,"Ġaid":11076,"isf":11077,"ande":11078,"Ġmix":11079,"ument":11080,"construction":11081,"3304":11082,"acts":11083,"brings":11084,"4382":11085,"cords":11086,"critic":11087,"6775":11088,"canber":11089,"apping":11090,"Ġdecre":11091,"laundry":11092,"Ġdifference":11093,"scores":11094,"ĠCoast":11095,"increases":11096,"photo":11097,"chiefs":11098,"wanted":11099,"quisition":11100,"receives":11101,"Ġbelieved":11102,"wedding":11103,"3162":11104,"3246":11105,"4118":11106,"4280":11107,"Big":11108,"Cent":11109,"Ms":11110,"dn":11111,"giz":11112,"gives":11113,"hamp":11114,"wv":11115,"wart":11116,"Ġolder":11117,"thony":11118,"2791":11119,"2868":11120,"3522":11121,"3589":11122,"3690":11123,"3698":11124,"3632":11125,"3418":11126,"3444":11127,"3747":11128,"3879":11129,"3860":11130,"3854":11131,"3881":11132,"enix":11133,"stershire":11134,"atar":11135,"cold":11136,"4012":11137,"202303":11138,"itr":11139,"Ġtro":11140,"Ġtrou":11141,"comings":11142,"4424":11143,"Ġpriv":11144,"Ġmus":11145,"Ġdollars":11146,"erself":11147,"Ġlink":11148,"Ġnomin":11149,"atever":11150,"ĠBr":11151,"osen":11152,"ĠWater":11153,"3278":11154,"obi":11155,"3394":11156,"ĠEducation":11157,"4489":11158,"4261":11159,"4252":11160,"pression":11161,"coronation":11162,"redd":11163,"Ġcount":11164,"scape":11165,"Ġbeta":11166,"capt":11167,"asked":11168,"Ġknows":11169,"Ġmarkets":11170,"Ġaccident":11171,"editorial":11172,"hollywoodlife":11173,"broncos":11174,"3156":11175,"3170":11176,"4134":11177,"7121":11178,"BS":11179,"Cap":11180,"Del":11181,"East":11182,"aver":11183,"fare":11184,"mt":11185,"mau":11186,"wcsi":11187,"2752":11188,"2926":11189,"2936":11190,"2977":11191,"3093":11192,"3618":11193,"3609":11194,"3662":11195,"3661":11196,"3424":11197,"3477":11198,"3405":11199,"3441":11200,"3491":11201,"3784":11202,"3763":11203,"3953":11204,"4023":11205,"4063":11206,"4649":11207,"4812":11208,"4858":11209,"esh":11210,"3310":11211,"3220":11212,"Ġfranchise":11213,"Ġfocused":11214,"rose":11215,"4315":11216,"4214":11217,"4228":11218,"ĠSc":11219,"spider":11220,"ĠMary":11221,"plied":11222,"Ġconnection":11223,"truth":11224,"ĠLee":11225,"3283":11226,"4364":11227,"4398":11228,"Ġunit":11229,"ĠOffic":11230,"7354":11231,"monsters":11232,"canadian":11233,"Ġcontest":11234,"finals":11235,"Ġdecisions":11236,"Ġmanufact":11237,"ientists":11238,"character":11239,"midlands":11240,"ĠMinistry":11241,"speaker":11242,"modo":11243,"Ġfighting":11244,"ĠWilliams":11245,"streaming":11246,"uxury":11247,"ĠFrancis":11248,"3130":11249,"3176":11250,"3184":11251,"3221":11252,"4140":11253,"4285":11254,"effort":11255,"nz":11256,"vt":11257,"3086":11258,"3097":11259,"3538":11260,"3438":11261,"3468":11262,"3483":11263,"3746":11264,"3753":11265,"3842":11266,"4008":11267,"4003":11268,"4600":11269,"5062":11270,"wwd":11271,"Ġtit":11272,"Ġtruth":11273,"4450":11274,"Ġbaby":11275,"chase":11276,"changing":11277,"roc":11278,"Ġdangerous":11279,"Ġcanc":11280,"oly":11281,"utin":11282,"Ġstor":11283,"Ġstruct":11284,"ĠRoyal":11285,"ĠFestival":11286,"3296":11287,"provid":11288,"rows":11289,"ĠOpen":11290,"Ġmeant":11291,"Ġthanks":11292,"scene":11293,"Ġblue":11294,"Ġtrail":11295,"Ġwinner":11296,"planning":11297,"Ġmovement":11298,"Ġtrading":11299,"hibition":11300,"oscow":11301,"Feed":11302,"abinet":11303,"Ġnegative":11304,"ĠETF":11305,"3149":11306,"3204":11307,"4180":11308,"4195":11309,"CH":11310,"aco":11311,"kind":11312,"picks":11313,"sens":11314,"soft":11315,"tree":11316,"wen":11317,"Ġ35":11318,"2911":11319,"3516":11320,"3536":11321,"3414":11322,"3437":11323,"3757":11324,"3752":11325,"3847":11326,"3896":11327,"3893":11328,"stal":11329,"couple":11330,"4028":11331,"4058":11332,"4090":11333,"4085":11334,"3311":11335,"3313":11336,"Ġspring":11337,"4412":11338,"4442":11339,"3215":11340,"Ġbanks":11341,"4313":11342,"olph":11343,"heavy":11344,"7334":11345,"Ġbecoming":11346,"lymp":11347,"abb":11348,"ĠMic":11349,"ĠMont":11350,"istics":11351,"âĢĿ,":11352,"3398":11353,"4480":11354,"4506":11355,"ĠâĢ¦":11356,"Ġalthough":11357,"encer":11358,"Ġrap":11359,"victed":11360,"Ġrestaurant":11361,"Ġfaced":11362,"Ġfacility":11363,"rockwell":11364,"Ġreflect":11365,"apeut":11366,"Ġbringing":11367,"ĠSupreme":11368,"Ġvolunte":11369,"Ġphoto":11370,"christian":11371,"gizmodo":11372,"3133":11373,"3198":11374,"4168":11375,"4181":11376,"4298":11377,"6274":11378,"7178":11379,"Alex":11380,"Mal":11381,"bag":11382,"done":11383,"lose":11384,"tow":11385,"uis":11386,"reck":11387,"resources":11388,"3048":11389,"3092":11390,"3559":11391,"3504":11392,"3665":11393,"3431":11394,"3464":11395,"3740":11396,"3742":11397,"3765":11398,"3781":11399,"3887":11400,"3853":11401,"4009":11402,"4072":11403,"Ġfear":11404,"4321":11405,"otes":11406,"Ġrelat":11407,"agos":11408,"raud":11409,"ĠMountain":11410,"ĠAgency":11411,"erez":11412,"enda":11413,"Ġrac":11414,"berta":11415,"3346":11416,"owned":11417,"3358":11418,"Ġorigin":11419,"angeles":11420,"legend":11421,"moving":11422,"Ġearned":11423,"dependence":11424,"barr":11425,"needed":11426,"eteur":11427,"giants":11428,"ĠSenate":11429,"Ġhelps":11430,"Ġinitial":11431,"3189":11432,"3195":11433,"4240":11434,"4306":11435,"6555":11436,"King":11437,"cell":11438,"iy":11439,"sox":11440,"Ġve":11441,"2818":11442,"2956":11443,"2921":11444,"2975":11445,"2991":11446,"3006":11447,"3527":11448,"3534":11449,"3554":11450,"3584":11451,"3649":11452,"3693":11453,"3745":11454,"3884":11455,"3852":11456,"Ġthr":11457,"orian":11458,"4047":11459,"4077":11460,"4000":11461,"4095":11462,"4051":11463,"4639":11464,"4622":11465,"4892":11466,"4727":11467,"5000":11468,"202304":11469,"3323":11470,"Ġscoring":11471,"4439":11472,"3210":11473,"chin":11474,"rot":11475,"sees":11476,"abs":11477,"ifies":11478,"oore":11479,"shub":11480,"Ġcoverage":11481,"preh":11482,"ĠTer":11483,"technologies":11484,"clar":11485,"Ġvulner":11486,"begins":11487,"3277":11488,"3374":11489,"4369":11490,"ikTok":11491,"ritory":11492,"esterday":11493,"mainlink":11494,"reviewjournal":11495,"growing":11496,"mediaite":11497,"Ġsolutions":11498,"Ġtraded":11499,"Ġrecorded":11500,"slashdot":11501,"purchased":11502,"Ġautom":11503,"Ġoccurred":11504,"mainlinkanon":11505,"4109":11506,"4177":11507,"4206":11508,"4370":11509,"bom":11510,"mu":11511,"nw":11512,"pitch":11513,"pended":11514,"inverness":11515,"2979":11516,"3087":11517,"3505":11518,"3660":11519,"3672":11520,"3496":11521,"3406":11522,"3402":11523,"3759":11524,"3768":11525,"3789":11526,"3709":11527,"3809":11528,"3910":11529,"3935":11530,"4066":11531,"5986":11532,"Ġsoftware":11533,"3214":11534,"5415":11535,"Ġpaper":11536,"ami":11537,"idance":11538,"agan":11539,"ĠSur":11540,"ĠSher":11541,"ifer":11542,"ĠIt":11543,"cloud":11544,"ĠWood":11545,"3268":11546,"4487":11547,"4463":11548,"4473":11549,"3241":11550,"5382":11551,"grant":11552,"ĠChampionship":11553,"ahu":11554,"intelligence":11555,"annah":11556,"notes":11557,"ĠInstitute":11558,"library":11559,"rising":11560,"Ġhighly":11561,"arsenal":11562,"Ġcorpor":11563,"suburbs":11564,"Ġpurchase":11565,"Ġstopped":11566,"golden":11567,"Ġlarger":11568,"Ġlimit":11569,"influ":11570,"Ġregarding":11571,"4132":11572,"6126":11573,"Michael":11574,"Sw":11575,"eco":11576,"hs":11577,"hours":11578,"number":11579,"nuclear":11580,"saving":11581,"2887":11582,"3054":11583,"3519":11584,"3542":11585,"3595":11586,"3583":11587,"3648":11588,"3604":11589,"3423":11590,"3807":11591,"orse":11592,"4076":11593,"4611":11594,"4687":11595,"5620":11596,"ingly":11597,"7031":11598,"committee":11599,"3211":11600,"Ġpiece":11601,"4322":11602,"toms":11603,"Ġeyes":11604,"embr":11605,"ĠAff":11606,"Ġconflict":11607,"3256":11608,"3257":11609,"3297":11610,"odi":11611,"4482":11612,"4264":11613,"Ġupdate":11614,"ervation":11615,"nationalist":11616,"Ġtelevision":11617,"Ġjustice":11618,"Ġactive":11619,"holding":11620,"Ġassets":11621,"ĠDevelop":11622,"presidential":11623,"Ġartist":11624,"ĠExchange":11625,"Ġwatching":11626,"Ġappearance":11627,"kaieteur":11628,"kaieteurnewsonline":11629,"EL":11630,"PM":11631,"brom":11632,"beng":11633,"hud":11634,"jets":11635,"khan":11636,"member":11637,"pull":11638,"scott":11639,"3524":11640,"3635":11641,"3607":11642,"3692":11643,"3682":11644,"3434":11645,"3442":11646,"3782":11647,"3810":11648,"3837":11649,"3899":11650,"3921":11651,"3993":11652,"4605":11653,"4651":11654,"4918":11655,"3335":11656,"itig":11657,"Ġhits":11658,"Ġhundreds":11659,"Ġbag":11660,"Ġbrief":11661,"ayed":11662,"8325":11663,"seen":11664,"Ġcomm":11665,"Ġshut":11666,"3369":11667,"3359":11668,"proper":11669,"4509":11670,"4478":11671,"4572":11672,"4302":11673,"corn":11674,"7355":11675,"airy":11676,"Ġimag":11677,"ĠVir":11678,"department":11679,"Ġpregn":11680,"swift":11681,"Ġcarry":11682,"Ġhappens":11683,"ĠAmericans":11684,"vehicle":11685,"breaks":11686,"bdirty":11687,"jackson":11688,"boosts":11689,"celebdirty":11690,"glasgowtimes":11691,"Ġbottom":11692,"celebdirtylaundry":11693,"3159":11694,"3238":11695,"4115":11696,"Ab":11697,"Bu":11698,"Gold":11699,"Mid":11700,"Mad":11701,"Str":11702,"TH":11703,"fear":11704,"lap":11705,"mexico":11706,"publ":11707,"yles":11708,"3067":11709,"3009":11710,"3585":11711,"3606":11712,"3480":11713,"3485":11714,"3712":11715,"3702":11716,"3925":11717,"stances":11718,"straight":11719,"coup":11720,"4019":11721,"4096":11722,"4097":11723,"4612":11724,"4681":11725,"5865":11726,"4554":11727,"leaves":11728,"Ġfavour":11729,"Ġfifth":11730,"Ġple":11731,"elon":11732,"elsea":11733,"aded":11734,"8326":11735,"agency":11736,"oming":11737,"ained":11738,"ieved":11739,"ĠBer":11740,"kevin":11741,"ubusiness":11742,"3396":11743,"3397":11744,"Ġplanned":11745,"awful":11746,"4490":11747,"5494":11748,"Ġclin":11749,"Invest":11750,"9477":11751,"9904":11752,"Ġspeech":11753,"Ġenh":11754,"okie":11755,"ushed":11756,"value":11757,"Ġapproved":11758,"Ġlaws":11759,"accident":11760,"spectator":11761,"ĠCanadian":11762,"Add":11763,"Ġcelebrate":11764,"thehindubusiness":11765,"Ġmotor":11766,"Ġeasily":11767,"Ġexpressed":11768,"appeal":11769,"thehindubusinessline":11770,"3144":11771,"3160":11772,"4159":11773,"4176":11774,"4265":11775,"5245":11776,"8798":11777,"Fr":11778,"Port":11779,"catholic":11780,"dvid":11781,"finds":11782,"natural":11783,"anish":11784,"reject":11785,"3549":11786,"3521":11787,"3567":11788,"3639":11789,"3677":11790,"3641":11791,"3465":11792,"3400":11793,"3718":11794,"3725":11795,"3788":11796,"3732":11797,"3785":11798,"3848":11799,"3912":11800,"3923":11801,"4020":11802,"4667":11803,"4693":11804,"7971":11805,"Ġwood":11806,"Ġwarm":11807,"4548":11808,"3217":11809,"5429":11810,"4223":11811,"Ġcrew":11812,"unicip":11813,"tos":11814,"agg":11815,"ĠSil":11816,"ĠShow":11817,"oos":11818,"defeat":11819,"ackdown":11820,"igns":11821,"phones":11822,"3357":11823,"3387":11824,"4468":11825,"Ġimage":11826,"ĠVer":11827,"uggets":11828,"engine":11829,"investors":11830,"williams":11831,"highlights":11832,"auto":11833,"Ġcapacity":11834,"delhi":11835,"ployment":11836,"senior":11837,"Ġremaining":11838,"Ġspeaking":11839,"Ġconcerned":11840,"Ġequipment":11841,"ĠUkrainian":11842,"themed":11843,"square":11844,"ĠAmazon":11845,"ropshire":11846,"Ġstrategy":11847,"Ġimpressive":11848,"Ġincredible":11849,"dvidshub":11850,"3142":11851,"3175":11852,"4125":11853,"4184":11854,"4270":11855,"5146":11856,"5164":11857,"Good":11858,"Mac":11859,"fm":11860,"fig":11861,"pj":11862,"rage":11863,"vac":11864,"Ġice":11865,"inals":11866,"anch":11867,"2730":11868,"3546":11869,"3500":11870,"3594":11871,"3614":11872,"3655":11873,"3410":11874,"3482":11875,"3703":11876,"3820":11877,"3815":11878,"3833":11879,"3801":11880,"3928":11881,"3966":11882,"4032":11883,"4948":11884,"4961":11885,"4733":11886,"5040":11887,"5690":11888,"edding":11889,"itoba":11890,"pse":11891,"4510":11892,"4527":11893,"4542":11894,"Ġsu":11895,"Ġspl":11896,"Ġfaith":11897,"adam":11898,"uru":11899,"otion":11900,"ĠSystem":11901,"oples":11902,"opher":11903,"Ġstuff":11904,"abad":11905,"ldaily":11906,"mlb":11907,"osa":11908,"prene":11909,"television":11910,"Ġvir":11911,"Ġveter":11912,"3342":11913,"3291":11914,"3393":11915,"riculture":11916,"4590":11917,"4598":11918,"4508":11919,"4406":11920,"acebook":11921,"rena":11922,"Ġunion":11923,"rowing":11924,"6391":11925,"guilty":11926,"cola":11927,"carl":11928,"rives":11929,"course":11930,"question":11931,"female":11932,"ĠMcC":11933,"Ġreportedly":11934,"Ġdeaths":11935,"Ġtalks":11936,"Donald":11937,"International":11938,"Ġintroduced":11939,"hulldaily":11940,"products":11941,"Ġextremely":11942,"Ġfemale":11943,"hulldailymail":11944,"3208":11945,"4179":11946,"4190":11947,"4187":11948,"4250":11949,"4277":11950,"5163":11951,"Ag":11952,"Go":11953,"OS":11954,"eur":11955,"fresh":11956,"kg":11957,"nap":11958,"uations":11959,"3023":11960,"3027":11961,"3508":11962,"3446":11963,"3448":11964,"3741":11965,"3844":11966,"3851":11967,"3918":11968,"3992":11969,"alition":11970,"4075":11971,"4081":11972,"4660":11973,"5003":11974,"3324":11975,"Ġtelling":11976,"comb":11977,"4457":11978,"3218":11979,"Ġpen":11980,"ammed":11981,"4220":11982,"Ġdomin":11983,"Ġcitizens":11984,"8336":11985,"5224":11986,"omes":11987,"rare":11988,"aki":11989,"Ġisland":11990,"Ġstars":11991,"ĠPremier":11992,"Ġcold":11993,"Ġshoot":11994,"ĠDev":11995,"ĠGame":11996,"whel":11997,"4580":11998,"3242":11999,"5383":12000,"4281":12001,"Ġkid":12002,"ighth":12003,"rescue":12004,"9501":12005,"posit":12006,"rett":12007,"doors":12008,"eyes":12009,"ducing":12010,"Ġhealthy":12011,"commod":12012,"Ġexcell":12013,"doesnt":12014,"lewrockwell":12015,"appointed":12016,"Ġbelieves":12017,"Ġbalance":12018,"Ġspirit":12019,"examinerlive":12020,"3180":12021,"4130":12022,"4169":12023,"4235":12024,"4274":12025,"Like":12026,"Rep":12027,"fitness":12028,"hub":12029,"rition":12030,"said":12031,"13186":12032,"inity":12033,"2881":12034,"revolution":12035,"reprene":12036,"3544":12037,"3575":12038,"3502":12039,"3658":12040,"3688":12041,"3428":12042,"3473":12043,"3451":12044,"3736":12045,"3793":12046,"3846":12047,"3803":12048,"4043":12049,"4613":12050,"4609":12051,"4914":12052,"4994":12053,"4993":12054,"4880":12055,"3329":12056,"itarian":12057,"7756":12058,"4420":12059,"8049":12060,"7514":12061,"Ġcas":12062,"ading":12063,"rix":12064,"speech":12065,"ĠMer":12066,"ĠIran":12067,"Ġrule":12068,"ĠFrench":12069,"Ġchoose":12070,"ĠWales":12071,"3377":12072,"4462":12073,"4507":12074,"Ġacknow":12075,"gran":12076,"4452":12077,"Ġopposition":12078,"moves":12079,"Ġminute":12080,"deadspin":12081,"Ġexpectations":12082,"rolling":12083,"magic":12084,"Ġfacilities":12085,"advisory":12086,"Ġlearned":12087,"africanews":12088,"Ġallegedly":12089,"summit":12090,"jamaica":12091,"'.":12092,"3123":12093,"3145":12094,"3172":12095,"4120":12096,"4128":12097,"4163":12098,"4174":12099,"4193":12100,"4286":12101,"5206":12102,"Sever":12103,"UK":12104,"cry":12105,"dividend":12106,"gam":12107,"kl":12108,"soon":12109,"ugh":12110,"3565":12111,"3681":12112,"3416":12113,"3726":12114,"3783":12115,"3761":12116,"3859":12117,"3876":12118,"3958":12119,"3975":12120,"3972":12121,"3961":12122,"cow":12123,"4045":12124,"4820":12125,"4817":12126,"4849":12127,"4877":12128,"4730":12129,"4796":12130,"5944":12131,"comfort":12132,"4440":12133,"andcritics":12134,"Ġtools":12135,"4339":12136,"olitical":12137,"iri":12138,"ĠSociety":12139,"ĠCont":12140,"above":12141,"essions":12142,"isted":12143,"acking":12144,"placed":12145,"ello":12146,"peg":12147,"Ġchair":12148,"3275":12149,"3375":12150,"3385":12151,"3395":12152,"aches":12153,"4484":12154,"4494":12155,"5465":12156,"angers":12157,"5345":12158,"flash":12159,"Ġpoll":12160,"currency":12161,"Ġflag":12162,"Ġexpensive":12163,"Ġconcern":12164,"ĠCorp":12165,"ING":12166,"ĠCarolina":12167,"Ġsteps":12168,"Ġfigures":12169,"shorenewsnetwork":12170,"Ġdomestic":12171,"monstersandcritics":12172,"4178":12173,"4269":12174,"MS":12175,"Mor":12176,"NP":12177,"Sal":12178,"document":12179,"follow":12180,"larry":12181,"serious":12182,"Ġ80":12183,"anes":12184,"3574":12185,"3613":12186,"3633":12187,"3470":12188,"3460":12189,"3895":12190,"3957":12191,"3998":12192,"3905":12193,"4024":12194,"4052":12195,"4966":12196,"4954":12197,"4995":12198,"5846":12199,"5914":12200,"5095":12201,"4531":12202,"Ġsend":12203,"4444":12204,"9979":12205,"Ġfellow":12206,"Ġmist":12207,"4218":12208,"9532":12209,"5227":12210,"ĠScottish":12211,"Ġstret":12212,"ĠMuseum":12213,"ĠBrad":12214,"ĠDec":12215,"Ġrising":12216,"izon":12217,"3371":12218,"3381":12219,"assador":12220,"ached":12221,"4597":12222,"4472":12223,"angel":12224,"Ġsequ":12225,"erald":12226,"nett":12227,"incip":12228,"lower":12229,"color":12230,"Ġcounty":12231,"steps":12232,"playoff":12233,"Ġstarts":12234,"Ġsetting":12235,"ĠArmy":12236,"Ġmissed":12237,"Ġprogramme":12238,"newcastleherald":12239,"candidates":12240,"Ġapplication":12241,"Ġpicture":12242,"Ġrecommend":12243,"Ġinsurance":12244,"comingsoon":12245,"4141":12246,"4164":12247,"4162":12248,"4358":12249,"4297":12250,"5178":12251,"Br":12252,"Jo":12253,"Play":12254,"ait":12255,"bun":12256,"dance":12257,"voy":12258,"Ġups":12259,"10309":12260,"3541":12261,"3636":12262,"3469":12263,"3488":12264,"3790":12265,"3839":12266,"3892":12267,"3933":12268,"3931":12269,"3962":12270,"3991":12271,"album":12272,"4057":12273,"4983":12274,"4800":12275,"4712":12276,"4786":12277,"4709":12278,"5023":12279,"icing":12280,"icit":12281,"4519":12282,"leagues":12283,"Ġfant":12284,"Ġdream":12285,"Ġdisease":12286,"imming":12287,"oted":12288,"rible":12289,"places":12290,"ĠFox":12291,"mann":12292,"ĠLabour":12293,"production":12294,"3388":12295,"4565":12296,"4481":12297,"Ġadjust":12298,"Ġ($":12299,"5261":12300,"erved":12301,"8604":12302,"Instead":12303,"oka":12304,"ĠVict":12305,"letic":12306,"smh":12307,"Ġmonitor":12308,"Ġregional":12309,"Ġknowledge":12310,"parliament":12311,"Ġguilty":12312,"voices":12313,"Ġfactors":12314,"Ġinterested":12315,"Today":12316,"remains":12317,"benefits":12318,"illawarr":12319,"4108":12320,"4117":12321,"4142":12322,"4186":12323,"4183":12324,"4247":12325,"6137":12326,"7123":12327,"Green":12328,"IP":12329,"Other":12330,"bles":12331,"brain":12332,"fake":12333,"hio":12334,"iency":12335,"liv":12336,"tah":12337,"vy":12338,"Ġarch":12339,"3588":12340,"3555":12341,"3611":12342,"3478":12343,"3731":12344,"3794":12345,"3813":12346,"3841":12347,"3919":12348,"3926":12349,"3903":12350,"3971":12351,"4013":12352,"4037":12353,"4084":12354,"4638":12355,"4640":12356,"4663":12357,"4912":12358,"4829":12359,"4836":12360,"4874":12361,"4754":12362,"5067":12363,"5086":12364,"Ġsession":12365,"7730":12366,"4437":12367,"Ġbooks":12368,"roid":12369,"robert":12370,"Ġdiv":12371,"Ġcrypto":12372,"uter":12373,"otic":12374,"6212":12375,"theatre":12376,"Ġstyle":12377,"ianonline":12378,"ĠTimes":12379,"ĠDaniel":12380,"overty":12381,"clash":12382,"manent":12383,"Ġexcept":12384,"ipping":12385,"actors":12386,"avig":12387,"3392":12388,"ounded":12389,"4585":12390,"4404":12391,"4348":12392,"5385":12393,"4243":12394,"4301":12395,"4291":12396,"4451":12397,"ĠCharles":12398,"cession":12399,"Ġpartners":12400,"Ġdecade":12401,"killer":12402,"pmn":12403,"Ġimportance":12404,"ĠQueen":12405,"Ġreading":12406,"Ġelected":12407,"model":12408,"ĠWealth":12409,"teachers":12410,"graded":12411,"beautiful":12412,"hopes":12413,"candidate":12414,"jerseyeveningpost":12415,"4102":12416,"4129":12417,"4131":12418,"4156":12419,"4209":12420,"4266":12421,"5500":12422,"Bur":12423,"Bec":12424,"Bank":12425,"Its":12426,"easy":12427,"mr":12428,"10256":12429,"thed":12430,"3077":12431,"3518":12432,"3533":12433,"3645":12434,"3486":12435,"3762":12436,"3889":12437,"3862":12438,"3922":12439,"3996":12440,"4913":12441,"4890":12442,"4899":12443,"4886":12444,"4864":12445,"4748":12446,"4775":12447,"5848":12448,"7956":12449,"3331":12450,"Ġwish":12451,"6731":12452,"Ġfamous":12453,"Ġhistor":12454,"4337":12455,"sector":12456,"Ġestate":12457,"abled":12458,"ĠMah":12459,"aping":12460,"ĠDes":12461,"ĠWomen":12462,"ĠEag":12463,"4486":12464,"4388":12465,"Ġnegoti":12466,"5476":12467,"Ġ2015":12468,"4455":12469,"airport":12470,"Ġmeth":12471,"anka":12472,"Ġteen":12473,"amsung":12474,"borne":12475,"reported":12476,"Ġowners":12477,"queen":12478,"Ġwarned":12479,"Ġkeeping":12480,"closure":12481,"ĠResearch":12482,"Ġcausing":12483,"Ġtyp":12484,"musk":12485,"drugs":12486,"Ġseemed":12487,"Ġsuffered":12488,"Ġmaterial":12489,"Ġprepared":12490,"Ġseparate":12491,"problem":12492,"important":12493,"republicans":12494,"Ġmoments":12495,"different":12496,"ittsburgh":12497,"3237":12498,"3182":12499,"4112":12500,"4113":12501,"4133":12502,"4170":12503,"4207":12504,"4244":12505,"5167":12506,"7175":12507,"Cr":12508,"ET":12509,"Rec":12510,"WE":12511,"dynam":12512,"gang":12513,"govern":12514,"jar":12515,"marg":12516,"xic":12517,"inos":12518,"oning":12519,"3073":12520,"3650":12521,"3605":12522,"3664":12523,"3490":12524,"3432":12525,"3829":12526,"3897":12527,"3885":12528,"3894":12529,"3861":12530,"3916":12531,"3927":12532,"3960":12533,"3945":12534,"3954":12535,"orough":12536,"5741":12537,"4082":12538,"4618":12539,"5990":12540,"5068":12541,"6624":12542,"6083":12543,"Ġscr":12544,"4428":12545,"Ġpenal":12546,"4311":12547,"4326":12548,"acre":12549,"âĢĻ.":12550,"ĠSand":12551,"forum":12552,"ĠAb":12553,"apest":12554,"ieves":12555,"uren":12556,"ureau":12557,"ĠLife":12558,"ĠGreat":12559,"ĠGoogle":12560,"dailyecho":12561,"ĠNations":12562,"izza":12563,"3379":12564,"4362":12565,"4350":12566,"Ġworse":12567,"4303":12568,"argus":12569,"intro":12570,"collect":12571,"Ġuser":12572,"China":12573,"winner":12574,"higher":12575,"viral":12576,"Ġexperts":12577,"Ġpaying":12578,"cipl":12579,"Ġpotentially":12580,"costs":12581,"audi":12582,"Ġpatient":12583,"ĠEnglish":12584,"farmers":12585,"Ġvoters":12586,"Ġdrugs":12587,"Ġscheme":12588,"Ġmargin":12589,"4139":12590,"4165":12591,"4290":12592,"5139":12593,"Rock":12594,"Royal":12595,"aun":12596,"bike":12597,"ek":12598,"gift":12599,"yellow":12600,"3563":12601,"3656":12602,"3427":12603,"3487":12604,"3495":12605,"3734":12606,"3777":12607,"3836":12608,"3800":12609,"3802":12610,"3938":12611,"3969":12612,"3997":12613,"3942":12614,"4025":12615,"4080":12616,"4001":12617,"4949":12618,"4847":12619,"4842":12620,"5849":12621,"4517":12622,"Ġtight":12623,"Ġseek":12624,"Ġflight":12625,"Ġbul":12626,"eler":12627,"4335":12628,"urious":12629,"sem":12630,"umar":12631,"thestar":12632,"deed":12633,"defin":12634,"istle":12635,"ĠIm":12636,"plays":12637,"Ġcoast":12638,"Ġconversation":12639,"ĠDun":12640,"ĠGood":12641,"ĠGovernor":12642,"Ġexchange":12643,"3284":12644,"beyond":12645,"probe":12646,"4485":12647,"4573":12648,"ancorp":12649,"ĠKhan":12650,"4454":12651,"ĠStan":12652,"rones":12653,"ielder":12654,"aiwan":12655,"undred":12656,"smouth":12657,"register":12658,"gazett":12659,"Ġpassion":12660,"Ġdeveloped":12661,"agedy":12662,"adesh":12663,"strikes":12664,"passes":12665,"funds":12666,"fansided":12667,"empts":12668,"Ġhotel":12669,"helps":12670,"Ġhopes":12671,"strategy":12672,"Ġwalking":12673,"4155":12674,"4208":12675,"4308":12676,"5241":12677,"6350":12678,"cury":12679,"drivers":12680,"fatal":12681,"lash":12682,"Ġign":12683,"inth":12684,"3523":12685,"3621":12686,"3425":12687,"3443":12688,"3760":12689,"3743":12690,"3873":12691,"almost":12692,"4015":12693,"4030":12694,"4644":12695,"4606":12696,"4602":12697,"4683":12698,"arrow":12699,"4910":12700,"4980":12701,"4865":12702,"4806":12703,"4766":12704,"5001":12705,"4539":12706,"4423":12707,"4415":12708,"4438":12709,"nest":12710,"Ġherself":12711,"Ġbond":12712,"5329":12713,"5216":12714,"rific":12715,"ĠTra":12716,"Ġven":12717,"Ġhasn":12718,"bey":12719,"4596":12720,"4399":12721,"Ġabuse":12722,"Ġsection":12723,"rule":12724,"Ġadvert":12725,"6564":12726,"amercury":12727,"affect":12728,"retail":12729,"Ġguys":12730,"Ġsurprise":12731,"Ġcolor":12732,"Ġgreater":12733,"victim":12734,"royed":12735,"stylecaster":12736,"Ġsolution":12737,"wallst":12738,"Ġtalent":12739,"Ġeffects":12740,"greeley":12741,"clusion":12742,"turned":12743,"Ġvisitors":12744,"Ġphotos":12745,"columnists":12746,"chelsea":12747,"treatment":12748,"Ġwritten":12749,"escape":12750,"computing":12751,"challenges":12752,"illawarramercury":12753,"4105":12754,"4167":12755,"Bro":12756,"II":12757,"Mo":12758,"cause":12759,"sab":12760,"wednesday":12761,"19210":12762,"3616":12763,"3430":12764,"3711":12765,"3756":12766,"3792":12767,"3805":12768,"3806":12769,"3947":12770,"3965":12771,"3963":12772,"4049":12773,"4067":12774,"4031":12775,"4628":12776,"4688":12777,"4604":12778,"4927":12779,"4956":12780,"4769":12781,"4768":12782,"4707":12783,"5605":12784,"202305":12785,"4536":12786,"4541":12787,"4411":12788,"4427":12789,"3227":12790,"4320":12791,"Ġdaily":12792,"Ġcamera":12793,"forces":12794,"3262":12795,"4483":12796,"4471":12797,"4498":12798,"Ġalbum":12799,"incident":12800,"Ġimages":12801,"Ġoptim":12802,"colleg":12803,"Ġsecret":12804,"marriage":12805,"healthcanal":12806,"Ġhappening":12807,"ratings":12808,"Ġobserv":12809,"Ġappeal":12810,"silver":12811,"Ġboys":12812,"Ġcandidates":12813,"Ġeasier":12814,"ĠNorthern":12815,"armaceuticals":12816,"apeutics":12817,"ĠDevelopment":12818,"3192":12819,"3222":12820,"4107":12821,"4153":12822,"4239":12823,"4289":12824,"5104":12825,"5360":12826,"6409":12827,"7200":12828,"bin":12829,"fb":12830,"nine":12831,"sound":12832,"uous":12833,"uable":12834,"analysts":12835,"3590":12836,"3620":12837,"3629":12838,"3669":12839,"3675":12840,"3685":12841,"3429":12842,"3445":12843,"3723":12844,"3816":12845,"3828":12846,"3845":12847,"3987":12848,"3943":12849,"5774":12850,"4017":12851,"4068":12852,"4044":12853,"4645":12854,"arity":12855,"4985":12856,"4761":12857,"itol":12858,"icts":12859,"4529":12860,"Ġsad":12861,"4413":12862,"4426":12863,"chain":12864,"chance":12865,"amar":12866,"4215":12867,"Ġcities":12868,"Ġrepresents":12869,"Ġrecords":12870,"Ġgra":12871,"ĠSim":12872,"aints":12873,"plane":12874,"Ġconstant":12875,"inda":12876,"avi":12877,"brad":12878,"ĠEarth":12879,"percent":12880,"4560":12881,"4563":12882,"4387":12883,"4377":12884,"4396":12885,"5407":12886,"5592":12887,"ameron":12888,"Ġtech":12889,"reduc":12890,"annon":12891,"rivals":12892,"missed":12893,"Ġamb":12894,"Ġsupporters":12895,"Ġsigns":12896,"celebrities":12897,"solutions":12898,"wellness":12899,"thenational":12900,"Ġremained":12901,"horse":12902,"Ġprompt":12903,"Ġpresented":12904,"antisem":12905,"Ġexperiences":12906,"message":12907,"venturebeat":12908,"Ġdoubt":12909,"Ġessential":12910,"Ġmentioned":12911,"ĠSingh":12912,"completesports":12913,"4268":12914,"4234":12915,"5279":12916,"5236":12917,"5266":12918,"6123":12919,"cing":12920,"fold":12921,"large":12922,"pw":12923,"wag":12924,"wheel":12925,"Ġarticle":12926,"Ġeduc":12927,"3512":12928,"3644":12929,"3691":12930,"3493":12931,"3481":12932,"3706":12933,"3751":12934,"3866":12935,"3864":12936,"3911":12937,"3940":12938,"5755":12939,"4038":12940,"4040":12941,"4092":12942,"4625":12943,"4675":12944,"4770":12945,"5060":12946,"6040":12947,"Ġwearing":12948,"4538":12949,"Ġmig":12950,"unter":12951,"ĠSqu":12952,"theater":12953,"11927":12954,"ĠAuthor":12955,"Ġyield":12956,"ĠNov":12957,"prowrestling":12958,"ĠEll":12959,"4361":12960,"4379":12961,"5567":12962,"criminal":12963,"Who":12964,"Ġpartnership":12965,"complete":12966,"reading":12967,"Ġserving":12968,"hari":12969,"roads":12970,"Ġcrucial":12971,"Ġcharity":12972,"powered":12973,"Ġoperation":12974,"morrow":12975,"Ġstandard":12976,"inois":12977,"vania":12978,"Ġgeneration":12979,"Trump":12980,"multiple":12981,"Ġenvironmental":12982,"ĠGlobal":12983,"Ġresponsibility":12984,"Ġurged":12985,"Ġassistance":12986,"anthony":12987,"foreignpolicy":12988,"Ġzone":12989,"horoscope":12990,"4114":12991,"4136":12992,"4249":12993,"5188":12994,"5359":12995,"6255":12996,"8304":12997,"Coun":12998,"ao":12999,"catch":13000,"freedom":13001,"jab":13002,"ocean":13003,"scr":13004,"tum":13005,"10799":13006,"12500":13007,"anne":13008,"animal":13009,"3663":13010,"3715":13011,"3738":13012,"3701":13013,"4078":13014,"4646":13015,"4661":13016,"arab":13017,"4924":13018,"4928":13019,"4952":13020,"4824":13021,"5938":13022,"5014":13023,"4416":13024,"4445":13025,"5554":13026,"6749":13027,"8063":13028,"Ġfaces":13029,"Ġindependent":13030,"Ġmale":13031,"newsletter":13032,"10749":13033,"7311":13034,"Ġrenew":13035,"Ġbecomes":13036,"ĠCare":13037,"october":13038,"istration":13039,"aston":13040,"ĠBBC":13041,"ĠPan":13042,"Ġcomed":13043,"ĠTour":13044,"kingdom":13045,"Ġchampion":13046,"ovic":13047,"ĠEv":13048,"reflect":13049,"ruit":13050,"itect":13051,"councill":13052,"Ġtruck":13053,"heads":13054,"boat":13055,"loan":13056,"surgery":13057,"Ġadvice":13058,"ĠConference":13059,"Ġfiled":13060,"Ġexciting":13061,"nearly":13062,"Ġdrink":13063,"micro":13064,"cruit":13065,"Ġdelivered":13066,"huffpost":13067,"ĠDisney":13068,"Ġweapons":13069,"Ġtwice":13070,"3244":13071,"4124":13072,"4149":13073,"4145":13074,"4143":13075,"4157":13076,"4267":13077,"4221":13078,"4331":13079,"5183":13080,"6579":13081,"8541":13082,"Phil":13083,"god":13084,"ipe":13085,"jok":13086,"mall":13087,"vince":13088,"thomas":13089,"erb":13090,"3543":13091,"3668":13092,"3436":13093,"3422":13094,"3494":13095,"3758":13096,"3780":13097,"3775":13098,"3855":13099,"3867":13100,"3999":13101,"3941":13102,"3982":13103,"armed":13104,"4900":13105,"4804":13106,"4701":13107,"5021":13108,"5087":13109,"5073":13110,"6615":13111,"Ġaw":13112,"4523":13113,"4518":13114,"5543":13115,"anddistrict":13116,"3216":13117,"Ġhurt":13118,"Ġdrivers":13119,"Ġdocuments":13120,"5325":13121,"alled":13122,"Ġlabor":13123,"agar":13124,"ĠArea":13125,"ĠPower":13126,"eller":13127,"ĠDivision":13128,"ĠRec":13129,"uber":13130,"ĠHold":13131,"ĠLouis":13132,"ipes":13133,"ogs":13134,"4344":13135,"4354":13136,"Ġseat":13137,"4282":13138,"4304":13139,"ervative":13140,"Ġenforcement":13141,"Health":13142,"gypt":13143,"ursing":13144,"Ġearth":13145,"heraldlive":13146,"ĠArt":13147,"Ġreceiving":13148,"senal":13149,"Ġfunction":13150,"Ġallowing":13151,"Ġswitch":13152,"Ġunderstanding":13153,"cambridge":13154,"bournem":13155,"Ġstreaming":13156,"nottinghamp":13157,"barryanddistrict":13158,"Ġabsolutely":13159,"nottinghampost":13160,"barryanddistrictnews":13161,"4152":13162,"4205":13163,"4248":13164,"4171":13165,"4360":13166,"4296":13167,"4233":13168,"5141":13169,"5263":13170,"6148":13171,"6248":13172,"Biden":13173,"Des":13174,"March":13175,"lus":13176,"mater":13177,"nca":13178,"ronews":13179,"towns":13180,"turns":13181,"Ġ500":13182,"inions":13183,"eren":13184,"3582":13185,"3625":13186,"3411":13187,"3714":13188,"3755":13189,"3913":13190,"3973":13191,"attract":13192,"4046":13193,"4086":13194,"4094":13195,"4929":13196,"4814":13197,"5030":13198,"7005":13199,"6060":13200,"4528":13201,"4530":13202,"4446":13203,"4422":13204,"6728":13205,"Ġfiscal":13206,"4227":13207,"ayer":13208,"uters":13209,"5317":13210,"oto":13211,"raj":13212,"ĠCard":13213,"Ġstr":13214,"abq":13215,"ĠMat":13216,"ĠMil":13217,"ĠMusic":13218,"december":13219,"iva":13220,"ĠBowl":13221,"indigenous":13222,"fection":13223,"Ġvision":13224,"words":13225,"3383":13226,"ogan":13227,"4581":13228,"4586":13229,"4343":13230,"4376":13231,"4378":13232,"4394":13233,"5492":13234,"5579":13235,"primary":13236,"Ġkill":13237,"Ġkilling":13238,"Ġoffensive":13239,"pok":13240,"Ġaged":13241,"5452":13242,"White":13243,"slams":13244,"Christmas":13245,"Ġactors":13246,"broken":13247,"Ġcarried":13248,"Ġemotional":13249,"Ġdelivery":13250,"Ġrestrict":13251,"Ġstatus":13252,"sheffield":13253,"Ġsitting":13254,"classic":13255,"announcing":13256,"slashgear":13257,"Ġmarried":13258,"martin":13259,"trek":13260,"hunter":13261,"Ġvillage":13262,"Ġestimated":13263,"outhecho":13264,"ĠMartin":13265,"omerset":13266,"Several":13267,"bournemouthecho":13268,"4116":13269,"4182":13270,"4333":13271,"6103":13272,"6109":13273,"6259":13274,"MO":13275,"Part":13276,"ais":13277,"buck":13278,"bomb":13279,"caught":13280,"fd":13281,"french":13282,"rim":13283,"same":13284,"winds":13285,"recent":13286,"3593":13287,"3439":13288,"3737":13289,"3795":13290,"5708":13291,"cook":13292,"4054":13293,"4626":13294,"4673":13295,"4903":13296,"4941":13297,"4981":13298,"4846":13299,"4776":13300,"4774":13301,"5920":13302,"5962":13303,"5012":13304,"5024":13305,"5005":13306,"itting":13307,"Ġtext":13308,"Ġharm":13309,"Ġprefer":13310,"changed":13311,"Ġdirection":13312,"9531":13313,"ademic":13314,"5219":13315,"5225":13316,"Ġrev":13317,"opp":13318,"ĠAustralian":13319,"Ġcore":13320,"Ġcoordin":13321,"Ġcommercial":13322,"ĠTre":13323,"ĠRam":13324,"ĠFacebook":13325,"Ġvac":13326,"Ġproduce":13327,"3366":13328,"ĠWal":13329,"ideas":13330,"3380":13331,"4578":13332,"pride":13333,"5599":13334,"6782":13335,"ronic":13336,"aija":13337,"Ġprec":13338,"metronews":13339,"ushing":13340,"Ġcontinuing":13341,"queer":13342,"nedy":13343,"solar":13344,"Ġstanding":13345,"salisbury":13346,"concert":13347,"cluded":13348,"Ġwindow":13349,"derbyshire":13350,"Russian":13351,"wvmetronews":13352,"4101":13353,"4147":13354,"4154":13355,"4245":13356,"5194":13357,"5247":13358,"AF":13359,"AG":13360,"MC":13361,"TS":13362,"wired":13363,"Ġillegal":13364,"12508":13365,"11397":13366,"inct":13367,"3936":13368,"enjoy":13369,"5767":13370,"4018":13371,"4070":13372,"4091":13373,"4627":13374,"4964":13375,"4850":13376,"4895":13377,"4851":13378,"4797":13379,"4785":13380,"5967":13381,"5006":13382,"ingred":13383,"6636":13384,"Ġath":13385,"6042":13386,"itable":13387,"Ġwaste":13388,"4522":13389,"4549":13390,"4521":13391,"Ġsides":13392,"leak":13393,"5540":13394,"5458":13395,"rogen":13396,"4338":13397,"Ġmic":13398,"idays":13399,"alling":13400,"Ġliter":13401,"opposition":13402,"theeagle":13403,"forced":13404,"essed":13405,"dailycamera":13406,"4469":13407,"4381":13408,"4384":13409,"4351":13410,"cream":13411,"create":13412,"4284":13413,"5394":13414,"ĠOut":13415,"athon":13416,"athers":13417,"Ġallegations":13418,"Ġperhaps":13419,"Ġpolicies":13420,"mptoms":13421,"drama":13422,"Ġemphas":13423,"ĠManchester":13424,"torney":13425,"Ġordered":13426,"Ġrisks":13427,"Ġeffective":13428,"Ġbroken":13429,"honor":13430,"farming":13431,"ĠGuard":13432,"Ġfrust":13433,"ĠForest":13434,"cnn":13435,"Ġdrama":13436,"Ġanimals":13437,"ĠOfficer":13438,"abqjournal":13439,"theeagleonline":13440,"4123":13441,"4137":13442,"4146":13443,"4160":13444,"5250":13445,"5277":13446,"6570":13447,"bjp":13448,"facing":13449,"gre":13450,"lady":13451,"oices":13452,"prior":13453,"ÃŃ":13454,"3730":13455,"3797":13456,"3826":13457,"3850":13458,"3908":13459,"sted":13460,"4069":13461,"4679":13462,"5916":13463,"5932":13464,"5080":13465,"5097":13466,"5051":13467,"5607":13468,"6965":13469,"4513":13470,"Ġtells":13471,"7726":13472,"4448":13473,"4314":13474,"4216":13475,"imson":13476,"5324":13477,"ĠCovid":13478,"ailing":13479,"worce":13480,"ĠWay":13481,"4460":13482,"4589":13483,"4386":13484,"4373":13485,"5303":13486,"itionally":13487,"ĠChris":13488,"offensive":13489,"scam":13490,"Ġmostly":13491,"joins":13492,"Ġcentury":13493,"centralrecorder":13494,"solid":13495,"Ġholds":13496,"Ġbuildings":13497,"addy":13498,"rolls":13499,"Under":13500,"thanks":13501,"ugees":13502,"Ġsinger":13503,"losing":13504,"Ġauthority":13505,"turkey":13506,"Ġpicked":13507,"communities":13508,"pictures":13509,"largest":13510,"Ġlegislation":13511,"4135":13512,"4166":13513,"4198":13514,"4299":13515,"4359":13516,"5208":13517,"5560":13518,"5231":13519,"6115":13520,"April":13521,"Grand":13522,"IF":13523,"Mur":13524,"Out":13525,"average":13526,"cart":13527,"gap":13528,"iour":13529,"jordan":13530,"mph":13531,"tuesday":13532,"vet":13533,"waste":13534,"14294":13535,"3580":13536,"3687":13537,"3946":13538,"3948":13539,"enry":13540,"ataka":13541,"5728":13542,"4021":13543,"4654":13544,"arant":13545,"4955":13546,"4931":13547,"4898":13548,"4881":13549,"4708":13550,"5915":13551,"5921":13552,"5601":13553,"6923":13554,"itar":13555,"4524":13556,"Ġbid":13557,"aman":13558,"4324":13559,"4210":13560,"6318":13561,"sep":13562,"aku":13563,"nsw":13564,"Ġvital":13565,"Ġvacc":13566,"Ġvariety":13567,"ĠNight":13568,"ĠWilson":13569,"ĠEU":13570,"4579":13571,"5576":13572,"4262":13573,"5273":13574,"6371":13575,"century":13576,"starcommunity":13577,"lett":13578,"playing":13579,"ordon":13580,"ĠBlue":13581,"Ġconfident":13582,"greenock":13583,"Ġstandards":13584,"Art":13585,"officers":13586,"fourth":13587,"Ġclearly":13588,"Ġconsidering":13589,"expansion":13590,"lewis":13591,"generation":13592,"columbian":13593,"celtic":13594,"Ġmobile":13595,"rizona":13596,"fortunately":13597,"ĠAffairs":13598,"Ġpenalty":13599,"4119":13600,"4150":13601,"4188":13602,"5133":13603,"5162":13604,"5239":13605,"5349":13606,"6266":13607,"6269":13608,"6307":13609,"6377":13610,"8276":13611,"NC":13612,"PD":13613,"aer":13614,"fs":13615,"mv":13616,"rub":13617,"tough":13618,"uan":13619,"vanguard":13620,"zone":13621,"recomm":13622,"3720":13623,"3764":13624,"3890":13625,"3883":13626,"3964":13627,"enough":13628,"aton":13629,"4074":13630,"4614":13631,"4647":13632,"4633":13633,"4603":13634,"4601":13635,"4759":13636,"4792":13637,"5858":13638,"5604":13639,"7087":13640,"6012":13641,"4419":13642,"4421":13643,"5547":13644,"6739":13645,"6732":13646,"Ġhur":13647,"chi":13648,"4328":13649,"7516":13650,"riers":13651,"ĠCast":13652,"ĠMem":13653,"shall":13654,"shropshire":13655,"Ġyesterday":13656,"istance":13657,"quarters":13658,"indy":13659,"conduct":13660,"4575":13661,"4402":13662,"Ġworst":13663,"5486":13664,"pressure":13665,"5562":13666,"5272":13667,"Ġagree":13668,"othes":13669,"Ġpolitic":13670,"goals":13671,"Ġunderst":13672,"Ġpresence":13673,"ĠSea":13674,"Ġpassing":13675,"Ġdefence":13676,"plications":13677,"Ġadvance":13678,"ennifer":13679,"claimed":13680,"Ġparking":13681,"ablend":13682,"ĠWilliam":13683,"Ġencourage":13684,"cinemablend":13685,"coventrytelegraph":13686,"Ġultimately":13687,"Ġsurrounding":13688,"4106":13689,"4278":13690,"4202":13691,"4309":13692,"5390":13693,"6197":13694,"Mem":13695,"Peter":13696,"Rob":13697,"aqu":13698,"aik":13699,"cats":13700,"dub":13701,"famous":13702,"iac":13703,"jared":13704,"nothing":13705,"wrexham":13706,"13143":13707,"17578":13708,"thursday":13709,"onen":13710,"3914":13711,"4006":13712,"4610":13713,"4690":13714,"4608":13715,"4839":13716,"5838":13717,"5901":13718,"5952":13719,"5028":13720,"5034":13721,"202302":13722,"escal":13723,"6607":13724,"7010":13725,"6881":13726,"Ġsac":13727,"Ġsister":13728,"5519":13729,"6712":13730,"6758":13731,"Ġbra":13732,"Ġdance":13733,"Ġcat":13734,"igger":13735,"7421":13736,"5319":13737,"ssn":13738,"5212":13739,"5218":13740,"6224":13741,"Ġgarden":13742,"usi":13743,"ulty":13744,"umstances":13745,"tery":13746,"12457":13747,"shaw":13748,"osed":13749,"georgia":13750,"elli":13751,"portsmouth":13752,"ĠHa":13753,"ĠHot":13754,"ĠGo":13755,"Ġexercise":13756,"Ġweak":13757,"4342":13758,"Ġsea":13759,"Ġhero":13760,"ictment":13761,"6771":13762,"Ġuses":13763,"Ġinternet":13764,"Ġdecline":13765,"Ġattended":13766,"regular":13767,"ĠTheatre":13768,"Ġwarning":13769,"Ġinteresting":13770,"Ġceremony":13771,"Ġdetect":13772,"Ġmatches":13773,"Ġbroke":13774,"projects":13775,"ĠEnter":13776,"Trans":13777,"records":13778,"Ġscheduled":13779,"Ġannouncement":13780,"Speaking":13781,"Ġmillions":13782,"5148":13783,"5309":13784,"5357":13785,"6171":13786,"7129":13787,"Mel":13788,"RS":13789,"division":13790,"hay":13791,"hands":13792,"hubs":13793,"kan":13794,"lig":13795,"zo":13796,"13484":13797,"initi":13798,"3834":13799,"3822":13800,"3886":13801,"3872":13802,"3934":13803,"3970":13804,"3985":13805,"5732":13806,"4098":13807,"4922":13808,"4879":13809,"4875":13810,"4713":13811,"4716":13812,"4724":13813,"5022":13814,"5098":13815,"5099":13816,"6021":13817,"3319":13818,"4540":13819,"4544":13820,"leans":13821,"4410":13822,"Ġfix":13823,"Ġbright":13824,"roots":13825,"8779":13826,"4312":13827,"4318":13828,"Ġmort":13829,"5217":13830,"september":13831,"ulations":13832,"ĠCamp":13833,"umph":13834,"ĠMel":13835,"ĠMet":13836,"iego":13837,"ĠBut":13838,"18069":13839,"pret":13840,"ĠDo":13841,"conversation":13842,"ĠLtd":13843,"ĠWild":13844,"obody":13845,"ĠJim":13846,"Ġwealth":13847,"4564":13848,"ricane":13849,"4591":13850,"4593":13851,"4504":13852,"4574":13853,"4577":13854,"4353":13855,"5483":13856,"5582":13857,"Ġclim":13858,"Ġagencies":13859,"buying":13860,"afc":13861,"glass":13862,"globe":13863,"winners":13864,"Ġleads":13865,"Ġsupported":13866,"ociates":13867,"Ġcollection":13868,"domestic":13869,"Ġclassic":13870,"respons":13871,"jeff":13872,"trading":13873,"Ġvotes":13874,"priate":13875,"grove":13876,"Ġdogs":13877,"Ġdiagn":13878,"Ġfrequ":13879,"5120":13880,"5195":13881,"5202":13882,"6132":13883,"6554":13884,"7247":13885,"9132":13886,"Are":13887,"BO":13888,"Daniel":13889,"Get":13890,"Jim":13891,"NS":13892,"Sur":13893,"euro":13894,"hssn":13895,"mosp":13896,"pac":13897,"tackle":13898,"wave":13899,"inspired":13900,"rens":13901,"recovery":13902,"3517":13903,"4087":13904,"4617":13905,"4656":13906,"4965":13907,"4901":13908,"4823":13909,"5058":13910,"5075":13911,"7056":13912,"6074":13913,"4545":13914,"Ġtournament":13915,"4429":13916,"8072":13917,"Ġfish":13918,"5427":13919,"4310":13920,"4329":13921,"4336":13922,"4213":13923,"etime":13924,"artist":13925,"Ġlab":13926,"agree":13927,"ĠSy":13928,"ĠSky":13929,"ĠBridge":13930,"romance":13931,"udden":13932,"ĠRichard":13933,"phan":13934,"cles":13935,"Ġvirt":13936,"ĠLong":13937,"assment":13938,"Ġnotice":13939,"4592":13940,"4368":13941,"4347":13942,"4389":13943,"4391":13944,"5570":13945,"anga":13946,"oulder":13947,"6385":13948,"4272":13949,"blow":13950,"6565":13951,"legation":13952,"announced":13953,"notices":13954,"Ġpolitics":13955,"evac":13956,"Ġprepar":13957,"mylondon":13958,"playoffs":13959,"nessee":13960,"Ġending":13961,"learning":13962,"victoria":13963,"ĠClass":13964,"ĠProject":13965,"reveal":13966,"Ġorganizations":13967,"arnataka":13968,"estinians":13969,"mbly":13970,"ylvania":13971,"Ġchallenging":13972,"sequences":13973,"Ġsources":13974,"timesofisrael":13975,"Ġfootage":13976,"competition":13977,"xiety":13978,"liberal":13979,"forexlive":13980,"awfulannouncing":13981,"4151":13982,"4196":13983,"5278":13984,"5172":13985,"5306":13986,"5232":13987,"5333":13988,"6118":13989,"6152":13990,"6163":13991,"6204":13992,"7118":13993,"Each":13994,"ME":13995,"aaron":13996,"crown":13997,"hills":13998,"kish":13999,"names":14000,"3721":14001,"3838":14002,"3888":14003,"3882":14004,"3968":14005,"3902":14006,"original":14007,"5779":14008,"coverage":14009,"4034":14010,"4677":14011,"4676":14012,"4642":14013,"4662":14014,"arp":14015,"4916":14016,"4968":14017,"4987":14018,"4838":14019,"4833":14020,"4885":14021,"4893":14022,"4702":14023,"5926":14024,"5966":14025,"5968":14026,"5931":14027,"5046":14028,"5041":14029,"6941":14030,"6068":14031,"9090":14032,"icious":14033,"4516":14034,"4555":14035,"Ġskin":14036,"4425":14037,"5526":14038,"5535":14039,"asury":14040,"Ġfashion":14041,"Ġpieces":14042,"4226":14043,"6427":14044,"5339":14045,"8313":14046,"5220":14047,"ompson":14048,"usal":14049,"email":14050,"thecourier":14051,"spending":14052,"ocation":14053,"exican":14054,"Ġsharing":14055,"Ġsav":14056,"Ġring":14057,"ĠGr":14058,"ĠGal":14059,"Ġchampionship":14060,"ĠWeek":14061,"brands":14062,"3376":14063,"Ġdebate":14064,"Ġdefeat":14065,"4474":14066,"5466":14067,"5502":14068,"5484":14069,"5477":14070,"4305":14071,"5353":14072,"4294":14073,"icky":14074,"Ġoffense":14075,"Ġaccounts":14076,"5451":14077,"mons":14078,"ĠVan":14079,"posing":14080,"josh":14081,"mccar":14082,"suicide":14083,"ennis":14084,"Ġroads":14085,"ĠAirport":14086,"Ġportfolio":14087,"Ġhoping":14088,"lagos":14089,"Ġdedicated":14090,"houstonianonline":14091,"greeleytribune":14092,"4161":14093,"5140":14094,"5189":14095,"5207":14096,"5346":14097,"6190":14098,"6161":14099,"6249":14100,"6306":14101,"6552":14102,"7197":14103,"Afric":14104,"Jon":14105,"Mat":14106,"bh":14107,"both":14108,"bird":14109,"fro":14110,"goo":14111,"later":14112,"mos":14113,"miami":14114,"perez":14115,"sweet":14116,"tun":14117,"ugu":14118,"uzz":14119,"wer":14120,"âĦ":14121,"reform":14122,"3619":14123,"3642":14124,"3830":14125,"3843":14126,"3983":14127,"orange":14128,"4022":14129,"4623":14130,"4669":14131,"4668":14132,"4689":14133,"4674":14134,"4920":14135,"4919":14136,"4986":14137,"4810":14138,"4801":14139,"5853":14140,"5980":14141,"5066":14142,"5071":14143,"5609":14144,"6069":14145,"6054":14146,"4535":14147,"4436":14148,"4434":14149,"9872":14150,"6711":14151,"8039":14152,"8033":14153,"Ġfreedom":14154,"5417":14155,"7652":14156,"champions":14157,"4224":14158,"7529":14159,"6548":14160,"8459":14161,"owed":14162,"5338":14163,"5215":14164,"iron":14165,"Ġlock":14166,"12949":14167,"essing":14168,"extra":14169,"kees":14170,"manitoba":14171,"Ġprosecut":14172,"derland":14173,"avail":14174,"Ġdegree":14175,"4466":14176,"4583":14177,"4588":14178,"4371":14179,"5471":14180,"4273":14181,"4253":14182,"ruce":14183,"4293":14184,"6473":14185,"carbon":14186,"iversal":14187,"dispatch":14188,"Chris":14189,"metal":14190,"surge":14191,"Ġminor":14192,"cyber":14193,"cycle":14194,"Ġapply":14195,"nipeg":14196,"migrant":14197,"Ġmulti":14198,"Ġidentity":14199,"massive":14200,"welcome":14201,"Ġcampus":14202,"Ġconsumers":14203,"Ġtrend":14204,"Ġslightly":14205,"pjmedia":14206,"incipal":14207,"ĠAuthority":14208,"âĦ¢":14209,"4111":14210,"4192":14211,"5298":14212,"5234":14213,"5244":14214,"5265":14215,"5288":14216,"5274":14217,"6138":14218,"6150":14219,"6265":14220,"6407":14221,"6253":14222,"6553":14223,"9160":14224,"AD":14225,"Mer":14226,"Net":14227,"Op":14228,"Offic":14229,"Public":14230,"Up":14231,"bee":14232,"founder":14233,"jap":14234,"lib":14235,"11806":14236,"alert":14237,"4666":14238,"4979":14239,"4999":14240,"4996":14241,"4868":14242,"4740":14243,"5910":14244,"5016":14245,"5050":14246,"5636":14247,"6036":14248,"6048":14249,"4556":14250,"7740":14251,"4431":14252,"5534":14253,"5538":14254,"5433":14255,"Ġinformed":14256,"etic":14257,"6416":14258,"6424":14259,"6426":14260,"account":14261,"8414":14262,"urer":14263,"5313":14264,"8321":14265,"opnik":14266,"Ġstorm":14267,"Ġstocks":14268,"12421":14269,"ĠMexico":14270,"ĠArab":14271,"apore":14272,"shine":14273,"Ġanalysis":14274,"ĠPlan":14275,"Ġcommand":14276,"iano":14277,"nsylvania":14278,"ĠDan":14279,"Ġproduced":14280,"Ġchannel":14281,"ĠElect":14282,"aways":14283,"4595":14284,"4496":14285,"ashing":14286,"ocket":14287,"4283":14288,"anyahu":14289,"insider":14290,"mining":14291,"Ġbigger":14292,"centraloregon":14293,"gressive":14294,"signal":14295,"akersfield":14296,"Ġglass":14297,"iffs":14298,"koimo":14299,"Ġprovince":14300,"Ġperspective":14301,"Ġinstitutional":14302,"ĠNetwork":14303,"employees":14304,"ĠChristian":14305,"assembly":14306,"rapidcity":14307,"koimoi":14308,"4138":14309,"4288":14310,"5106":14311,"5109":14312,"5154":14313,"5378":14314,"6110":14315,"6114":14316,"6258":14317,"6287":14318,"6566":14319,"7145":14320,"8542":14321,"Fl":14322,"Fort":14323,"General":14324,"Mah":14325,"NY":14326,"Park":14327,"Santis":14328,"Ter":14329,"easter":14330,"highest":14331,"rams":14332,"14148":14333,"incorporated":14334,"alty":14335,"alds":14336,"4014":14337,"4071":14338,"4936":14339,"4937":14340,"4990":14341,"4953":14342,"4819":14343,"4835":14344,"4870":14345,"4873":14346,"4764":14347,"4703":14348,"5929":14349,"5906":14350,"5056":14351,"5031":14352,"5084":14353,"6905":14354,"iture":14355,"7778":14356,"4447":14357,"5524":14358,"8625":14359,"7513":14360,"6432":14361,"ums":14362,"spons":14363,"ĠAk":14364,"outside":14365,"14039":14366,"endment":14367,"ĠBritain":14368,"ĠTim":14369,"uba":14370,"Ġrough":14371,"ĠLi":14372,"ipeline":14373,"acting":14374,"ĠEPS":14375,"4341":14376,"4346":14377,"5463":14378,"5408":14379,"4263":14380,"4271":14381,"5292":14382,"weak":14383,"6777":14384,"attend":14385,"ublin":14386,"sltrib":14387,"healthy":14388,"ifications":14389,"Ġattorney":14390,"itchell":14391,"Ġmarketing":14392,"Ġsurvey":14393,"egas":14394,"Ġscience":14395,"ĠArts":14396,"digger":14397,"Ġbreath":14398,"premi":14399,"corporate":14400,"republican":14401,"bidens":14402,"Ġstruggle":14403,"Ġpulled":14404,"4144":14405,"4173":14406,"4279":14407,"4246":14408,"4295":14409,"5200":14410,"5237":14411,"5256":14412,"5370":14413,"6444":14414,"9206":14415,"Ang":14416,"JP":14417,"Sc":14418,"Ty":14419,"crow":14420,"ked":14421,"lord":14422,"tail":14423,"touch":14424,"yield":14425,"zens":14426,"3939":14427,"3986":14428,"4088":14429,"ariz":14430,"4926":14431,"4857":14432,"4897":14433,"4862":14434,"4722":14435,"4721":14436,"5860":14437,"5027":14438,"5009":14439,"5007":14440,"7018":14441,"7058":14442,"6912":14443,"6935":14444,"6955":14445,"6993":14446,"9055":14447,"4543":14448,"Ġticket":14449,"Ġsan":14450,"9864":14451,"5516":14452,"5517":14453,"5555":14454,"Ġmyst":14455,"Ġmachine":14456,"Ġcru":14457,"igible":14458,"6422":14459,"5211":14460,"6338":14461,"sean":14462,"Ġleng":14463,"rast":14464,"Ġwhatever":14465,"aped":14466,"decre":14467,"ĠRyan":14468,"ĠHam":14469,"ipper":14470,"Ġplaced":14471,"4576":14472,"4582":14473,"4499":14474,"4356":14475,"5401":14476,"5403":14477,"Ġunits":14478,"5503":14479,"5294":14480,"5392":14481,"venues":14482,"7608":14483,"Ġalcohol":14484,"Ġclients":14485,"8783":14486,"finally":14487,"ossil":14488,"Ġresol":14489,"Ġreporting":14490,"Ġdefensive":14491,"cipe":14492,"rapped":14493,"Ġcloser":14494,"Ġideas":14495,"Ġdevast":14496,"Ġdevices":14497,"Ġmeetings":14498,"Ġhonest":14499,"Ġloan":14500,"milehigh":14501,"Ġweapon":14502,"Ġdeclared":14503,"jalopnik":14504,"rapidcityjournal":14505,"3240":14506,"5127":14507,"5280":14508,"6285":14509,"6366":14510,"7128":14511,"8359":14512,"8579":14513,"CU":14514,"Great":14515,"June":14516,"hat":14517,"math":14518,"pped":14519,"sor":14520,"Ġ45":14521,"Ġ32":14522,"14999":14523,"onia":14524,"3909":14525,"5729":14526,"coffee":14527,"4694":14528,"4944":14529,"4997":14530,"4837":14531,"4861":14532,"4757":14533,"4745":14534,"4783":14535,"5890":14536,"5011":14537,"5085":14538,"5082":14539,"5061":14540,"6660":14541,"7012":14542,"6930":14543,"6921":14544,"6087":14545,"8816":14546,"4551":14547,"4432":14548,"5533":14549,"8610":14550,"4316":14551,"Ġmaster":14552,"4219":14553,"idd":14554,"Ġdad":14555,"6520":14556,"Ġcustody":14557,"unc":14558,"unn":14559,"accept":14560,"newspaper":14561,"5214":14562,"rize":14563,"raiser":14564,"ĠSeries":14565,"ĠMike":14566,"ĠAsh":14567,"ĠPress":14568,"16519":14569,"clark":14570,"ĠFood":14571,"ĠHarry":14572,"Ġprotection":14573,"beats":14574,"oga":14575,"4587":14576,"4349":14577,"4497":14578,"4352":14579,"creative":14580,"5384":14581,"5304":14582,"Ġ2014":14583,"ĠKorea":14584,"8606":14585,"9565":14586,"built":14587,"9472":14588,"critical":14589,"gled":14590,"Ġrose":14591,"slides":14592,"ologist":14593,"complex":14594,"Ġmanage":14595,"ĠThis":14596,"Ġreturns":14597,"Ġscale":14598,"puts":14599,"countypress":14600,"Ġhealthcare":14601,"consumer":14602,"patrick":14603,"Ġstatements":14604,"Ġspokes":14605,"Ġsignificantly":14606,"something":14607,"successful":14608,"Ġpushed":14609,"girlfriend":14610,"Ġsquad":14611,"Ġconducted":14612,"Ġinitially":14613,"leicestermercury":14614,"split":14615,"Ġaffordable":14616,"Because":14617,"ncaa":14618,"4175":14619,"4238":14620,"4237":14621,"5143":14622,"5347":14623,"6173":14624,"7172":14625,"7798":14626,"Harry":14627,"London":14628,"bors":14629,"diss":14630,"deter":14631,"eas":14632,"hin":14633,"sask":14634,"tears":14635,"uv":14636,"uction":14637,"vacc":14638,"10791":14639,"invol":14640,"those":14641,"represent":14642,"3952":14643,"Ġther":14644,"5747":14645,"5787":14646,"5763":14647,"5771":14648,"4062":14649,"4670":14650,"4974":14651,"4982":14652,"4811":14653,"4818":14654,"4822":14655,"4848":14656,"4878":14657,"4888":14658,"4749":14659,"4780":14660,"4799":14661,"5072":14662,"5660":14663,"6614":14664,"7889":14665,"7925":14666,"7900":14667,"7091":14668,"6822":14669,"isan":14670,"4418":14671,"9840":14672,"6742":14673,"8095":14674,"asi":14675,"Ġcell":14676,"impress":14677,"8322":14678,"Ġgar":14679,"ithium":14680,"11976":14681,"ailand":14682,"quick":14683,"asty":14684,"ighted":14685,"Ġshots":14686,"ĠRet":14687,"phill":14688,"ĠHow":14689,"Ġchairman":14690,"ĠWall":14691,"ĠJer":14692,"4488":14693,"4465":14694,"4500":14695,"4475":14696,"4367":14697,"5461":14698,"5305":14699,"6707":14700,"incinn":14701,"8681":14702,"leyball":14703,"monday":14704,"Ġdisclosed":14705,"restaurants":14706,"evil":14707,"william":14708,"Ġends":14709,"Ġinvestor":14710,"betting":14711,"Ġdeveloping":14712,"Ġnearby":14713,"saudi":14714,"hilton":14715,"Ġensuring":14716,"hawks":14717,"ĠParliament":14718,"Ġhonor":14719,"ĠMedical":14720,"loves":14721,"tribhssn":14722,"sudan":14723,"Super":14724,"Ġassociated":14725,"lgbt":14726,"arizona":14727,"5102":14728,"5111":14729,"5136":14730,"5100":14731,"5249":14732,"5246":14733,"5380":14734,"5191":14735,"5340":14736,"6178":14737,"6172":14738,"7142":14739,"7444":14740,"Ber":14741,"Rem":14742,"Vict":14743,"batt":14744,"gg":14745,"kil":14746,"korea":14747,"language":14748,"pas":14749,"14349":14750,"11900":14751,"11908":14752,"3823":14753,"3840":14754,"3863":14755,"5720":14756,"4615":14757,"4624":14758,"4680":14759,"4934":14760,"4826":14761,"4859":14762,"4803":14763,"4863":14764,"4736":14765,"4705":14766,"4773":14767,"5816":14768,"5879":14769,"5832":14770,"5889":14771,"5930":14772,"5077":14773,"5672":14774,"6695":14775,"7812":14776,"7078":14777,"7077":14778,"6970":14779,"6037":14780,"6043":14781,"6005":14782,"6073":14783,"Ġwall":14784,"8083":14785,"asian":14786,"Ġfired":14787,"Ġfraud":14788,"Ġpun":14789,"8638":14790,"Ġmile":14791,"5310":14792,"5314":14793,"7327":14794,"Ġrecovery":14795,"Ġgiant":14796,"Ġevol":14797,"Ġelements":14798,"thefront":14799,"akatimes":14800,"Ġstands":14801,"upils":14802,"Ġyounger":14803,"outlook":14804,"ĠBoy":14805,"13211":14806,"ĠTen":14807,"ĠRod":14808,"16836":14809,"Ġrural":14810,"conflict":14811,"peak":14812,"ĠJo":14813,"ĠJr":14814,"ĠJon":14815,"odt":14816,"rics":14817,"4571":14818,"4403":14819,"5405":14820,"Ġunable":14821,"5376":14822,"5341":14823,"4232":14824,"anyon":14825,"tony":14826,"issipp":14827,"ĠKn":14828,"6305":14829,"6281":14830,"tained":14831,"9597":14832,"ugby":14833,"courts":14834,"jected":14835,"Ġtrav":14836,"trending":14837,"speak":14838,"vancouver":14839,"Ġviewers":14840,"happened":14841,"Ġmodels":14842,"Ġcompletion":14843,"Ġcovered":14844,"Ġinstitutions":14845,"cycling":14846,"atlanta":14847,"Ġestimates":14848,"andoned":14849,"mwnation":14850,"favorite":14851,"vtdigger":14852,"Ġrapid":14853,"Ġexcellent":14854,"%,":14855,"4256":14856,"5116":14857,"5134":14858,"5131":14859,"5185":14860,"6131":14861,"6156":14862,"6257":14863,"6182":14864,"7185":14865,"8100":14866,"8299":14867,"davis":14868,"dangerous":14869,"fif":14870,"november":14871,"pacific":14872,"sad":14873,"taken":14874,"Ġ52":14875,"13188":14876,"3573":14877,"3770":14878,"enh":14879,"stadium":14880,"stolen":14881,"5760":14882,"5745":14883,"4055":14884,"4636":14885,"4655":14886,"4696":14887,"4684":14888,"arra":14889,"4867":14890,"4852":14891,"4891":14892,"4790":14893,"4765":14894,"4795":14895,"4706":14896,"5831":14897,"5934":14898,"5958":14899,"5035":14900,"5691":14901,"6609":14902,"7975":14903,"7049":14904,"6929":14905,"6908":14906,"6056":14907,"6051":14908,"4515":14909,"4534":14910,"4532":14911,"5520":14912,"6750":14913,"6752":14914,"8055":14915,"ilder":14916,"Ġfamiliar":14917,"Ġbasketball":14918,"5446":14919,"chart":14920,"8760":14921,"vegas":14922,"6417":14923,"impro":14924,"5323":14925,"hearing":14926,"6321":14927,"irl":14928,"8216":14929,"ource":14930,"tering":14931,"11949":14932,"Ġnone":14933,"ĠAli":14934,"plot":14935,"portfolio":14936,"Ġvi":14937,"ĠWor":14938,"ĠJewish":14939,"4562":14940,"4392":14941,"5342":14942,"6796":14943,"5455":14944,"caps":14945,"Ġapart":14946,"Ġprim":14947,"Ġcontrovers":14948,"ĠVill":14949,"Ġsupposed":14950,"disaster":14951,"transform":14952,"surrey":14953,"relationships":14954,"ĠHead":14955,"ĠRobert":14956,"memorial":14957,"formances":14958,"tributes":14959,"ĠFeb":14960,"September":14961,"because":14962,"Ġlargely":14963,"levant":14964,"folk":14965,"environmental":14966,"arrative":14967,"iberal":14968,"Ġentered":14969,"galaxy":14970,"pcdn":14971,"Ġwrite":14972,"sustainable":14973,"unveils":14974,"Ġrepeated":14975,".-":14976,"4126":14977,"5112":14978,"6179":14979,"6188":14980,"Yes":14981,"boo":14982,"baltimore":14983,"bakersfield":14984,"gom":14985,"lack":14986,"lav":14987,"mare":14988,"nations":14989,"nuggets":14990,"xpected":14991,"starts":14992,"5752":14993,"5761":14994,"4678":14995,"4695":14996,"4991":14997,"5828":14998,"5855":14999,"5884":15000,"5985":15001,"5029":15002,"5096":15003,"5083":15004,"5623":15005,"5655":15006,"7053":15007,"6922":15008,"6094":15009,"pshire":15010,"oug":15011,"icid":15012,"4557":15013,"complain":15014,"9860":15015,"5556":15016,"8059":15017,"chad":15018,"8626":15019,"eli":15020,"eled":15021,"Ġment":15022,"7533":15023,"Ġdraft":15024,"6522":15025,"6412":15026,"6449":15027,"5315":15028,"11203":15029,"ifax":15030,"shock":15031,"udd":15032,"truck":15033,"Ġchanging":15034,"ongo":15035,"brun":15036,"ishi":15037,"Thank":15038,"4383":15039,"4357":15040,"4201":15041,"creg":15042,"5565":15043,"5569":15044,"Ġdoctors":15045,"6464":15046,"Ġrob":15047,"hampshire":15048,"bane":15049,"indiana":15050,"surpr":15051,"Ġministry":15052,"Ġguidance":15053,"Ġsurgery":15054,"Ġrelationships":15055,"deliver":15056,"Ġintelligence":15057,"walesonline":15058,"lementary":15059,"ĠAtlant":15060,"tourism":15061,"Ġteachers":15062,"secure":15063,"ĠFrance":15064,"scription":15065,"ĠDemocratic":15066,"Ġmaterials":15067,"Ġpurpose":15068,"Ġcircumstances":15069,"Ġfeatured":15070,"wolves":15071,"lusakatimes":15072,"4276":15073,"5113":15074,"5205":15075,"5235":15076,"6177":15077,"6186":15078,"6379":15079,"6233":15080,"6478":15081,"7182":15082,"7358":15083,"8305":15084,"9114":15085,"9363":15086,"August":15087,"Jul":15088,"July":15089,"January":15090,"TE":15091,"fill":15092,"groups":15093,"kat":15094,"size":15095,"ui":15096,"11804":15097,"16155":15098,"5791":15099,"4007":15100,"4002":15101,"4975":15102,"4971":15103,"4813":15104,"4821":15105,"4844":15106,"4831":15107,"4802":15108,"4883":15109,"4882":15110,"5830":15111,"5875":15112,"5038":15113,"5639":15114,"5661":15115,"esus":15116,"6661":15117,"7075":15118,"6910":15119,"6954":15120,"Ġawards":15121,"6093":15122,"6882":15123,"Ġtickets":15124,"isure":15125,"Ġsweet":15126,"7734":15127,"7760":15128,"leaving":15129,"5529":15130,"6718":15131,"8036":15132,"8068":15133,"Ġbott":15134,"5420":15135,"5419":15136,"5438":15137,"5448":15138,"10518":15139,"8637":15140,"Ġmatters":15141,"7511":15142,"7545":15143,"Ġdriven":15144,"8546":15145,"Ġcards":15146,"6319":15147,"cebud":15148,"6213":15149,"Ġge":15150,"riots":15151,"Ġnuclear":15152,"upcoming":15153,"ĠAward":15154,"ĠPet":15155,"Ġconvers":15156,"ĠTo":15157,"ĠTikTok":15158,"technical":15159,"Ġvice":15160,"ĠLim":15161,"17512":15162,"isher":15163,"ĠJen":15164,"Ġnotes":15165,"4476":15166,"4477":15167,"4340":15168,"4495":15169,"4203":15170,"5506":15171,"crew":15172,"5489":15173,"5363":15174,"blind":15175,"5344":15176,"resc":15177,"5253":15178,"6479":15179,"ĠOhio":15180,"carlow":15181,"caribbean":15182,"Ġdiscovered":15183,"comeback":15184,"Ġquarterback":15185,"umping":15186,"trying":15187,"Still":15188,"paris":15189,"realnews":15190,"lawmakers":15191,"deadly":15192,"stitu":15193,"Ġtransition":15194,"fighter":15195,"cedes":15196,"ĠProf":15197,"Ġextended":15198,"speaks":15199,"Ġprofession":15200,"ĠAsset":15201,"Ġviews":15202,"Ġcompetitive":15203,"Ġexplore":15204,"Ġphotograph":15205,"Ġsuffering":15206,"milwaukee":15207,"statement":15208,"voters":15209,"Ġbanking":15210,"Ġcombined":15211,"Ġsustainable":15212,"ĠRepublicans":15213,"Ġinitiative":15214,"ĠGermany":15215,"Ġtonight":15216,"gloucestershire":15217,"Ġacknowled":15218,"Ġstruck":15219,"cebudailynews":15220,"4230":15221,"5105":15222,"5126":15223,"5132":15224,"5142":15225,"5388":15226,"5356":15227,"6102":15228,"6119":15229,"6151":15230,"6199":15231,"6206":15232,"6578":15233,"6241":15234,"6264":15235,"6333":15236,"7159":15237,"7191":15238,"7280":15239,"8386":15240,"CB":15241,"IM":15242,"Mart":15243,"November":15244,"Sir":15245,"came":15246,"eastern":15247,"fg":15248,"fu":15249,"fielder":15250,"lies":15251,"ncreg":15252,"parent":15253,"tag":15254,"wage":15255,"Ġ38":15256,"3937":15257,"stable":15258,"orious":15259,"5757":15260,"5742":15261,"4050":15262,"4053":15263,"4631":15264,"4911":15265,"4940":15266,"4962":15267,"4845":15268,"4887":15269,"4714":15270,"4760":15271,"4777":15272,"4732":15273,"5836":15274,"5837":15275,"5874":15276,"5873":15277,"5841":15278,"5033":15279,"5088":15280,"5004":15281,"5093":15282,"6613":15283,"6694":15284,"7029":15285,"7079":15286,"7045":15287,"6070":15288,"6850":15289,"4526":15290,"4417":15291,"4435":15292,"4459":15293,"4433":15294,"Ġblow":15295,"5410":15296,"5426":15297,"5457":15298,"10324":15299,"amount":15300,"4225":15301,"idge":15302,"igers":15303,"5337":15304,"ircle":15305,"Ġgift":15306,"illiant":15307,"12029":15308,"antly":15309,"12859":15310,"asted":15311,"14080":15312,"endar":15313,"14855":15314,"Ġcode":15315,"ĠRights":15316,"20066":15317,"oven":15318,"isha":15319,"4503":15320,"4365":15321,"4397":15322,"5496":15323,"5409":15324,"4292":15325,"ĠOlymp":15326,"6372":15327,"6375":15328,"6571":15329,"Ġalive":15330,"Ġoppon":15331,"visits":15332,"depth":15333,"capolitical":15334,"ĠCommun":15335,"virginia":15336,"Ġpositions":15337,"pute":15338,"attered":15339,"malawi":15340,"Ġexpansion":15341,"singer":15342,"Ġartists":15343,"ĠTeam":15344,"Ġsmaller":15345,"haven":15346,"Ġenjoyed":15347,"ĠAttorney":15348,"atoday":15349,"lynn":15350,"Ġimmediate":15351,"atlantic":15352,"Ġelectricity":15353,"Ġincreasingly":15354,"Ġimproved":15355,"oween":15356,"nutrition":15357,"Ġtreated":15358,"iplomat":15359,"olymp":15360,"ĠSquare":15361,"ncregister":15362,"4307":15363,"4254":15364,"5170":15365,"5152":15366,"5197":15367,"6122":15368,"6196":15369,"6207":15370,"7241":15371,"8161":15372,"8292":15373,"Day":15374,"Eng":15375,"TR":15376,
[...]
